<unk>	0
<s>	0
</s>	0
,	-2.50251
。	-3.23165
的	-3.79339
▁	-4.1444
"	-4.34013
和	-4.61235
在	-4.90162
是	-5.53966
年	-5.63149
对	-5.81009
及	-5.81022
与	-5.89014
为	-5.89824
(	-5.95203
了	-5.97195
有	-6.01758
或	-6.0186
中	-6.03116
)	-6.06082
而	-6.12152
;	-6.15486
以	-6.17523
月	-6.18431
将	-6.19872
人	-6.2228
政府	-6.31222
时	-6.3317
我们	-6.41323
并	-6.43735
也	-6.49382
就	-6.50687
上	-6.5299
以及	-6.54082
日	-6.54445
不	-6.54556
:	-6.55801
问题	-6.5877
他	-6.63426
但	-6.64522
说	-6.65627
后	-6.66446
其	-6.70272
进行	-6.70534
他们	-6.70791
于	-6.71107
会	-6.71525
已	-6.72068
▁在	-6.72941
地	-6.73299
我	-6.76071
到	-6.7662
向	-6.77156
香港	-6.78603
一	-6.79329
从	-6.81133
包括	-6.81518
等	-6.84634
要	-6.85306
有关	-6.85755
所	-6.86968
国家	-6.87537
由	-6.88549
工作	-6.8974
被	-6.90491
提供	-6.91709
这些	-6.92803
来	-6.94251
方面	-6.95335
没有	-6.95643
大	-6.96177
一个	-6.97495
都	-6.98536
发展	-7.0052
第	-7.04685
可以	-7.07167
联合国	-7.08057
这	-7.08268
1	-7.10309
可	-7.12603
应	-7.15286
委员会	-7.16042
新	-7.1924
更	-7.19409
内	-7.20037
使	-7.20456
下	-7.21024
因为	-7.21055
表示	-7.21344
已经	-7.21562
中国	-7.22609
认为	-7.22696
要求	-7.23213
3	-7.23391
者	-7.23858
还	-7.24308
需要	-7.25265
前	-7.26375
通过	-7.26795
至	-7.27279
活动	-7.27609
把	-7.28932
国际	-7.29495
该	-7.30142
必须	-7.30192
:"	-7.31119
关于	-7.32179
个	-7.32448
这个	-7.3482
可能	-7.35154
名	-7.35211
服务	-7.35546
代表	-7.3561
5	-7.36056
经济	-7.36747
▁"	-7.37119
能	-7.37475
多	-7.37645
一些	-7.38893
计划	-7.39047
性	-7.392
美国	-7.39207
社会	-7.40496
10	-7.41433
继续	-7.41772
所有	-7.43097
它	-7.43221
6	-7.43229
同	-7.43252
增加	-7.44535
则	-7.44666
4	-7.4488
支持	-7.46053
亦	-7.47114
这种	-7.48847
2	-7.48966
如	-7.49189
提出	-7.4933
用	-7.49574
▁我们	-7.50241
三	-7.50728
作为	-7.5099
使用	-7.5209
会议	-7.52406
建议	-7.53216
根据	-7.53295
7	-7.54281
执行	-7.55556
最	-7.56718
公司	-7.56902
又	-7.57097
即	-7.57658
政策	-7.58912
因此	-7.59125
指出	-7.5992
处理	-7.60585
参与	-7.60931
外	-7.6142
由于	-7.6153
▁因此	-7.61946
之	-7.62015
国	-7.62549
二	-7.62984
条	-7.63121
各	-7.63574
能够	-7.63585
9	-7.63701
行动	-7.63938
目前	-7.64918
▁此外	-7.65025
去	-7.65146
方案	-7.65215
的人	-7.65327
研究	-7.65368
因	-7.65373
决定	-7.65561
其他	-7.65588
里	-7.65615
主席	-7.66048
法	-7.66137
高	-7.66293
自	-7.67344
而且	-7.67699
合作	-7.68253
这一	-7.68465
妇女	-7.6868
给	-7.68699
如果	-7.68955
成为	-7.6896
组织	-7.69185
作出	-7.69438
教毓	-7.69627
出	-7.69695
12	-7.70221
规定	-7.70674
报告	-7.70767
让	-7.70774
希望	-7.70886
台湾	-7.71121
机构	-7.71257
地区	-7.71317
无	-7.72154
的问题	-7.72236
任何	-7.72385
却	-7.73642
特别	-7.7423
着	-7.74781
解决	-7.74806
8	-7.75931
家	-7.76311
小	-7.76446
影响	-7.77443
比	-7.77893
人员	-7.7855
加强	-7.78859
不能	-7.79014
过	-7.79068
之后	-7.79165
情况	-7.80162
开始	-7.80234
得	-7.80288
参加	-7.80655
11	-7.80706
再	-7.8074
时间	-7.8097
法律	-7.81456
努力	-7.81464
讨论	-7.82064
自己	-7.82167
作	-7.82288
其中	-7.82357
获得	-7.82616
就是	-7.82855
市场	-7.83477
只	-7.83586
期间	-7.83649
建立	-7.84135
管理	-7.84771
▁我	-7.84967
政治	-7.85666
项目	-7.86234
接受	-7.86494
现在	-7.87684
她	-7.88283
水	-7.88322
起	-7.88343
受到	-7.88393
得到	-7.88815
安全	-7.88955
公约	-7.89464
中心	-7.89564
人民	-7.89725
世界	-7.89889
应该	-7.89992
本	-7.9021
便	-7.90249
措施	-7.90338
促进	-7.9047
造成	-7.91159
儿童	-7.91874
调查	-7.92129
约	-7.93111
许多	-7.93181
受	-7.932
特别是	-7.9342
主要	-7.93769
利用	-7.93926
的工作	-7.93965
投资	-7.948
分	-7.95149
正	-7.95276
/	-7.95344
市民	-7.96133
天	-7.96589
点	-7.96793
协助	-7.96814
区	-7.96916
举行	-7.97273
负责	-7.97459
例如	-7.98315
制度	-7.98837
资源	-7.99407
先生	-7.99568
子	-8.00082
减少	-8.0018
非	-8.00198
环境	-8.00227
好	-8.0029
长	-8.00556
改善	-8.00708
四	-8.00849
五	-8.00894
-	-8.0107
保护	-8.0121
进一步	-8.01214
?	-8.01414
考虑	-8.01754
美元	-8.01823
系统	-8.01842
▁由于	-8.02606
万	-8.02739
大会	-8.03061
2000	-8.03466
正在	-8.03537
安排	-8.03672
实施	-8.03832
发生	-8.03912
实现	-8.03921
令	-8.04849
当	-8.04948
确保	-8.0513
技术	-8.06015
生	-8.06386
较	-8.06458
之间	-8.06585
资料	-8.07088
你	-8.07201
出现	-8.07819
才	-8.08166
对于	-8.08468
虽然	-8.0865
两	-8.09084
是否	-8.09544
并且	-8.09882
曾	-8.10245
部分	-8.10263
头	-8.10452
)。	-8.10457
▁他	-8.10761
同时	-8.10892
它们	-8.11168
人士	-8.1122
很	-8.11233
强调	-8.11653
新的	-8.11665
但是	-8.11765
不同	-8.11899
文化	-8.11943
和平	-8.12426
当局	-8.13417
20	-8.13452
须	-8.13462
完成	-8.13679
▁但是	-8.14223
具有	-8.14888
无法	-8.15358
做	-8.15439
成员	-8.15621
提高	-8.15795
人权	-8.15806
日本	-8.15883
想	-8.16083
涉及	-8.16171
部	-8.16351
以便	-8.16487
未	-8.17287
不是	-8.17317
都是	-8.17414
议员	-8.17477
只有	-8.17514
很多	-8.17719
15	-8.17771
甚至	-8.17953
▁然而	-8.18257
家庭	-8.18941
各种	-8.19059
部门	-8.19287
发现	-8.19309
企业	-8.19354
达	-8.19436
采取	-8.20022
仍然	-8.20101
今天	-8.20477
▁如果	-8.20495
成	-8.20629
全球	-8.20671
伊拉克	-8.2068
的国家	-8.21271
区域	-8.21527
▁根据	-8.21646
元	-8.21683
进入	-8.21719
程序	-8.21817
道	-8.21836
如何	-8.21874
学校	-8.22277
所以	-8.22595
德	-8.22598
方式	-8.23125
间	-8.23268
最近	-8.23302
这是	-8.23381
非常	-8.23621
均	-8.24939
经	-8.25081
共同	-8.25296
六	-8.25538
看	-8.25627
同意	-8.25752
・	-8.25847
取得	-8.25876
完全	-8.26036
生活	-8.26651
化	-8.26709
学生	-8.26716
权	-8.26858
马	-8.26967
秘书长	-8.27135
选举	-8.27259
文	-8.27443
总	-8.27787
帮助	-8.28065
科	-8.28607
审查	-8.28632
也是	-8.2877
▁这些	-8.28845
选择	-8.29027
山	-8.29063
人口	-8.29063
目标	-8.29126
一项	-8.29192
处	-8.29193
只是	-8.29194
打	-8.29198
确定	-8.29355
▁这	-8.29458
30	-8.29537
事件	-8.29619
▁不过	-8.29701
结果	-8.29715
安全理事会	-8.29719
非洲	-8.29848
开	-8.29876
银行	-8.29925
过去	-8.29936
行	-8.30093
今日	-8.30138
一样	-8.3019
那些	-8.30209
代表团	-8.30491
▁但	-8.30499
费用	-8.307
段	-8.30726
申请	-8.31001
大学	-8.3129
原则	-8.31338
民主	-8.31402
请	-8.31431
金	-8.31527
工业	-8.31572
学	-8.31798
关系	-8.31868
按	-8.32501
国际社会	-8.32568
工程	-8.32951
自由	-8.3315
总统	-8.33287
仍	-8.33292
各国	-8.3342
加	-8.33432
宣布	-8.33611
全面	-8.33733
拥有	-8.339
最后	-8.34302
本港	-8.34329
拉	-8.34542
发	-8.34787
个人	-8.34857
手	-8.34914
超过	-8.35048
领域	-8.35261
不断	-8.35561
能力	-8.35803
心	-8.35902
一般	-8.35989
2001	-8.36044
反对	-8.36227
设立	-8.36432
车	-8.3651
上述	-8.3652
说明	-8.36855
改革	-8.36903
来自	-8.37217
一直	-8.37329
保证	-8.37466
积极	-8.37731
占	-8.37877
为了	-8.3806
安理会	-8.38199
限制	-8.38264
成立	-8.38388
承认	-8.38414
局	-8.38798
承诺	-8.38905
人们	-8.39078
长期	-8.39105
了解	-8.39145
比较	-8.39152
之前	-8.39162
以来	-8.39212
行为	-8.39217
不会	-8.3924
路	-8.39506
保障	-8.39815
▁关于	-8.39901
标准	-8.39929
国内	-8.39939
次	-8.4052
地方	-8.40606
1999	-8.40718
现时	-8.40795
来说	-8.41082
控制	-8.4114
重	-8.42143
导致	-8.42507
机制	-8.42632
林	-8.42872
以色列	-8.43108
直接	-8.43158
警察	-8.4321
恢复	-8.43264
之一	-8.43308
1998	-8.4357
及其	-8.43635
▁虽然	-8.43667
特	-8.43861
审议	-8.44439
美	-8.44489
数	-8.44723
明	-8.4513
力	-8.45321
七	-8.45477
的情况	-8.45511
事	-8.45537
共	-8.45627
十分	-8.45808
那	-8.45856
条例	-8.46057
援助	-8.46141
表明	-8.4617
方法	-8.463
法院	-8.46387
这样	-8.46518
款	-8.46527
贸易	-8.46672
缔约国	-8.47292
权利	-8.47449
居民	-8.47462
18	-8.47653
张	-8.47737
一种	-8.47813
每	-8.47843
和其他	-8.48017
老	-8.48196
小组	-8.48373
每年	-8.48397
将会	-8.48465
严重	-8.48476
实际	-8.48516
利	-8.48571
条件	-8.48752
收入	-8.48822
按照	-8.49094
岁	-8.49162
花	-8.49288
西	-8.49561
海	-8.49693
重新	-8.49838
协定	-8.49888
成功	-8.50017
还是	-8.503
给予	-8.50745
社区	-8.5089
缺乏	-8.51268
基金	-8.5144
八	-8.51513
","	-8.51589
量	-8.5162
台	-8.51828
产生	-8.52257
入	-8.52365
达到	-8.52407
期	-8.52509
大家	-8.52565
的是	-8.52647
位	-8.52657
应当	-8.52834
除了	-8.53006
部队	-8.53147
费	-8.53259
意见	-8.53288
秘书处	-8.5333
文件	-8.53369
号	-8.53408
两个	-8.53641
协调	-8.53711
增长	-8.53916
经常	-8.54073
看到	-8.54328
推动	-8.54385
1997	-8.54431
立法	-8.54659
城市	-8.54662
今年	-8.54777
有些	-8.54924
一名	-8.54975
的权利	-8.55153
欢迎	-8.55381
机会	-8.55711
冲突	-8.55917
尤其是	-8.55947
省	-8.56063
谈判	-8.56168
生产	-8.56182
保持	-8.56186
当时	-8.56253
法庭	-8.56471
市	-8.56474
情湟	-8.56508
这项	-8.56598
的发展	-8.56746
土地	-8.56932
重要	-8.57292
工作人员	-8.57383
全国	-8.57421
先	-8.57558
低	-8.57633
斯	-8.57737
维持	-8.57804
全	-8.57825
▁委员会	-8.57937
团体	-8.5801
改变	-8.58068
14	-8.58177
整个	-8.58572
设施	-8.58934
鼓励	-8.59216
英国	-8.59366
责任	-8.59375
13	-8.59646
巴	-8.59704
提交	-8.59714
呢	-8.59857
有效	-8.59883
解释	-8.60068
像	-8.6015
独立	-8.60172
内容	-8.60415
评估	-8.60429
▁他们	-8.60653
分析	-8.60926
运动	-8.60994
困难	-8.6108
率	-8.61085
公开	-8.61092
1996	-8.6113
业务	-8.61182
中的	-8.61189
十	-8.61428
某些	-8.61655
书	-8.61758
2002	-8.61908
大陆	-8.62036
充分	-8.6218
知道	-8.62224
机	-8.62291
开放	-8.62511
资金	-8.62585
风	-8.62669
准备	-8.6267
尔	-8.62886
加入	-8.63031
条约	-8.63104
协议	-8.63299
近	-8.63305
访问	-8.63399
转	-8.63429
未来	-8.6343
双方	-8.63538
▁至于	-8.63623
米	-8.63828
南	-8.64083
从事	-8.64206
的影响	-8.64225
扩大	-8.64289
--	-8.64398
回	-8.64406
通知	-8.64483
正式	-8.6449
项	-8.64718
走	-8.64749
克	-8.64768
场	-8.64816
阶段	-8.64846
人类	-8.64882
方	-8.64901
事务	-8.64918
警方	-8.65162
问	-8.65475
如此	-8.65638
难民	-8.65647
亿元	-8.65678
安	-8.65699
呼吁	-8.65774
发言	-8.65847
我国	-8.65931
证明	-8.65968
的建议	-8.65971
有关的	-8.65998
战略	-8.66034
尽管	-8.66168
军	-8.66328
基本法	-8.66431
还有	-8.66435
相信	-8.66473
专家	-8.6652
当地	-8.66555
制订	-8.66633
产品	-8.66694
官员	-8.6674
实行	-8.67038
线	-8.67057
卡	-8.6709
修订	-8.67203
制	-8.6722
军事	-8.67392
并不	-8.67559
见	-8.67569
更加	-8.67655
19	-8.67699
历史	-8.67766
▁政府	-8.67883
单位	-8.67892
人数	-8.68048
光	-8.68057
亿美元	-8.68098
面	-8.68263
欧洲	-8.68674
发展中国家	-8.68694
水平	-8.68877
结束	-8.68888
信息	-8.68942
从而	-8.69026
的话	-8.69073
16	-8.69387
制定	-8.69388
工作组	-8.69396
用于	-8.69527
持续	-8.69554
符合	-8.69601
称	-8.69703
而言	-8.69766
此	-8.69862
种	-8.69901
组	-8.70081
反	-8.70095
的时候	-8.70166
1995	-8.70181
再次	-8.70187
推行	-8.70322
办法	-8.70389
禁止	-8.70415
举行的	-8.70461
培训	-8.70577
自己的	-8.70585
华	-8.70605
队	-8.70681
大量	-8.70686
才能	-8.707
前往	-8.70774
女	-8.71033
工人	-8.71081
局势	-8.71429
以上	-8.7146
陈	-8.71515
具体	-8.71522
战争	-8.71568
估计	-8.71685
气	-8.71882
度	-8.72062
因素	-8.72359
▁该	-8.72476
不仅	-8.72489
门	-8.7254
连	-8.72608
1994	-8.72698
出口	-8.72703
似乎	-8.72984
公	-8.7325
之间的	-8.7328
法官	-8.73426
未能	-8.73459
预算	-8.73641
商业	-8.73664
面对	-8.7387
注意	-8.73955
会员国	-8.73981
任务	-8.74007
担任	-8.74127
本身	-8.74196
业	-8.74473
经过	-8.74705
获	-8.7471
的意见	-8.7496
其实	-8.75097
透过	-8.75161
自然	-8.75186
支付	-8.75775
内地	-8.7579
健康	-8.75941
威胁	-8.76071
最终	-8.76104
供	-8.76201
17	-8.76436
普遍	-8.76831
办事处	-8.76942
危机	-8.77041
作用	-8.77089
协会	-8.77156
进	-8.7722
将于	-8.77417
50	-8.77457
显示	-8.77458
存在	-8.77698
属于	-8.77743
打击	-8.77887
集团	-8.77946
行政	-8.78164
王	-8.78253
▁目前	-8.78338
犯罪	-8.78515
武器	-8.78582
东	-8.78679
医院	-8.78733
议会	-8.78921
价格	-8.79111
口	-8.79131
他们的	-8.79142
宗	-8.79167
建设	-8.7933
民族	-8.79499
香港的	-8.79503
数据	-8.79518
大约	-8.79574
万美元	-8.79791
针对	-8.7982
防止	-8.79933
支助	-8.80083
精神	-8.80158
争取	-8.80431
非法	-8.80457
地位	-8.80514
医疗	-8.80524
25	-8.8083
网络	-8.80876
带来	-8.80881
阿	-8.809
批准	-8.81023
罗	-8.81187
员	-8.812
并非	-8.81229
稳定	-8.81262
那么	-8.81329
九	-8.81352
同样	-8.814
需求	-8.8152
公布	-8.81776
范围	-8.81923
中央	-8.81932
本地	-8.8197
基本	-8.82026
表	-8.8207
钱	-8.8209
商	-8.82399
一起	-8.82589
公务员	-8.826
爱	-8.82726
团	-8.82783
关注	-8.82844
一年	-8.82869
白	-8.83075
亚洲	-8.83134
开发	-8.83262
训练	-8.83294
传统	-8.83302
的主要	-8.83307
设计	-8.83311
21	-8.8337
加以	-8.8346
就业	-8.83473
难	-8.83678
宪法	-8.83875
们	-8.83943
全部	-8.84049
交通	-8.84104
原	-8.84219
以后	-8.84247
规则	-8.84341
利益	-8.84479
公众	-8.84602
运输	-8.84759
号决议	-8.84793
吃	-8.84936
带	-8.8501
公民	-8.85039
设备	-8.85226
电	-8.854
尊重	-8.85584
李	-8.85652
案	-8.85773
开展	-8.85928
课程	-8.86049
我们的	-8.8612
的活动	-8.86143
真正	-8.86159
▁为了	-8.86177
▁(	-8.86178
不要	-8.86242
价值	-8.86283
出席	-8.86305
是一个	-8.86392
外国	-8.86498
除	-8.86582
重申	-8.86736
站	-8.8683
消除	-8.8685
▁最后	-8.86906
▁尽管	-8.86919
提出的	-8.86953
调整	-8.87116
享有	-8.8712
破坏	-8.87228
提到	-8.87275
检讨	-8.87646
迅速	-8.87649
适当	-8.87688
违反	-8.87693
有人	-8.87696
不足	-8.87743
管制	-8.87791
相	-8.87831
青年	-8.88045
身	-8.8814
保留	-8.88158
觉得	-8.88174
进行了	-8.88329
不过	-8.88362
病	-8.88386
案件	-8.88462
少	-8.88815
强	-8.88833
首	-8.88859
平均	-8.8888
半	-8.88914
党	-8.8894
即使	-8.89015
信	-8.89019
):	-8.89161
立即	-8.89359
并没有	-8.89383
教	-8.89526
或者	-8.89611
往往	-8.89656
▁例如	-8.89724
第一	-8.89918
在香港	-8.90099
极	-8.90268
工	-8.90325
▁同时	-8.9035
的一个	-8.90366
一次	-8.90395
主	-8.90418
远	-8.90446
只要	-8.90451
报	-8.90474
权力	-8.90499
遵守	-8.90522
情	-8.90529
特派团	-8.90553
联合	-8.90712
分别	-8.90719
经验	-8.90722
展开	-8.90787
民	-8.90839
24	-8.90872
运作	-8.90899
咨询	-8.91066
▁从	-8.91078
大部分	-8.91246
新闻	-8.91327
专业	-8.9141
广泛	-8.91478
加上	-8.91486
万元	-8.91749
拒绝	-8.91929
港	-8.92008
▁他说	-8.92046
黄	-8.92133
的方式	-8.9215
领导人	-8.9223
孩子	-8.92331
该国	-8.92454
讲	-8.92686
死亡	-8.92699
学习	-8.92728
引起	-8.92734
不应	-8.92894
不少	-8.93075
明确	-8.93242
这类	-8.93249
个月	-8.93283
旅游	-8.93322
图	-8.93371
宣传	-8.93398
收	-8.9349
派	-8.93589
履行	-8.93704
以前	-8.93991
行政长官	-8.94
动	-8.94036
农业	-8.94227
辟免	-8.94262
相当	-8.94326
愿意	-8.94327
若	-8.94377
非政府组织	-8.94614
一点	-8.94739
科技	-8.9484
方面的	-8.94892
去年	-8.94982
法国	-8.95018
令人	-8.95134
媒体	-8.9524
变化	-8.95377
之外	-8.95387
艺术	-8.95509
规划	-8.95967
制造	-8.95998
理事会	-8.96008
登记	-8.96099
竞争	-8.96155
发出	-8.96173
当然	-8.96205
清	-8.96306
承担	-8.96366
节	-8.96395
更多	-8.96596
▁主席	-8.96681
的能力	-8.96697
他的	-8.96748
的规定	-8.96869
下降	-8.96962
的资料	-8.96968
印度	-8.97002
办公室	-8.97011
跟	-8.97073
建	-8.97247
听	-8.97304
是在	-8.9739
流	-8.97409
属	-8.97622
布	-8.97661
石	-8.97825
放	-8.97911
注意到	-8.97982
周	-8.98063
的努力	-8.98144
介绍	-8.98241
城	-8.98245
医生	-8.98647
恐怖主义	-8.9867
日至	-8.98795
感到	-8.98905
形式	-8.98993
原因	-8.99078
──	-8.99096
的目标	-8.99127
各项	-8.99222
罪行	-8.99474
的报告	-8.99504
界	-8.99517
平	-8.9958
指	-8.9961
深	-8.99661
预防	-8.99663
曾经	-8.99687
合同	-8.99775
几	-8.99864
内部	-9.00015
年的	-9.0027
的机会	-9.00324
而是	-9.00332
落实	-9.00356
事实	-9.00487
一切	-9.00552
数目	-9.00562
车辆	-9.00567
联系	-9.00637
律师	-9.00643
▁事实上	-9.00647
的新	-9.00841
物	-9.00902
楼	-9.0092
油	-9.00962
预计	-9.01026
▁在这方面	-9.01232
收费	-9.01238
寻求	-9.01244
举办	-9.01245
古	-9.01345
数字	-9.01367
上升	-9.01416
画	-9.01531
投票	-9.0155
程度	-9.01593
式	-9.01609
首先	-9.01629
过程	-9.0171
因而	-9.01787
计算	-9.01832
第二	-9.01877
若干	-9.01898
难以	-9.02079
往	-9.02172
加拿大	-9.02428
尼	-9.02511
常	-9.02547
单	-9.02614
邀请	-9.02666
的时间	-9.02784
改进	-9.0281
▁它	-9.02839
不得	-9.02989
这次	-9.03383
一位	-9.0347
特别报告员	-9.03474
阿富汗	-9.03489
构成	-9.03609
电子	-9.03642
空间	-9.03692
经营	-9.03695
协商	-9.03719
开支	-9.03722
采用	-9.03728
选	-9.03831
什么	-9.03915
维护	-9.03951
手段	-9.03952
金融	-9.04091
声	-9.04093
街	-9.04402
资助	-9.04402
重大	-9.04449
发表	-9.04541
尽快	-9.04597
有权	-9.04771
基础	-9.04776
伊	-9.04824
北京	-9.04892
供应	-9.04964
教师	-9.04989
建筑	-9.04998
网	-9.05082
这样做	-9.05175
尚未	-9.05283
返回	-9.05285
亚	-9.05415
的情况下	-9.05425
▁而	-9.05658
现象	-9.05724
地点	-9.05733
至少	-9.05776
反映	-9.05818
义务	-9.05873
乐	-9.05915
现有	-9.06017
挑战	-9.06047
监测	-9.06092
上的	-9.06209
签署	-9.06263
份	-9.06437
亿	-9.06484
司法	-9.0651
进程	-9.0652
监督	-9.06581
联盟	-9.06601
照顾	-9.06718
写	-9.06819
其中包括	-9.06881
进口	-9.06924
联	-9.07053
提供了	-9.07062
大多数	-9.07075
最高	-9.07076
也有	-9.07312
然后	-9.07318
的原则	-9.0734
论坛	-9.07361
巴勒斯坦	-9.07368
员工	-9.0777
领土	-9.07782
通	-9.07917
交	-9.0795
管	-9.0796
28	-9.08007
而不是	-9.08072
的情湟	-9.08151
停止	-9.08156
需	-9.08318
空	-9.08385
修改	-9.08421
法例	-9.08524
局长	-9.08532
将来	-9.08563
检查	-9.08677
有助于	-9.08713
40	-9.08757
交易	-9.08766
火	-9.08864
鱼	-9.08943
字	-9.0901
东帝汶	-9.09147
村	-9.09204
死	-9.09321
暴力	-9.0938
在其	-9.09553
结构	-9.09601
香港人	-9.09896
记者	-9.09912
科学	-9.09923
评价	-9.10053
代	-9.10085
只能	-9.10113
怀疑	-9.1012
进展	-9.10162
劳工	-9.10414
移民	-9.10444
允许	-9.10533
赔偿	-9.10619
神	-9.10736
定	-9.10776
▁另外	-9.10816
治疗	-9.1084
调	-9.10909
票	-9.10937
损失	-9.10982
购买	-9.11003
真	-9.11106
通常	-9.11222
对话	-9.11233
成本	-9.1125
草案	-9.11343
提及	-9.11344
具	-9.11391
採取	-9.11423
旨在	-9.11425
核	-9.11532
公共	-9.1156
行业	-9.11679
战	-9.11773
考虑到	-9.11792
船	-9.11812
感	-9.11847
的所有	-9.11889
现	-9.12011
1993	-9.12277
发挥	-9.12277
以下	-9.12393
人的	-9.12415
落	-9.12425
31	-9.12524
州	-9.12609
资产	-9.12684
女性	-9.12699
的作用	-9.12787
驻	-9.12937
的地方	-9.13012
私人	-9.13022
将在	-9.13086
的政策	-9.13189
遭到	-9.13216
22	-9.13236
整体	-9.13262
机场	-9.13295
状况	-9.13314
接触	-9.1332
23	-9.13331
世	-9.13408
明显	-9.13455
每天	-9.13472
担心	-9.13494
红	-9.13537
的结果	-9.13694
攻击	-9.13751
贷款	-9.13765
起来	-9.13863
总部	-9.13866
没	-9.13944
合	-9.1413
部署	-9.14138
小时	-9.14239
26	-9.14523
成员国	-9.1454
住	-9.14543
班	-9.14649
几乎	-9.14755
岛	-9.14797
太	-9.14829
类	-9.14842
坚持	-9.14896
我想	-9.14964
确认	-9.14981
青少年	-9.14984
位于	-9.15023
龙	-9.15048
辩论	-9.15176
民众	-9.15585
卫生	-9.15701
.	-9.15725
▁香港	-9.15795
取消	-9.15992
危险	-9.16098
授权	-9.16152
格	-9.16227
证	-9.16268
宗教	-9.16362
可能会	-9.16378
顾问	-9.16402
一份	-9.16474
的做法	-9.16569
重建	-9.16578
○○	-9.16627
第一次	-9.16759
首次	-9.16769
额	-9.16893
目的	-9.17103
显然	-9.17154
100	-9.17154
老人	-9.172
的利益	-9.17319
▁当然	-9.17323
仅	-9.1738
临时	-9.17423
预期	-9.1745
离开	-9.17538
的责任	-9.17638
予以	-9.17641
财产	-9.17657
僱主	-9.17674
▁对于	-9.17718
感谢	-9.17819
▁联合国	-9.17858
纳	-9.17973
变	-9.18017
每个	-9.18089
▁据	-9.18161
1990	-9.18166
父母	-9.18186
▁鉴于	-9.18262
贫困	-9.18287
基	-9.18288
国民	-9.18567
的经济	-9.18574
的人士	-9.18608
主席先生	-9.18769
都会	-9.18802
共有	-9.18807
▁她	-9.1882
税	-9.18841
条款	-9.18873
数量	-9.18883
配合	-9.19025
司	-9.19047
相关	-9.19048
快	-9.19203
年代	-9.19303
条例草案	-9.19408
遭受	-9.19432
北	-9.19532
表现	-9.19589
意	-9.19653
体	-9.19702
运	-9.19787
海外	-9.19796
重视	-9.19866
满	-9.19874
干	-9.19886
27	-9.19957
组成	-9.19962
视	-9.20008
买	-9.20167
过程中	-9.20317
满足	-9.20406
电话	-9.205
都有	-9.2051
器	-9.20562
行使	-9.20629
定期	-9.20644
贫穷	-9.21053
理解	-9.21153
奖	-9.21217
越	-9.21262
的行为	-9.21271
进行的	-9.21287
境内	-9.21319
取	-9.21391
兴建	-9.21438
制裁	-9.21501
经费	-9.21514
人道主义	-9.21539
河	-9.21544
损害	-9.21545
压力	-9.21552
审判	-9.21612
电脑	-9.21712
节目	-9.21728
共和国	-9.21751
部长	-9.21922
实	-9.22041
宣言	-9.221
日益	-9.22107
确实	-9.22182
▁现在	-9.2226
古巴	-9.22284
象	-9.2233
推广	-9.22441
的任何	-9.22519
国际法	-9.22782
提	-9.22846
肯定	-9.22871
电视	-9.22918
发生的	-9.22962
今后	-9.23139
产	-9.23363
德国	-9.23457
委员	-9.23556
三年	-9.23595
在这方面	-9.23705
任	-9.2373
已有	-9.23751
送	-9.2395
的重要	-9.24005
综合	-9.24048
谈	-9.24049
60	-9.24139
声明	-9.24343
老师	-9.24363
科索沃	-9.24369
另外	-9.24385
理由	-9.24439
财政	-9.24479
▁主席先生	-9.24493
紧急	-9.24548
收到	-9.24553
统计	-9.24575
院	-9.24939
现实	-9.24959
的重要性	-9.25112
所谓	-9.25124
期望	-9.25151
这样的	-9.25335
住房	-9.25413
的法律	-9.25474
并在	-9.25811
成果	-9.25832
级	-9.25833
高级	-9.2584
左右	-9.25923
联邦	-9.26044
当中	-9.26192
的代表	-9.26305
体制	-9.26313
提议	-9.26463
沙	-9.26501
眼	-9.26597
片	-9.26608
能源	-9.26673
逐渐	-9.26745
理	-9.26872
富	-9.26923
记录	-9.27005
保健	-9.27059
的要求	-9.27118
编制	-9.27214
领导	-9.27238
平民	-9.27259
一定	-9.27271
俄罗斯	-9.27315
大使	-9.2742
飞机	-9.27498
监察	-9.27578
不可	-9.2773
受害者	-9.27799
处于	-9.27844
根本	-9.27853
校	-9.27944
29	-9.28107
全球化	-9.28133
最大的	-9.28225
关	-9.2826
对此	-9.2833
]	-9.2836
立法局	-9.28441
投入	-9.28517
件	-9.28532
专门	-9.28796
时代	-9.28806
面临	-9.28829
其它	-9.28856
否则	-9.28974
木	-9.29003
道路	-9.29028
拨款	-9.29059
福利	-9.29112
台北	-9.29161
官	-9.29209
立法会	-9.29221
▁所以	-9.29293
有必要	-9.29327
她们	-9.29399
股	-9.29417
交流	-9.29518
卢旺达	-9.2956
英	-9.29583
各方	-9.2965
▁除了	-9.29735
岐视	-9.29763
僱员	-9.29958
子女	-9.29999
请求	-9.30002
清楚	-9.30029
证实	-9.30096
罪	-9.301
展	-9.30149
个别	-9.30282
▁警方	-9.30293
语	-9.30495
很难	-9.30563
随着	-9.30678
也会	-9.30818
到了	-9.30848
屋	-9.30918
实际上	-9.31019
厂	-9.31063
材料	-9.3113
总理	-9.31152
生命	-9.3122
报道	-9.31259
萨	-9.31309
品	-9.31328
疾病	-9.31369
事项	-9.31401
详细	-9.31475
○	-9.315
外交	-9.3156
树	-9.31586
分配	-9.31588
色	-9.31645
亦会	-9.31689
倡议	-9.31835
室	-9.31851
侵犯	-9.3195
飞	-9.32045
基于	-9.32227
污染	-9.32245
▁这是	-9.32295
电影	-9.32296
办	-9.32338
统一	-9.32339
汉	-9.32353
失业	-9.32437
本人	-9.32441
国家的	-9.32493
接	-9.32583
职业	-9.32696
有机会	-9.32817
拟订	-9.33118
保	-9.33414
公平	-9.33486
创造	-9.33564
资讯	-9.33572
应付	-9.33654
的决定	-9.33683
工资	-9.3393
主任	-9.33941
男子	-9.34038
零	-9.34087
吸引	-9.34124
形成	-9.34144
企图	-9.34231
力量	-9.34294
证据	-9.34316
提出了	-9.34466
日在	-9.34469
降低	-9.34532
认识到	-9.34574
我认为	-9.3478
减	-9.34786
刚	-9.34808
价	-9.34843
使得	-9.35007
黑	-9.35157
产业	-9.35172
病人	-9.35211
类似	-9.35254
相互	-9.35354
货物	-9.35354
工作的	-9.35456
找到	-9.35458
不到	-9.35496
准则	-9.35606
指导	-9.35733
留	-9.35807
实在	-9.35846
袭击	-9.35863
增加了	-9.35895
和平进程	-9.35914
决议	-9.35946
副	-9.36013
附近	-9.36166
福	-9.36206
双	-9.3626
尤其	-9.36336
的行动	-9.3637
▁其实	-9.36448
且	-9.36472
适用	-9.3653
万人	-9.36534
事业	-9.36573
兰	-9.36725
知识	-9.36729
早	-9.36836
问题的	-9.3685
边界	-9.36887
你们	-9.36889
社	-9.36926
不但	-9.37087
看来	-9.3726
予	-9.37351
系	-9.37441
音乐	-9.37543
的措施	-9.37544
纳入	-9.37582
领	-9.37597
▁当	-9.37613
致力于	-9.37614
▁这种	-9.37633
言	-9.37656
儿	-9.3767
环保	-9.3767
逐步	-9.37692
多数	-9.37786
家长	-9.37819
现代	-9.37823
个国家	-9.37825
旧	-9.37838
待	-9.37857
不同的	-9.37983
铁路	-9.37988
海关	-9.38132
师	-9.38159
汽车	-9.38177
适当的	-9.38329
反应	-9.38442
便是	-9.38504
在此	-9.38571
我相信	-9.38572
的一些	-9.38573
全世界	-9.38646
学院	-9.38703
消费	-9.38722
底	-9.38786
鼓劢	-9.38831
教授	-9.38872
居住	-9.38906
语言	-9.38957
艾滋病	-9.39107
货	-9.39267
时期	-9.39269
预测	-9.39271
一致	-9.39272
贡献	-9.39325
批评	-9.394
传	-9.3945
出来	-9.39517
三个	-9.39569
做法	-9.39613
联合国系统	-9.39626
第三	-9.3964
的方法	-9.39645
▁今天	-9.3966
至今	-9.39692
军队	-9.39714
认识	-9.39857
越来越	-9.39867
传播	-9.39918
种族	-9.39943
啊	-9.39954
然而	-9.39955
概念	-9.40009
消费者	-9.40009
年度	-9.40021
达成	-9.40081
模式	-9.40094
优先	-9.40143
便会	-9.40149
不再	-9.40183
装	-9.40241
候选人	-9.40283
立	-9.40311
伊朗	-9.40339
生效	-9.40382
特区政府	-9.40441
年龄	-9.40589
赞成	-9.40616
风险	-9.40617
志	-9.40628
有所	-9.40651
的社会	-9.40676
方便	-9.40742
哈	-9.4076
展览	-9.40833
掌握	-9.41023
制作	-9.41024
塔	-9.41067
伤	-9.41158
列入	-9.412
政党	-9.41216
趋势	-9.41281
开发计划署	-9.41295
性质	-9.41386
朋友	-9.41409
也不	-9.4141
的任务	-9.4145
个案	-9.41464
任命	-9.41516
态度	-9.41525
注册	-9.41565
是由	-9.41848
他说	-9.41879
章	-9.4193
主要是	-9.41954
居	-9.42001
于是	-9.42111
纽约	-9.42136
尽	-9.42155
男女	-9.42185
话	-9.42185
假	-9.42266
奇	-9.42325
也没有	-9.42383
的经验	-9.42423
关心	-9.4243
观察	-9.42473
有一个	-9.42485
修	-9.42485
游	-9.42655
既	-9.42671
多个	-9.42679
卖	-9.42698
200	-9.42739
指标	-9.42856
收集	-9.43057
房屋	-9.43114
戏	-9.43211
决心	-9.43259
世纪	-9.43293
新加坡	-9.43338
托	-9.43388
物质	-9.43524
随	-9.43534
表达	-9.43597
的政治	-9.43608
政权	-9.43621
放弃	-9.43686
用户	-9.4369
公里	-9.4372
房	-9.43777
波	-9.43839
的关系	-9.43876
更为	-9.4393
接近	-9.44039
▁美国	-9.44056
平衡	-9.44127
照	-9.44174
卫星	-9.44184
田	-9.44255
瓦	-9.44315
雷	-9.4432
▁中国	-9.44326
土	-9.44368
声称	-9.44378
享受	-9.44523
列	-9.44631
差	-9.44721
遭	-9.44771
比赛	-9.44824
港人	-9.44853
的态度	-9.44929
1992	-9.45007
联络	-9.45104
合理	-9.45108
职	-9.45111
是因为	-9.45342
重点	-9.4541
刚才	-9.45433
客	-9.45471
夫	-9.45481
立场	-9.45496
的需要	-9.45541
夜	-9.45558
农	-9.45575
茶	-9.45655
药	-9.45664
毒品	-9.45691
十年	-9.45715
食	-9.45727
会议上	-9.45773
科威特	-9.45793
平等	-9.45851
条第	-9.45865
研究所	-9.45886
千	-9.4589
▁自	-9.45912
推出	-9.45952
一旦	-9.46
这一点	-9.46094
据	-9.46128
士	-9.46199
及时	-9.46243
倒	-9.46249
巴基斯坦	-9.4629
应用	-9.46303
变成	-9.46395
不可能	-9.46512
依	-9.46545
就会	-9.46566
的原因	-9.46624
一条	-9.46696
主持	-9.46786
热	-9.46822
事实上	-9.46982
边	-9.47064
框架	-9.47137
基础设施	-9.47225
刚果民主共和国	-9.4724
工具	-9.47321
营	-9.47357
▁如	-9.47443
负担	-9.47452
日后	-9.47541
算	-9.47617
无论	-9.47646
被告	-9.47649
之下	-9.47654
维	-9.47688
适用于	-9.47699
之中	-9.47749
得以	-9.47807
以确保	-9.4783
地雷	-9.48011
很大	-9.48161
支援	-9.4818
范围内	-9.48257
通讯	-9.48333
朝	-9.48376
石油	-9.4845
奥	-9.48482
复杂	-9.48688
谴责	-9.48812
百	-9.48836
集中	-9.49175
销售	-9.49176
掉	-9.49228
的国际	-9.49266
找	-9.49277
观众	-9.49363
良好	-9.4954
查	-9.49563
支出	-9.49684
排	-9.49687
召开	-9.49699
海洋	-9.49704
出版	-9.49713
津贴	-9.49801
性别	-9.49839
提醒	-9.49843
表演	-9.4993
小学	-9.5
叶	-9.50052
这个问题	-9.5023
荷兰	-9.50276
提升	-9.50323
▁我们认为	-9.50362
有可能	-9.50418
二十	-9.50453
用途	-9.50496
工会	-9.50498
余	-9.5051
条文	-9.50513
两名	-9.50521
联合国宪章	-9.5058
本局	-9.5063
五年	-9.50681
食品	-9.50738
索赔	-9.50777
菜	-9.50784
然	-9.508
下午	-9.50805
养	-9.5095
学者	-9.51035
来看	-9.51043
明白	-9.51192
机关	-9.51213
以外	-9.51225
意义	-9.51292
监管	-9.51307
值得	-9.51394
职位	-9.51474
人才	-9.51508
谁	-9.5152
族	-9.51534
特殊	-9.51588
苏	-9.51596
印度尼西亚	-9.51599
多次	-9.51611
靠	-9.51641
离	-9.51722
求	-9.5176
母亲	-9.51892
后来	-9.51892
的一部分	-9.51938
投诉	-9.51948
短	-9.51972
大型	-9.52016
必要	-9.5203
货币	-9.52084
升	-9.52353
中国人	-9.52353
来港	-9.52379
尽量	-9.52396
宪章	-9.52402
结	-9.52457
即将	-9.52501
保险	-9.526
防	-9.52646
层	-9.52664
......	-9.5275
坐	-9.52798
的安全	-9.52884
还要	-9.5291
▁对	-9.52929
有限	-9.52989
中学	-9.5301
绝对	-9.53056
十二	-9.53141
叫	-9.53177
计	-9.53234
那个	-9.53246
南非	-9.53368
赛	-9.53438
政	-9.53533
吴	-9.53613
干预	-9.53639
补充	-9.53655
来源	-9.53667
将继续	-9.53704
的精神	-9.53795
本组织	-9.53924
座	-9.54025
障碍	-9.54062
法治	-9.54139
一下	-9.54156
俄罗斯联邦	-9.54244
脚	-9.54365
失	-9.54367
姆	-9.54394
回应	-9.54466
以往	-9.5448
食物	-9.54636
上海	-9.54662
越南	-9.54766
亲	-9.54808
的需求	-9.54965
草	-9.54983
何	-9.55025
停	-9.55114
现场	-9.55134
值	-9.55193
巩固	-9.55243
一家	-9.55294
我觉得	-9.55307
主题	-9.55374
苦	-9.55441
苏丹	-9.55505
性的	-9.55514
致力	-9.55552
别人	-9.55568
的基础	-9.55572
舞	-9.55591
情报	-9.55596
礼	-9.55608
云	-9.55813
馆	-9.55833
感染	-9.55888
采取行动	-9.5592
读	-9.55933
博	-9.55959
三十	-9.55967
一套	-9.5604
高度	-9.56042
地区的	-9.56395
户	-9.56427
相比	-9.56433
换	-9.56456
纪念	-9.56477
改	-9.56507
方向	-9.56533
鉴于	-9.56576
皮	-9.56875
刑事	-9.56913
店	-9.5693
诸如	-9.57016
县	-9.57087
事情	-9.57097
的费用	-9.57164
等等	-9.57247
採用	-9.57255
会谈	-9.57262
澳大利亚	-9.57318
安哥拉	-9.57334
欧洲联盟	-9.57334
总督	-9.57348
塞拉利昂	-9.57366
铁	-9.57413
业界	-9.57418
香	-9.57425
的合作	-9.57525
史	-9.57528
的生活	-9.57742
经济发展	-9.57794
广	-9.57856
▁另一方面	-9.57877
相对	-9.57918
板	-9.57952
主管	-9.57955
);	-9.5802
男	-9.58054
并不是	-9.58061
根	-9.58062
埃及	-9.58087
外交部长	-9.58167
包	-9.58194
司机	-9.58198
厅	-9.58247
中共	-9.58282
1991	-9.58344
官方	-9.58354
减轻	-9.58381
一向	-9.58528
没有任何	-9.58618
塞	-9.58778
深入	-9.58783
的基本	-9.58794
▁其中	-9.58822
监狱	-9.58851
楼宇	-9.58862
非洲国家	-9.58903
型	-9.5891
此种	-9.58941
持	-9.58979
合法	-9.59014
江	-9.59103
公正	-9.59239
▁最近	-9.59273
人权委员会	-9.5928
▁今年	-9.59329
知	-9.59338
促使	-9.59348
事故	-9.5941
设	-9.59414
民主党	-9.59455
打算	-9.59461
星	-9.59494
"(	-9.59633
存	-9.59639
武装	-9.5964
▁这个	-9.59747
胡	-9.59763
永	-9.59788
晚	-9.5979
的立场	-9.59827
后果	-9.59909
设法	-9.59911
意外	-9.5992
两年	-9.5994
的其他	-9.60021
义	-9.60042
乡	-9.60085
作品	-9.60102
其他国家	-9.60126
广播	-9.60159
迪	-9.60164
侵略	-9.60182
有效的	-9.60223
库	-9.60247
并未	-9.60254
刘	-9.60263
专	-9.60306
有时	-9.60378
常常	-9.60414
土耳其	-9.60526
兴	-9.60616
研讨会	-9.6065
印	-9.60724
并无	-9.60746
几个	-9.60751
黎巴嫩	-9.60851
牌	-9.60938
▁特别报告员	-9.61037
活	-9.61066
商品	-9.61109
血	-9.61123
拘留	-9.61142
晚上	-9.61189
民间	-9.61212
一系列	-9.61223
所需的	-9.61238
及其他	-9.61331
进步	-9.6139
最好	-9.61391
▁首先	-9.61466
愿	-9.61562
投	-9.61578
套	-9.61634
优惠	-9.617
布隆迪	-9.61724
中文	-9.6174
玉	-9.61761
规模	-9.61786
职能	-9.61789
物品	-9.61822
致辞	-9.61854
下跌	-9.61979
同事	-9.62001
正是	-9.62058
试图	-9.62058
财务	-9.62061
不得不	-9.62104
的成员	-9.62147
世界上	-9.62199
本国	-9.62282
初	-9.62284
劳动	-9.62286
日期	-9.62309
兼	-9.6235
笔	-9.62359
维修	-9.62372
农村	-9.62427
关切	-9.62457
西班牙	-9.62488
主张	-9.62499
转让	-9.625
下列	-9.6253
克罗地亚	-9.62535
足	-9.62548
酒	-9.6259
出售	-9.62604
爆炸	-9.62606
松	-9.62664
国籍	-9.62689
适应	-9.62719
另一	-9.62749
青	-9.62803
巨大	-9.62864
特别是在	-9.62994
迂到	-9.63054
思想	-9.63128
我们认为	-9.63142
互相	-9.63252
受伤	-9.63304
角	-9.63311
广告	-9.63356
群体	-9.63363
源	-9.63409
核武器	-9.63475
英语	-9.63496
资本	-9.63499
森林	-9.63605
英文	-9.63618
情况下	-9.63631
其后	-9.63721
暂时	-9.63762
依赖	-9.63831
彻底	-9.63953
初步	-9.64018
被迫	-9.64018
集体	-9.64285
恶化	-9.64299
数额	-9.64305
演出	-9.64306
更多的	-9.64326
[	-9.6433
大规模	-9.64351
墨西哥	-9.64391
现行	-9.64414
除非	-9.64439
有需要	-9.64497
容易	-9.64504
无须	-9.64514
堂	-9.64533
指控	-9.64666
的支持	-9.64719
听到	-9.64761
指定	-9.64797
政府的	-9.64798
伙伴	-9.6487
资讯科技	-9.64923
观	-9.64975
雅	-9.65032
架构	-9.65037
旅客	-9.65039
犯	-9.65046
随后	-9.65089
有利于	-9.65116
失去	-9.65154
剧	-9.65154
效率	-9.65175
这么	-9.65243
回答	-9.65246
▁*	-9.65273
观察员	-9.65356
某	-9.65423
▁我认为	-9.65446
武装冲突	-9.65475
歌	-9.65507
员额	-9.65533
年来	-9.65553
兵	-9.656
景	-9.65678
十月	-9.6569
两国	-9.65711
主动	-9.65895
记	-9.65902
巴西	-9.65932
理想	-9.65955
实体	-9.66019
加快	-9.66085
对其	-9.66153
的目的	-9.66164
延长	-9.66234
裁军	-9.66243
举行了	-9.66252
盖	-9.66262
体毓	-9.66372
玩	-9.6644
分钟	-9.66464
足够	-9.66495
独	-9.66525
身份	-9.66553
年以来	-9.66566
占领	-9.66577
纸	-9.66582
正如	-9.66607
检察官	-9.66608
动物	-9.6663
)(	-9.66646
这些国家	-9.66679
倍	-9.66709
连续	-9.66745
赞扬	-9.66752
直	-9.66761
增	-9.66871
区内	-9.66886
普	-9.66945
最大	-9.66972
活动的	-9.66985
建造	-9.67103
多少	-9.67119
采购	-9.67133
药物	-9.67167
的内容	-9.67263
欧盟	-9.67277
一级	-9.67302
运用	-9.67357
主席女士	-9.67374
▁为	-9.67411
则是	-9.67454
决策	-9.67496
此外	-9.67531
起诉	-9.6758
影	-9.67601
球	-9.67621
的看法	-9.67648
内的	-9.6769
该地区	-9.67764
普通	-9.67773
很少	-9.67776
乘客	-9.67781
显着	-9.67862
主权	-9.67867
别	-9.67953
音	-9.67971
质量	-9.68007
一贯	-9.68008
梅	-9.68065
词	-9.68093
▁第二	-9.68136
发生了	-9.68266
虽	-9.68392
发达国家	-9.68439
阿拉伯	-9.68582
身上	-9.68624
退	-9.68668
有效地	-9.68768
邻国	-9.68776
年前	-9.68875
那样	-9.68882
紧张	-9.68909
一场	-9.68925
阻止	-9.69001
月底	-9.69044
两岸	-9.69044
日第	-9.69129
特区	-9.6916
短期	-9.69162
国际组织	-9.69204
削减	-9.69258
试验	-9.69298
反而	-9.69318
长者	-9.69324
圣	-9.69348
园	-9.6936
债务	-9.69464
2003	-9.69465
必要的	-9.69491
韩国	-9.69505
武	-9.69578
错	-9.69624
超	-9.69649
法案	-9.69827
架	-9.6991
艾滋病毒	-9.7003
教学	-9.70043
一百	-9.70065
重要的	-9.70089
磋商	-9.70101
增强	-9.70168
认真	-9.70225
载	-9.70264
中东	-9.70286
生物	-9.70293
目前的	-9.70321
高达	-9.70321
成就	-9.70338
废物	-9.70377
年底	-9.70393
不论	-9.70446
杨	-9.7048
海地	-9.7049
分享	-9.70543
喜欢	-9.70546
施政报告	-9.70607
是为了	-9.70619
我们必须	-9.70646
投资者	-9.70676
支	-9.70822
莫	-9.70842
各国政府	-9.70855
轮	-9.70862
公路	-9.70877
创新	-9.7088
粮食	-9.70906
制造业	-9.70945
70	-9.7095
试	-9.70954
泰国	-9.70973
沟通	-9.70987
望	-9.71222
提交人	-9.71283
农民	-9.71285
三月	-9.71291
500	-9.71297
批	-9.71311
议定书	-9.71342
工厂	-9.7139
轻	-9.71399
解	-9.71449
结论	-9.71509
群	-9.71594
决议草案	-9.716
香港市民	-9.71681
上诉	-9.71718
月份	-9.71879
合约	-9.7188
敦促	-9.71945
成绩	-9.72052
现有的	-9.72055
意大利	-9.72081
建立一个	-9.72092
版	-9.72173
心理	-9.72192
在内的	-9.72207
集	-9.72258
委任	-9.72281
在于	-9.72372
命令	-9.72463
当选	-9.72512
或其他	-9.72516
鸡	-9.72552
首脑会议	-9.72672
新界	-9.72729
贵	-9.7273
复	-9.72815
自愿	-9.72824
咨询委员会	-9.72891
资	-9.72891
步骤	-9.72897
盘	-9.72933
条规定	-9.72969
双边	-9.73046
编	-9.73096
尚	-9.73112
35	-9.73129
报导	-9.73154
也许	-9.73254
质	-9.73265
母	-9.73269
测试	-9.733
藏	-9.73343
救	-9.73366
举	-9.73378
此类	-9.73397
将其	-9.7345
牛	-9.7351
博士	-9.73532
300	-9.73597
澄清	-9.7361
故	-9.73641
退休	-9.7367
租	-9.73682
拿	-9.7369
参观	-9.73724
资格	-9.73746
的条件	-9.7379
政府在	-9.73853
的项目	-9.73883
七月	-9.73887
查询	-9.73921
荣	-9.74015
有很多	-9.74038
─	-9.7404
参考	-9.74056
以为	-9.74063
九月	-9.74099
入境	-9.74146
提供的	-9.74146
始终	-9.74149
总额	-9.74155
免费	-9.7416
比例	-9.74187
不受	-9.74199
下来	-9.74295
视为	-9.74311
以期	-9.74349
我希望	-9.74365
行动计划	-9.74514
恩	-9.74566
吉	-9.74625
寻找	-9.74659
更是	-9.7466
的事	-9.74735
体系	-9.74793
主义	-9.74839
跳	-9.74845
团结	-9.74866
职员	-9.7487
现正	-9.74937
许	-9.74957
▁因为	-9.74985
另	-9.75029
勒	-9.7511
整	-9.75124
造成的	-9.75213
衣	-9.75227
对付	-9.75272
所需	-9.75405
诺	-9.75428
客户	-9.7543
推	-9.75462
各级	-9.7549
各个	-9.75529
业主	-9.75552
人物	-9.75601
取代	-9.75604
每月	-9.75806
互联网	-9.75819
巴士	-9.75822
西方	-9.75845
或是	-9.7591
菲律宾	-9.75932
议程	-9.75935
贝	-9.75949
正常	-9.75968
步	-9.76028
极为	-9.76075
简单	-9.76151
仍然是	-9.76206
新西兰	-9.76245
▁秘书长	-9.76295
四月	-9.7632
强烈	-9.76351
务	-9.76396
的人数	-9.76399
女士	-9.76423
最不发达国家	-9.76536
胜	-9.76673
最多	-9.76756
回到	-9.76772
易	-9.76814
补偿	-9.76876
宝	-9.76969
专题	-9.76973
当前	-9.76999
索	-9.77057
的范围	-9.77069
署	-9.77209
香港特别行政区	-9.77277
问题上	-9.77335
八月	-9.77344
▁现时	-9.77422
可持续发展	-9.77423
吨	-9.7745
课	-9.77476
身体	-9.7758
灯	-9.77753
首都	-9.77812
特别委员会	-9.77816
少数	-9.77896
名单	-9.77899
利比里亚	-9.7794
唱	-9.77958
领袖	-9.77974
严格	-9.78035
自动	-9.78066
依照	-9.78066
功	-9.7807
六月	-9.78082
五十	-9.78174
他在	-9.7822
甚么	-9.78262
策略	-9.78338
明年	-9.78349
清洁	-9.78405
籍	-9.78448
死刑	-9.7845
过渡	-9.78473
面积	-9.7849
80	-9.78504
基地	-9.78509
关闭	-9.78545
在联合国	-9.78563
▁这一	-9.78615
拖延	-9.78631
全港	-9.78637
评论	-9.78778
全体	-9.788
纪录	-9.78918
的资源	-9.78936
道德	-9.78962
编写	-9.79007
顺利	-9.79022
所作的	-9.79065
网站	-9.79184
精	-9.79185
作出了	-9.79186
男性	-9.79204
执法	-9.79243
制止	-9.79297
和发展	-9.79374
赋予	-9.79376
真的	-9.79401
洛	-9.79439
住宅	-9.79467
多年来	-9.79495
的承诺	-9.795
可能是	-9.79528
我要	-9.79535
传媒	-9.7956
选民	-9.79588
利率	-9.79716
依据	-9.79787
怕	-9.79812
大大	-9.79819
低于	-9.79874
断	-9.79893
艺	-9.79948
哥伦比亚	-9.79964
女子	-9.80097
90	-9.80114
枪	-9.80135
设有	-9.80138
克服	-9.80165
五月	-9.80205
良	-9.80261
租金	-9.80339
安盟	-9.80367
证人	-9.80369
乌克兰	-9.804
镇	-9.80482
急	-9.80525
特定	-9.80704
鸟	-9.80733
旅游业	-9.80783
杀	-9.80862
自行	-9.80951
做出	-9.80963
依然	-9.80996
指示	-9.81014
盛	-9.81073
▁大会	-9.81207
温	-9.8126
尽可能	-9.81275
赞同	-9.81345
功能	-9.81362
不知道	-9.81501
的讨论	-9.81511
劳	-9.81622
曲	-9.81628
索马里	-9.81633
当年	-9.81681
微	-9.81703
的办法	-9.81719
的危险	-9.81783
并将	-9.81823
付	-9.81878
▁作为	-9.81946
导弹	-9.82077
少数民族	-9.82088
我的	-9.82104
登	-9.82118
了一个	-9.82157
外交部	-9.82178
表决	-9.8218
波斯尼亚	-9.82358
中国政府	-9.82413
相同	-9.82455
▁有关	-9.82501
署长	-9.82537
迨捕	-9.82643
争端	-9.82676
1000	-9.82681
拍	-9.82689
美利坚合众国	-9.82754
直到	-9.82773
回顾	-9.82858
父亲	-9.82901
约有	-9.82933
作了	-9.82979
也可以	-9.83064
四个	-9.83069
围	-9.83216
▁同样	-9.83254
修正	-9.83272
错误	-9.83287
但在	-9.83307
的各种	-9.83317
丽	-9.83335
在过去	-9.83384
届	-9.83567
星期五	-9.83575
▁随着	-9.83589
一天	-9.83659
私营部门	-9.83667
毛	-9.83724
生态	-9.83754
发言人	-9.83758
原来	-9.83761
形势	-9.83896
终于	-9.83898
考	-9.8392
各位	-9.8401
四年	-9.84047
一道	-9.84061
修正案	-9.84087
是一种	-9.84098
归	-9.8411
十一月	-9.84151
总是	-9.84168
守	-9.8428
同一	-9.84298
规范	-9.84301
十二月	-9.84351
爆发	-9.84356
现已	-9.84418
不知	-9.84424
参加了	-9.84426
永远	-9.84473
在这里	-9.84511
装置	-9.84569
的可能性	-9.84593
较为	-9.84609
每一	-9.84625
目的是	-9.84645
喜	-9.84678
定义	-9.84682
45	-9.84685
款项	-9.8469
动议	-9.84695
暂停	-9.84731
指数	-9.84776
报告中	-9.84802
塔利班	-9.84848
看看	-9.8486
探讨	-9.8487
促请	-9.84972
适合	-9.85
创	-9.85036
期待	-9.85046
答复	-9.85076
职务	-9.85084
以致	-9.85148
近年来	-9.85228
治	-9.85229
春	-9.85239
革命	-9.85275
南部	-9.85369
最低	-9.85377
金额	-9.85382
今次	-9.85389
核准	-9.85399
▁第一	-9.85454
等待	-9.85478
观点	-9.85497
诗	-9.85502
的标准	-9.8552
配	-9.8555
流动	-9.85569
告诉	-9.85612
有助	-9.85694
马来西亚	-9.85797
齐	-9.85801
自我	-9.85866
一方面	-9.85904
一间	-9.85945
酷刑	-9.8602
这里	-9.86087
味	-9.86144
消息	-9.86262
某一	-9.86331
不稳定	-9.86348
的人口	-9.86389
形	-9.8645
该项	-9.86454
与会者	-9.86596
刀	-9.86614
惩罚	-9.86622
▁就	-9.86664
另一个	-9.86732
一国两制	-9.86791
莱	-9.86804
的一项	-9.86829
还没有	-9.86893
鲁	-9.8691
▁第	-9.86916
会有	-9.86923
仪式	-9.8703
这些问题	-9.87035
绝	-9.87051
为止	-9.87054
的儿童	-9.87057
冷	-9.87064
软件	-9.87081
的地位	-9.87085
滥用	-9.87141
文书	-9.87155
成长	-9.87228
的同时	-9.87322
核心	-9.87342
东西	-9.87351
曼	-9.87355
星期一	-9.87444
华人	-9.87466
出现了	-9.87475
届会议	-9.87522
培养	-9.87544
利润	-9.87556
破	-9.87622
药品	-9.87637
管理局	-9.87649
▁1999	-9.87724
的服务	-9.87735
的事件	-9.87778
大楼	-9.87821
▁2001	-9.8784
致	-9.87868
世界银行	-9.87901
四十	-9.87924
士兵	-9.87934
有了	-9.87987
旅行	-9.88008
伤害	-9.88027
本来	-9.88029
查明	-9.88056
凡	-9.88079
信贷	-9.88097
绿	-9.88115
的理由	-9.88202
小组委员会	-9.88271
大厦	-9.88282
游客	-9.88308
关键	-9.88318
繁荣	-9.88446
▁过去	-9.88475
抗议	-9.885
▁去年	-9.88517
共识	-9.88614
雪	-9.88616
付款	-9.88654
恐怕	-9.88685
危害	-9.8877
不够	-9.88798
的概念	-9.88827
紧	-9.88851
老年人	-9.88863
星期四	-9.88887
出生	-9.88898
地球	-9.88911
分发	-9.8892
对香港	-9.88942
筹备	-9.88995
的各项	-9.89027
多项	-9.89101
审计	-9.89137
惊	-9.89144
减低	-9.89203
告	-9.89237
为期	-9.89268
箱	-9.89299
直至	-9.89359
所有国家	-9.89395
大众	-9.89429
乱	-9.89433
怎样	-9.89452
透露	-9.89453
它的	-9.89544
警队	-9.89551
儿童基金会	-9.89565
论	-9.89597
秩序	-9.89621
武装部队	-9.89638
肉	-9.89675
席	-9.89744
这方面的	-9.89797
放在	-9.8984
为此	-9.89862
雨	-9.89943
经济增长	-9.8996
标	-9.89995
柬埔寨	-9.90014
次会议	-9.90182
以上的	-9.90231
的地区	-9.90373
谢	-9.90385
取决于	-9.90386
飞行	-9.90387
例子	-9.90447
议题	-9.90471
完	-9.9049
最重要的	-9.90515
穿	-9.90582
目	-9.90657
▁本	-9.9068
十五	-9.90694
端	-9.90737
佛	-9.90737
外地	-9.90769
看法	-9.90785
警	-9.90854
人力	-9.90875
能否	-9.90985
结合	-9.90995
捐款	-9.91062
阻碍	-9.91074
多年	-9.91104
年期间	-9.91106
今	-9.91129
▁我们希望	-9.91133
毫无	-9.91144
异	-9.91212
▁我相信	-9.91248
弱	-9.91257
拟	-9.91265
彼此	-9.91284
生存	-9.91299
抵达	-9.91303
在美国	-9.91309
圆	-9.91318
的方案	-9.91321
每次	-9.91347
正义	-9.91389
诉讼	-9.9141
哪些	-9.91427
▁安理会	-9.91484
发布	-9.91495
稍后	-9.91506
房委会	-9.91585
失败	-9.91587
发行	-9.9165
北部	-9.91698
只会	-9.91709
判决	-9.91765
我们在	-9.91775
规例	-9.91901
操作	-9.91928
区议会	-9.91945
造	-9.92006
的信息	-9.92045
隧道	-9.92061
基本上	-9.92071
泰	-9.92147
商定	-9.92241
命	-9.92251
申请人	-9.92329
十八	-9.9238
指引	-9.92404
国际合作	-9.92458
所谓的	-9.92497
信心	-9.92517
服	-9.92522
▁这样	-9.92526
乌干达	-9.92538
国民党	-9.92684
一段	-9.92715
各自	-9.92836
交换	-9.92854
竞争力	-9.92866
其余	-9.92924
仍有	-9.92931
充满	-9.92932
为什么	-9.92934
民意	-9.92953
亦有	-9.93024
效果	-9.93025
也要	-9.93048
容许	-9.93084
的环境	-9.931
议案	-9.93159
具备	-9.93163
朝鲜	-9.93171
观念	-9.93178
埃塞俄比亚	-9.93181
的情湟下	-9.93202
久	-9.93233
在这个	-9.93353
切实	-9.93367
的历史	-9.93397
创作	-9.93446
坏	-9.93455
燃料	-9.93491
切	-9.93498
散	-9.93582
使我们	-9.93622
技能	-9.93799
起草	-9.93807
杜	-9.93815
他们在	-9.93819
矛盾	-9.93824
警告	-9.9385
另一方面	-9.93864
势	-9.939
为何	-9.93911
语文	-9.93922
伯	-9.93981
再度	-9.93984
文明	-9.93986
许可证	-9.94112
每日	-9.94113
朱	-9.94149
背景	-9.9418
转变	-9.94184
转移	-9.94273
垃圾	-9.94303
不利	-9.94304
类别	-9.94318
以及在	-9.94387
该区域	-9.94439
吧	-9.94468
▁按照	-9.94474
薪	-9.94475
的确	-9.94479
港口	-9.94517
联合王国	-9.94535
释放	-9.94549
可是	-9.94596
烧	-9.94606
亮	-9.94636
天气	-9.94665
遣返	-9.94724
的程序	-9.94744
尽早	-9.94747
状态	-9.94785
速度	-9.94831
购	-9.94832
施	-9.94841
未来的	-9.94889
牌照	-9.94948
桥	-9.94981
通过了	-9.94984
中有	-9.95015
基层	-9.95039
各地	-9.95067
4.	-9.95102
必	-9.95115
阳	-9.95259
冲	-9.95267
伊朗伊斯兰共和国	-9.95295
刚果	-9.9532
两次	-9.95346
跑	-9.95414
引	-9.95419
怎么	-9.95444
中华人民共和国	-9.95458
认同	-9.95494
实地	-9.95542
顺	-9.95612
这点	-9.95615
终止	-9.95626
发放	-9.95675
提名	-9.95675
▁正如	-9.95721
用来	-9.95757
婚姻	-9.95787
失业率	-9.95936
改为	-9.9595
有责任	-9.95961
组成的	-9.96097
乌	-9.96106
成了	-9.96114
思	-9.96147
就此	-9.96188
小型	-9.96215
友	-9.96245
受害人	-9.96269
的研究	-9.96278
相关的	-9.96292
就可以	-9.96297
巴勒斯坦人	-9.96385
被捕	-9.96425
广泛的	-9.96426
庆祝	-9.96438
森	-9.96442
当天	-9.9665
中方	-9.96652
最初	-9.9669
称为	-9.96716
料	-9.96729
应在	-9.96745
讲习班	-9.96784
笑	-9.96789
医	-9.96838
弹	-9.96887
下去	-9.96959
恶	-9.96995
收益	-9.97007
不愿	-9.97035
销	-9.97036
加速	-9.97081
许多人	-9.97098
对抗	-9.97218
委员会主席	-9.97244
上午	-9.97318
种种	-9.97355
随时	-9.97423
冰	-9.97442
钻石	-9.97457
拘捕	-9.97469
罚款	-9.97481
终	-9.97498
原本	-9.97501
近期	-9.9765
造成了	-9.97654
雄	-9.97698
维持和平行动	-9.97753
计画	-9.97822
订	-9.97829
该等	-9.97846
有着	-9.97898
是要	-9.97916
野	-9.97966
跟进	-9.97966
人手	-9.97993
的权力	-9.97998
载有	-9.98014
呃	-9.98063
谈到	-9.98076
梦	-9.98082
公屋	-9.98094
压	-9.98103
五个	-9.98124
职责	-9.98155
会员	-9.98201
有意	-9.98227
伦	-9.98283
妈妈	-9.98294
季	-9.98348
现金	-9.98348
的发言	-9.98349
问题是	-9.98598
作业	-9.98603
400	-9.98627
公司的	-9.98628
获悉	-9.9866
受影响	-9.98669
相反	-9.98694
自然资源	-9.98717
自治	-9.98842
意味着	-9.98882
社会发展	-9.98917
这些人	-9.98945
有限公司	-9.99047
多边	-9.9917
等问题	-9.99173
界定	-9.99253
第四	-9.99272
仍未	-9.99278
背	-9.99302
融资	-9.99352
▁当时	-9.99396
郑	-9.99412
的大	-9.9947
狗	-9.99504
已成为	-9.99534
国会	-9.99601
严重的	-9.99614
副主席	-9.99643
指挥	-9.99645
故事	-9.99658
担保	-9.99682
湾	-9.99695
的会议	-9.99702
审	-9.99731
地面	-9.99737
念	-9.99749
▁1998	-9.99812
▁为此	-9.99817
突然	-9.99835
600	-9.99853
差距	-9.99899
听取	-9.99899
意识	-9.9995
借	-9.99975
帮	-9.99983
快速	-9.99998
领取	-10.0003
事宜	-10.0003
增至	-10.0005
气氛	-10.0006
虐待	-10.0012
前景	-10.0014
题为	-10.0015
实质	-10.0017
拨	-10.0019
将是	-10.0019
保安	-10.002
游戏	-10.0036
36	-10.0037
程	-10.0038
储存	-10.0038
约为	-10.0042
如今	-10.0046
中国的	-10.0059
被视为	-10.0059
演	-10.0061
法规	-10.0064
击	-10.0065
涉嫌	-10.0065
第一个	-10.0068
土着人民	-10.0072
最佳	-10.0073
这一问题	-10.0075
果	-10.0075
部份	-10.0076
对待	-10.0088
的关键	-10.0089
开会	-10.009
人生	-10.0096
审理	-10.0098
不必	-10.0099
岁的	-10.0101
杰	-10.0102
撰文人	-10.0104
原子能机构	-10.0108
夏	-10.0113
但却	-10.0113
这两个	-10.0116
行动纲领	-10.0116
视察	-10.0116
愈	-10.0121
规定的	-10.0122
好像	-10.0124
政府部门	-10.0128
据说	-10.0137
社会福利	-10.0138
的文件	-10.0141
会在	-10.0143
素	-10.0149
剂	-10.0156
结婚	-10.0158
委员会成员	-10.017
与其他	-10.0171
▁我想	-10.0172
饭	-10.0172
二年	-10.0175
星期二	-10.0182
善	-10.0184
索赔人	-10.0187
的基础上	-10.0189
阿根廷	-10.0191
埃	-10.0194
一再	-10.0196
外部	-10.0198
作出决定	-10.02
国家安全	-10.0201
到达	-10.0209
争议	-10.0218
50%	-10.0219
刑法	-10.0229
装备	-10.023
基金会	-10.0235
的现象	-10.0241
的第	-10.0241
财富	-10.0243
追求	-10.0245
的义务	-10.0246
通信	-10.0249
洗	-10.025
息	-10.0254
任何人	-10.0257
会晤	-10.0258
拜	-10.0258
伊斯兰	-10.0259
角色	-10.0261
的士	-10.0266
的实际	-10.0269
顶	-10.0271
确立	-10.0279
多种	-10.0279
法定	-10.0295
扬	-10.0305
建立了	-10.0314
的人员	-10.0318
0	-10.032
预算案	-10.0327
负	-10.0328
而非	-10.033
至于	-10.0333
政府官员	-10.0334
财政司	-10.0334
总数	-10.0335
质疑	-10.0336
叙利亚	-10.0336
年轻	-10.0338
在这	-10.0339
十一	-10.0342
路线	-10.0344
希腊	-10.0351
人力资源	-10.0352
的观点	-10.0354
或许	-10.0359
委	-10.0362
在该	-10.037
不幸	-10.0371
主办	-10.0371
洋	-10.0373
的局势	-10.0375
些	-10.0376
解决办法	-10.038
伟	-10.0381
展示	-10.0381
有利	-10.0384
禁	-10.0386
斗争	-10.039
▁欧洲联盟	-10.0391
记得	-10.0391
的变化	-10.0391
学会	-10.0392
可见	-10.0397
物业	-10.0417
电力	-10.0419
此项	-10.0421
澳洲	-10.0423
辅导	-10.0423
廾	-10.0432
发动	-10.0434
是由于	-10.0435
一方	-10.0438
大批	-10.0438
建筑物	-10.044
权益	-10.0441
东南亚	-10.0446
和谐	-10.0451
我们会	-10.0454
专员	-10.0454
回收	-10.0459
祖国	-10.0468
足以	-10.0468
国际法院	-10.0469
34	-10.0476
所涉	-10.0478
生活在	-10.0479
英语发言	-10.0479
订立	-10.048
骨	-10.0486
百分之	-10.049
罪犯	-10.0493
证券	-10.0501
为例	-10.0505
流行	-10.0505
一些国家	-10.0505
文学	-10.0508
招	-10.0509
汇	-10.0511
过境	-10.0514
电讯	-10.0517
家人	-10.0519
无论是	-10.0521
接纳	-10.0522
备	-10.0527
戴	-10.053
穆斯林	-10.0531
危地马拉	-10.0531
星期三	-10.0532
雇员	-10.054
替	-10.0543
航	-10.0546
港府	-10.0548
康	-10.0554
如下	-10.0556
监禁	-10.056
几天	-10.0565
牺牲	-10.0567
丧失	-10.0568
习惯	-10.0573
便利	-10.0575
边境	-10.0577
后者	-10.0581
□	-10.0586
一定要	-10.0586
一九九九年	-10.0588
删除	-10.0589
突出	-10.0592
优势	-10.0596
净	-10.0597
甚	-10.0599
有一些	-10.0603
采	-10.0605
清单	-10.061
正确	-10.0611
梁	-10.0631
9.	-10.0633
认可	-10.064
密	-10.0642
考试	-10.0643
维持和平	-10.0647
都要	-10.0649
而不	-10.0651
3.	-10.0652
者的	-10.0655
美洲	-10.0658
蒂	-10.0669
已在	-10.0669
公园	-10.0669
台湾的	-10.0673
尾	-10.0674
近年	-10.0675
核查	-10.0678
的妇女	-10.0679
设置	-10.0679
缔约方	-10.0683
以至	-10.0689
过往	-10.0692
小孩	-10.0693
威	-10.0698
选出	-10.0702
密切	-10.0706
就有	-10.0711
产量	-10.0714
▁1997	-10.0721
每一个	-10.0725
客观	-10.0725
的增长	-10.0729
不想	-10.0731
固定	-10.0732
各类	-10.0732
皆	-10.0732
杂志	-10.0733
有关部门	-10.0739
▁许多	-10.0744
渠道	-10.0744
积极参与	-10.0746
▁第三	-10.0749
领域的	-10.0752
收回	-10.0752
特别代表	-10.0754
会继续	-10.076
的小	-10.0761
将由	-10.0764
众多	-10.077
变得	-10.0773
太多	-10.0783
日前	-10.0785
南斯拉夫联盟共和国	-10.0789
更新	-10.0789
待迂	-10.079
额外	-10.0794
区的	-10.0796
仁	-10.08
灵	-10.0801
汇率	-10.0808
77	-10.0808
▁2000	-10.0809
保存	-10.081
星期六	-10.081
即时	-10.081
不好	-10.0811
透明度	-10.0815
依靠	-10.0817
单独	-10.0826
派遣	-10.0827
成功地	-10.0828
样	-10.0829
获取	-10.0837
的案件	-10.0838
规管	-10.0845
1%	-10.0846
否认	-10.0849
的数目	-10.0857
本港的	-10.0863
船只	-10.0863
经历	-10.0864
▁而且	-10.0868
的威胁	-10.0875
会面	-10.0877
案文	-10.0879
朝鲜民主主义人民共和国	-10.0882
的具体	-10.0885
加价	-10.0889
众	-10.0895
▁截至	-10.0897
您	-10.0901
纷纷	-10.0905
蒙	-10.0908
评	-10.0916
之处	-10.0926
植物	-10.093
豁免	-10.0936
陈水扁	-10.0936
必然	-10.0941
环	-10.0944
丰富	-10.0944
自由党	-10.0946
块	-10.0947
▁人们	-10.0948
不公平	-10.095
询问	-10.0951
不用	-10.0954
自从	-10.0957
瑞典	-10.0958
不满	-10.0964
那里	-10.0965
法令	-10.0965
用品	-10.0965
交给	-10.0968
治安	-10.0972
女孩	-10.0972
博物馆	-10.0975
更大	-10.098
赫	-10.0981
移	-10.0985
因为他们	-10.0987
护	-10.0987
的压力	-10.0988
▁我希望	-10.0992
实践	-10.0995
$	-10.0996
抢	-10.0999
得到了	-10.1
国外	-10.1001
达成协议	-10.1003
妨碍	-10.1005
发射	-10.1005
▁安全理事会	-10.1006
有些人	-10.1008
坚决	-10.1009
容忍	-10.101
昨天	-10.101
采取措施	-10.1011
现代化	-10.1022
5.	-10.1023
都市	-10.1027
婴儿	-10.1034
使其	-10.1035
自杀	-10.1038
比率	-10.1039
中小型企业	-10.104
动员	-10.1044
设想	-10.1047
婚	-10.1051
联合国秘书长	-10.106
▁由	-10.1064
却是	-10.1068
申诉	-10.1069
发展的	-10.107
厄立特里亚	-10.1072
服务业	-10.108
示威	-10.1083
许可	-10.1091
这方面	-10.1097
台北市	-10.1102
必须在	-10.1103
群众	-10.1104
这种情况	-10.1106
彩	-10.1106
社会上	-10.1109
质素	-10.111
从未	-10.1116
所说的	-10.1116
竟	-10.1117
追	-10.1118
不符合	-10.1119
服务的	-10.1121
页	-10.1123
▁我们还	-10.1126
毒	-10.1128
捐助	-10.113
迄今	-10.1131
香港经济	-10.1135
大家都	-10.1136
真正的	-10.1139
减薪	-10.114
通胀	-10.1147
划	-10.1151
得不到	-10.1153
塞浦路斯	-10.1161
早上	-10.1166
痛	-10.1169
安装	-10.1173
▁发言人说	-10.1175
负责人	-10.1176
附件	-10.1184
瑞士	-10.1185
32	-10.1192
两位	-10.1192
灵活	-10.1193
10%	-10.1194
住在	-10.1196
十六	-10.12
市区	-10.1204
替代	-10.1205
封	-10.1208
大幅	-10.1211
进行调查	-10.1213
持有	-10.1214
皇	-10.1219
6.	-10.1219
战斗	-10.1226
之内	-10.1234
的自由	-10.1235
让人	-10.1236
的学生	-10.1237
为香港	-10.1238
800	-10.124
蓝	-10.1242
不应该	-10.1242
重复	-10.1243
病毒	-10.1243
囚犯	-10.1247
庄	-10.1248
庙	-10.1252
来文	-10.1258
症	-10.126
脸	-10.1261
细	-10.1262
兄弟	-10.1266
第二次	-10.1268
巴勒斯坦人民	-10.1268
的例子	-10.127
我们要	-10.1275
▁可是	-10.1275
大力	-10.1276
最少	-10.1284
都在	-10.1285
层面	-10.1288
▁工作组	-10.1289
管辖	-10.1294
地带	-10.1296
宽	-10.1301
亦是	-10.1301
他人	-10.1305
菲	-10.1305
▁一些	-10.1306
早期	-10.1311
痛苦	-10.1317
期限	-10.1317
渔业	-10.132
欧	-10.1322
讨论会	-10.1324
的技术	-10.1327
女儿	-10.1335
祖	-10.1336
患	-10.1338
一半	-10.1338
完善	-10.1339
的家庭	-10.1342
解除	-10.1345
脑	-10.1347
发表的	-10.136
才会	-10.1361
约旦	-10.1363
良好的	-10.1367
但我们	-10.1369
新闻部	-10.1375
孙	-10.1376
因为它	-10.1378
各方面	-10.1386
更大的	-10.1394
希	-10.1397
的比例	-10.1402
贸发会议	-10.1404
医学	-10.1406
舞蹈	-10.1406
伙伴关系	-10.1407
庆	-10.141
使他们	-10.1412
健	-10.1415
硬	-10.1417
是个	-10.1418
三千	-10.1428
残疾人	-10.1433
助理	-10.1435
年初	-10.1442
的趋势	-10.1442
长远	-10.1444
宫	-10.1445
迷	-10.1453
着手	-10.1456
就像	-10.1459
许多国家	-10.1462
经济及社会理事会	-10.1465
拟定	-10.1467
先后	-10.1467
的认识	-10.1469
我们希望	-10.1469
继	-10.1471
▁以	-10.1474
的挑战	-10.1479
格鲁吉亚	-10.1483
买卖	-10.1485
跨	-10.1489
股票	-10.1496
化学	-10.1498
延	-10.1504
金钱	-10.1505
的定义	-10.1506
西部	-10.1517
腐败	-10.1518
巨	-10.1523
冻结	-10.1524
面前	-10.153
银	-10.1531
位置	-10.1532
刻	-10.1538
人死亡	-10.1539
阵	-10.1545
时候	-10.1547
略	-10.155
剥夺	-10.1551
洲	-10.1551
任期	-10.1553
集会	-10.1554
的事实	-10.1556
表现出	-10.1559
两项	-10.1562
航空	-10.1565
日内瓦	-10.1568
形象	-10.1575
该公司	-10.1576
搞	-10.1577
沙特阿拉伯	-10.1581
陆	-10.1582
可在	-10.1587
拖	-10.1588
告知	-10.1588
九龙	-10.1592
信任	-10.1593
学术	-10.1593
引致	-10.1594
分类	-10.1596
的谈判	-10.1597
谋求	-10.1604
警员	-10.1606
跌	-10.1608
商界	-10.1609
拉丁美洲	-10.1611
引进	-10.1621
而在	-10.1623
的世界	-10.1626
译文	-10.1628
挂	-10.163
迂	-10.1632
无疑	-10.1632
也在	-10.1641
至关重要	-10.1643
唯一	-10.1645
37	-10.1645
发起	-10.1646
规约	-10.1646
末	-10.1663
早已	-10.1668
增进	-10.167
阶层	-10.1671
和解	-10.1671
!	-10.1677
护理	-10.1677
0.	-10.1677
敏感	-10.1682
顾客	-10.1685
的形式	-10.1686
7.	-10.1687
不敢	-10.1687
政府和	-10.1692
一月	-10.1694
潜力	-10.1696
钟	-10.1697
管辖权	-10.1709
十三	-10.1711
隔	-10.1718
在那里	-10.1719
美国政府	-10.1721
智	-10.1724
种族主义	-10.1728
圈	-10.1732
某种	-10.1735
让他们	-10.1739
的手段	-10.174
尽力	-10.1742
一九九八年	-10.1742
导	-10.1744
欣赏	-10.1746
见到	-10.1748
出来的	-10.175
迫使	-10.1756
游行	-10.1759
38	-10.1759
出任	-10.1762
▁与此同时	-10.1763
的运作	-10.1765
▁它们	-10.1766
矿	-10.1767
五百	-10.1773
做到	-10.1774
竹	-10.1775
对外	-10.1781
分子	-10.1782
的数据	-10.1783
混乱	-10.1788
二月	-10.1791
证书	-10.1791
节省	-10.1792
通过的	-10.1796
合并	-10.1796
不大	-10.1797
还在	-10.1799
8.	-10.1799
助	-10.1802
的机构	-10.1803
相当于	-10.1807
戈	-10.1808
东部	-10.1815
的成果	-10.1824
准	-10.1826
兹	-10.1829
思考	-10.1829
灾难	-10.1835
理论	-10.1835
的资金	-10.1835
33	-10.184
舍	-10.1841
学员	-10.1847
高于	-10.1847
特点	-10.1855
反映了	-10.1858
赞赏	-10.186
据称	-10.1861
六十	-10.1864
之际	-10.1866
描述	-10.1866
民国	-10.1869
录得	-10.1869
推进	-10.1871
补贴	-10.1871
5000	-10.1872
回来	-10.1873
澳门	-10.1875
与其	-10.1878
准确	-10.1885
回家	-10.1894
阿塞拜疆	-10.1894
生意	-10.1894
▁若	-10.1897
颁布	-10.19
南斯拉夫	-10.1902
地说	-10.1905
▁1996	-10.1908
的角色	-10.191
1980	-10.191
葡萄牙	-10.1911
严	-10.1914
在一起	-10.1916
一九九七年	-10.1921
没收	-10.1922
旁	-10.1924
发生在	-10.1928
的速度	-10.1929
涵盖	-10.1929
地震	-10.1932
一词	-10.1932
的限制	-10.1933
了一些	-10.1933
采取了	-10.1941
使用的	-10.1942
的因素	-10.1942
两地	-10.1943
○○○	-10.1945
社会的	-10.1948
香港政府	-10.1952
尼日利亚	-10.1954
永久	-10.1956
判	-10.1962
完整	-10.1971
教毓署	-10.1979
副主席先生	-10.1981
成熟	-10.1982
数据库	-10.1986
早日	-10.1991
帐户	-10.1994
已被	-10.1998
丁	-10.2
历史上	-10.2004
脱	-10.2005
▁这项	-10.2013
走向	-10.2014
的说法	-10.2014
唐	-10.2014
委会	-10.2016
丈夫	-10.2017
我国代表团	-10.2019
中华民国	-10.2019
中央政府	-10.202
雇用	-10.2022
曾在	-10.2025
的唯一	-10.203
的安排	-10.2035
有关国家	-10.2035
设立一个	-10.2036
宁	-10.2037
祝贺	-10.2037
工作队	-10.2039
是指	-10.2042
有许多	-10.2048
统治	-10.2049
财政司司长	-10.2049
共同努力	-10.205
在未来	-10.2052
湖	-10.2052
联合会	-10.2053
喝	-10.2054
不管	-10.2054
在中国	-10.2056
秀	-10.2059
并为	-10.206
地理	-10.2064
横	-10.2066
不如	-10.2067
民建联	-10.2067
绝大多数	-10.2067
此事	-10.207
作为一个	-10.2075
哪	-10.2078
显	-10.2079
她的	-10.208
商人	-10.2081
召开的	-10.2094
的数字	-10.2095
七十	-10.2096
届时	-10.2096
排除	-10.2098
女童	-10.2103
接着	-10.2107
都能	-10.2108
检控	-10.2108
收取	-10.2109
的程度	-10.2111
的后果	-10.2111
强迫	-10.2116
▁会议	-10.2121
减少了	-10.2121
逃	-10.2122
行事	-10.2122
大韩民国	-10.2123
出现的	-10.2124
升级	-10.2125
偿还	-10.2125
势力	-10.2125
是以	-10.2127
文本	-10.2138
欲	-10.2146
缅甸	-10.2147
日的	-10.2147
解决问题	-10.2148
有能力	-10.215
所说	-10.2151
20%	-10.2156
民间社会	-10.2158
仍在	-10.2158
谨	-10.2164
蔡	-10.2165
透明	-10.2165
新机场	-10.2167
的水平	-10.2169
该处	-10.217
怀	-10.2178
的土地	-10.2181
▁所有	-10.2188
设立了	-10.2188
正面	-10.2189
免	-10.2189
提案	-10.2196
次会议上	-10.2199
一千	-10.2201
依法	-10.2203
宜	-10.2205
年至	-10.2205
杀害	-10.2207
状	-10.2207
乡村	-10.2212
对这些	-10.2227
贾	-10.223
目前正在	-10.2231
差不多	-10.2232
很多人	-10.2232
扩展	-10.2233
会计	-10.2243
正当	-10.2244
民生	-10.2244
▁除	-10.2248
机构的	-10.2251
多名	-10.2254
推迟	-10.2254
的贡献	-10.2255
满意	-10.2267
伦敦	-10.2269
影响到	-10.2273
年中	-10.2274
气候	-10.2274
在台湾	-10.2279
巨大的	-10.228
儿子	-10.2282
和联合国	-10.2285
的冲突	-10.2287
签证	-10.2291
的计划	-10.2293
用作	-10.2295
债务人	-10.2297
补	-10.2298
取得了	-10.23
美国的	-10.2301
仅仅	-10.2303
未经	-10.2305
极端	-10.2308
有点	-10.2311
邦	-10.2313
技巧	-10.2316
业者	-10.2322
一群	-10.2327
引发	-10.2338
所有人	-10.2339
股市	-10.2343
射	-10.2346
作出贡献	-10.2348
四百	-10.235
第五	-10.2355
它们的	-10.2355
所得	-10.2357
书面	-10.2364
的反应	-10.237
就要	-10.2372
厂商	-10.2375
单方面	-10.2376
对联合国	-10.2377
惠	-10.2378
独立的	-10.2379
浪费	-10.2381
形容	-10.2386
印尼	-10.2394
的收入	-10.2398
责	-10.2401
55	-10.2402
嘉	-10.2402
假设	-10.2407
顾及	-10.241
含	-10.2411
贴	-10.2411
中国大陆	-10.2411
折	-10.2416
▁那么	-10.2419
65	-10.2425
两年期	-10.2426
开办	-10.2435
等方面	-10.2437
都没有	-10.2437
的投资	-10.2441
挪威	-10.2443
翻	-10.2447
毓	-10.2453
死者	-10.2456
读者	-10.2458
的目的是	-10.2459
一批	-10.2459
而已	-10.2459
空中	-10.2461
民兵	-10.2464
可以在	-10.2464
短缺	-10.2469
同学	-10.2469
亚美尼亚	-10.2471
调动	-10.2474
队伍	-10.2476
未有	-10.2478
昨日	-10.2481
开幕	-10.2484
好处	-10.2484
另有	-10.2485
过于	-10.2485
斗	-10.2487
置	-10.2487
一部分	-10.249
潮	-10.2491
颁发	-10.2495
将近	-10.2497
聘用	-10.2498
惯例	-10.2499
下的	-10.2499
夫人	-10.2502
事先	-10.2502
的核心	-10.2506
同时也	-10.2508
储备	-10.2508
阁下	-10.2508
物资	-10.2514
基础上	-10.2516
发展中国家的	-10.2517
般	-10.2522
不久	-10.2522
录	-10.253
的进展	-10.2531
有任何	-10.2532
认	-10.2533
瑞	-10.2534
安置	-10.2537
经济和社会	-10.2538
句	-10.2539
距离	-10.2539
暴	-10.2539
的成功	-10.2541
亦可	-10.2543
准许	-10.2545
患者	-10.2546
卫生署	-10.2549
庭	-10.2554
人受伤	-10.2554
静	-10.2555
手续	-10.2556
列出	-10.2558
赞助	-10.2558
累积	-10.2558
撤出	-10.2562
判断	-10.2566
虎	-10.2578
电台	-10.2579
失望	-10.2581
应由	-10.2581
的许多	-10.2582
两者	-10.2585
这份	-10.2591
留下	-10.2593
征收	-10.2595
实质性	-10.2596
劳工处	-10.2599
死亡率	-10.2599
的一种	-10.2602
竟然	-10.2603
零售	-10.2604
40%	-10.2604
失踪	-10.2605
它是	-10.2605
特征	-10.261
出于	-10.2611
冲突的	-10.2616
校长	-10.2622
甲	-10.2623
公斤	-10.2625
建设性	-10.2627
出发	-10.2628
临	-10.2629
老人家	-10.263
相应	-10.2632
害	-10.2639
承受	-10.2639
售	-10.2648
特别会议	-10.2651
刚刚	-10.2652
年轻人	-10.2653
情绪	-10.2655
文字	-10.2656
家属	-10.266
少年	-10.2662
溪	-10.2664
陈述	-10.2672
恐怖	-10.2673
世界各地	-10.2673
据报	-10.2678
广东	-10.2679
中间	-10.268
带着	-10.2685
留在	-10.2685
简	-10.2688
摩洛哥	-10.2688
非统组织	-10.2692
截至	-10.2694
但我	-10.2694
大会第	-10.2696
薪金	-10.2701
44	-10.2704
▁必须	-10.2704
最新	-10.2705
2004	-10.2706
存在着	-10.2707
很高	-10.2707
很快	-10.2709
讲话	-10.271
检	-10.2713
工作小组	-10.2714
难民专员办事处	-10.2715
输	-10.2719
接获	-10.272
还将	-10.2723
民警	-10.2726
▁日本	-10.2731
来到	-10.2732
计算机	-10.2732
华盛顿	-10.2734
以免	-10.2734
征	-10.2737
感觉	-10.2743
世界经济	-10.2743
对方	-10.2751
150	-10.2757
救济	-10.2757
种植	-10.2758
妥善	-10.2759
电信	-10.2761
陷入	-10.2761
质询	-10.2765
再加上	-10.2769
的事情	-10.277
▁要	-10.2774
产生了	-10.2775
39	-10.2779
撤离	-10.2783
政府对	-10.2784
隆	-10.2787
赶	-10.2787
外来	-10.2791
丰	-10.2793
卢	-10.2793
举办的	-10.2796
知识产权	-10.2802
扎	-10.2803
殖民地	-10.2805
得多	-10.2809
核裁军	-10.2809
捐助者	-10.2817
人民的	-10.2819
也不会	-10.282
当事方	-10.2821
统筹	-10.2823
二百	-10.2827
寒	-10.2828
沿	-10.2831
包含	-10.2831
引入	-10.2831
三百	-10.2836
南方	-10.2838
47	-10.2843
言论	-10.2849
亲自	-10.2851
娱乐	-10.2852
屯门	-10.2854
六年	-10.2857
场地	-10.286
排放	-10.2861
高雄	-10.2864
巿民	-10.2865
任职	-10.2866
反映出	-10.2866
让我	-10.2867
公顷	-10.287
洪	-10.2875
尝试	-10.2875
似	-10.2879
▁据说	-10.2884
通报	-10.2887
原则上	-10.2888
街头	-10.2889
达致	-10.289
体现	-10.289
帕	-10.289
开设	-10.2898
英国政府	-10.2898
述	-10.29
雇主	-10.2901
缺少	-10.2902
广大	-10.2902
旗	-10.2908
市场的	-10.291
摆	-10.2912
承	-10.2913
仲裁	-10.2917
突破	-10.292
刑	-10.2921
消失	-10.2921
左	-10.2921
48	-10.2923
加剧	-10.2929
电视台	-10.2936
人道主义援助	-10.2936
▁即使	-10.2939
毕业	-10.294
2.	-10.2942
辆	-10.2943
700	-10.2943
缺	-10.2946
档案	-10.2947
住户	-10.2953
提供服务	-10.2961
其他人	-10.2963
八十	-10.2968
的意愿	-10.2969
示范	-10.2971
我也	-10.2974
五千	-10.2976
是很	-10.2977
席位	-10.2979
台商	-10.2981
▁[	-10.2987
组织的	-10.2991
强制	-10.2991
之时	-10.2993
指南	-10.3009
穷人	-10.3011
深圳	-10.3014
细节	-10.3017
的工作人员	-10.3019
东道国	-10.302
▁以色列	-10.302
不愿意	-10.3025
运送	-10.3029
摄影	-10.303
便可	-10.3032
的调查	-10.3033
首席	-10.3037
乐观	-10.3037
立刻	-10.3037
80%	-10.3038
阿尔巴尼亚	-10.3041
提供援助	-10.3043
废除	-10.3049
报纸	-10.3057
民进党	-10.306
既然	-10.3067
高中	-10.3076
都不	-10.3077
指称	-10.3082
访	-10.3091
卷	-10.3091
可持续	-10.3094
容	-10.3095
附	-10.3103
垄断	-10.3107
男人	-10.3109
继续努力	-10.311
二千	-10.3111
私	-10.3111
停火	-10.312
也就是	-10.3124
报告书	-10.3128
才可	-10.3129
摆脱	-10.3131
计划的	-10.3131
顿	-10.3131
在今年	-10.3134
守则	-10.3135
沉	-10.3137
文物	-10.3141
外国人	-10.3144
的议员	-10.3145
降	-10.315
标志	-10.3151
海上	-10.3153
和社会	-10.3153
变革	-10.3154
大多	-10.3157
工商	-10.3158
注重	-10.3159
做了	-10.3165
地铁	-10.3165
三名	-10.3169
付出	-10.3169
渔	-10.317
议程项目	-10.317
各位议员	-10.317
讨论了	-10.3172
看见	-10.3174
检验	-10.3178
途径	-10.3178
吁请	-10.3179
30%	-10.3181
的困难	-10.3182
坚定	-10.3184
的信心	-10.3184
连接	-10.319
社会服务	-10.3194
现任	-10.3197
丹麦	-10.3202
流入	-10.3206
护照	-10.3207
请秘书长	-10.3211
稿	-10.3213
要素	-10.3217
单一	-10.3222
图书馆	-10.3223
氏	-10.3224
医管局	-10.3225
是我们	-10.3226
一事	-10.3228
颇	-10.3229
忠	-10.3229
场所	-10.3229
伊拉克政府	-10.323
走私	-10.323
加工	-10.3235
治理	-10.3235
凭	-10.3241
捐助国	-10.3246
突尼斯	-10.3249
商讨	-10.3249
也可	-10.325
列为	-10.325
办理	-10.3251
年间	-10.3263
的道路	-10.3265
的表现	-10.3265
最严重的	-10.3269
营养	-10.3273
聘请	-10.3274
伤亡	-10.3276
庞大	-10.3279
四千	-10.3279
因应	-10.3282
酒店	-10.3288
财	-10.329
▁1994	-10.3296
中华	-10.3298
带来了	-10.33
存款	-10.3301
巡逻	-10.3302
的传统	-10.3306
大小	-10.3306
内政部	-10.3312
本报告	-10.3317
情湟下	-10.3319
启动	-10.3321
抗	-10.3323
定于	-10.3323
在一个	-10.3327
尊严	-10.333
例	-10.3337
档	-10.3337
非正式	-10.3338
虫	-10.3344
预	-10.3353
高层	-10.3357
有兴趣	-10.3357
欢	-10.3358
▁-	-10.3358
还会	-10.3359
也将	-10.3364
抽	-10.3368
内阁	-10.3372
港元	-10.3374
所提出的	-10.3377
右	-10.3379
差异	-10.3382
对象	-10.3383
十四	-10.3384
七年	-10.3384
存在的	-10.3387
中美洲	-10.3388
应该是	-10.339
出了	-10.3392
锦	-10.3392
鬼	-10.3392
筹备委员会	-10.3393
调解	-10.3394
传统的	-10.3396
续	-10.34
和国际	-10.3402
乘	-10.3404
灾害	-10.3405
缘	-10.3414
地下	-10.3414
汤	-10.3417
销毁	-10.3418
原因是	-10.3419
俄	-10.3419
藉	-10.3419
初期	-10.342
▁我国	-10.3422
分别为	-10.3436
工作方案	-10.3437
珠	-10.3439
泽	-10.3441
谷	-10.3442
没有人	-10.3443
会议的	-10.3452
▁自从	-10.3455
违背	-10.3459
我们对	-10.3461
以及其他	-10.3463
救援	-10.3466
假如	-10.3467
这场	-10.3468
智利	-10.3468
人事	-10.347
月至	-10.3474
贪污	-10.3483
太平洋	-10.3485
3%	-10.3486
高等教毓	-10.3486
一宗	-10.3487
供应商	-10.3493
就必须	-10.3496
专家组	-10.3496
43	-10.3498
分区	-10.3503
某个	-10.3504
秘书	-10.3509
房屋署	-10.3509
破产	-10.3511
二十五	-10.3513
贩卖	-10.3514
移交	-10.3515
会见	-10.3519
青年人	-10.352
私营	-10.352
原先	-10.3523
▁有些	-10.3523
变动	-10.3529
秋	-10.3531
部落	-10.3533
采访	-10.3538
封锁	-10.3539
本会	-10.3539
移动	-10.3539
儿童的	-10.3541
卅	-10.3541
种类	-10.3542
宋	-10.3545
和管理	-10.3547
事务委员会	-10.3547
口头	-10.3549
!"	-10.3549
也不能	-10.3551
长时间	-10.3552
一张	-10.3554
最近的	-10.3554
所造成的	-10.3556
创业	-10.3558
专业人员	-10.3558
强制性	-10.3559
日常	-10.356
的财政	-10.356
▁有人	-10.3561
引渡	-10.3564
出版物	-10.3566
审讯	-10.3566
▁实际上	-10.3567
▁其他	-10.3571
软	-10.3571
两人	-10.3573
举行会议	-10.3573
墙	-10.3575
5%	-10.3577
炸弹	-10.3577
万名	-10.3584
答	-10.3585
糖	-10.3586
的文化	-10.3586
丹	-10.3593
并对	-10.3593
流离失所	-10.36
系统的	-10.36
的过程	-10.3604
持久	-10.3604
对我们	-10.3605
未必	-10.3605
违反了	-10.3607
人口的	-10.3612
利比亚	-10.3613
八百	-10.3614
袋	-10.3615
信仰	-10.3615
与联合国	-10.3617
税收	-10.3619
为主	-10.3627
一片	-10.363
8%	-10.3631
输入	-10.364
近日	-10.3643
中期	-10.3647
幅	-10.3653
耶路撒冷	-10.3661
并于	-10.3662
多样化	-10.3663
一个人	-10.3666
分裂	-10.3668
之间的关系	-10.3669
的消息	-10.3673
壮	-10.368
投标	-10.3684
促成	-10.3685
年内	-10.3687
延续	-10.3688
动用	-10.369
是根据	-10.3692
订正	-10.3692
一国	-10.3693
都可以	-10.3693
星期日	-10.3695
国际会议	-10.3697
土着	-10.3703
的共同	-10.3706
一定会	-10.3708
逾	-10.371
六个月	-10.371
警务人员	-10.3715
缴付	-10.3717
已于	-10.3722
的和平	-10.3729
的东西	-10.3733
斯里兰卡	-10.3737
的执行	-10.3741
和平协定	-10.3742
合理的	-10.3743
的关注	-10.3746
抵	-10.375
作家	-10.3752
院长	-10.3755
历	-10.3755
忽视	-10.3756
黄金	-10.3758
欠	-10.3758
▁1995	-10.376
岸	-10.3761
兴趣	-10.3762
辞职	-10.3763
▁国际社会	-10.3764
▁行政长官	-10.3766
1.	-10.3772
真是	-10.3772
和平与安全	-10.3776
的存在	-10.3778
侵犯人权	-10.3779
政府应	-10.3781
意识到	-10.3782
邮票	-10.3783
是有	-10.3783
1989	-10.3788
披露	-10.3788
陆续	-10.3789
外资	-10.3799
该组织	-10.3802
基因	-10.3803
会上	-10.3804
经济活动	-10.3806
耶	-10.3807
封闭	-10.3813
的机制	-10.3815
说过	-10.3816
餐	-10.3817
邮	-10.3826
极其	-10.3827
倾向	-10.3831
更有	-10.3831
派出	-10.3834
军人	-10.3835
猪	-10.384
波兰	-10.384
争	-10.3846
决	-10.3849
敌	-10.3849
我们也	-10.3851
(1)	-10.3854
赴	-10.3854
是对	-10.3855
过度	-10.3856
塞族	-10.3857
徐	-10.3858
不时	-10.3861
进出口	-10.3865
工商界	-10.3868
安理会成员	-10.387
赖	-10.3874
怪	-10.3875
对他们	-10.3875
仔	-10.3879
后的	-10.3881
仍是	-10.3883
耳	-10.3886
还可以	-10.3887
找出	-10.3887
铜	-10.3888
总结	-10.3892
实力	-10.3894
有义务	-10.3897
消	-10.3901
迟	-10.3901
韩	-10.3902
6%	-10.3907
淡	-10.3909
尤	-10.3911
舆论	-10.3911
裁谈会	-10.3914
养恤金	-10.3914
签发	-10.3921
并向	-10.3921
周年	-10.3922
通道	-10.3922
止	-10.3925
提请	-10.3935
纪	-10.3938
一体化	-10.394
代替	-10.3941
?"	-10.3952
使人	-10.3955
我是	-10.3955
的个人	-10.3958
一辆	-10.3959
居屋	-10.3961
沈	-10.3965
目标是	-10.3965
承建商	-10.3965
辟	-10.3968
的一切	-10.3969
随即	-10.3977
井	-10.398
康复	-10.3983
峰	-10.3988
爱尔兰	-10.399
撤销	-10.3991
例外	-10.4006
着重	-10.4013
联合国的	-10.4017
裁决	-10.4017
订明	-10.402
▁我国代表团	-10.4022
报告说	-10.4022
小心	-10.4023
先进	-10.4023
增加到	-10.4025
援	-10.4035
是一项	-10.4035
杂	-10.4036
▁还	-10.4038
乃	-10.4041
900	-10.4041
97	-10.4046
海岸	-10.4046
能力建设	-10.4049
内战	-10.405
直选	-10.405
在北京	-10.4051
忧虑	-10.4066
工发组织	-10.4068
辅助	-10.4068
全面的	-10.4069
月初	-10.4069
成立了	-10.4069
不太	-10.4076
参选	-10.4077
各会员国	-10.4077
大概	-10.4081
那时	-10.4081
中小企业	-10.4083
他是	-10.4083
日起	-10.4085
一直在	-10.4088
所提供的	-10.4089
在第	-10.4092
鸭	-10.4094
弄	-10.4098
九十	-10.4098
驾驶	-10.4107
特色	-10.4109
水准	-10.411
疑问	-10.4112
犯下	-10.4112
医疗服务	-10.4113
核可	-10.4114
卫	-10.4117
枝	-10.4119
有时候	-10.412
才是	-10.4121
的公司	-10.4122
国际贸易	-10.4124
癌症	-10.4125
很容易	-10.4129
扩散	-10.413
返	-10.4132
空气	-10.4132
因为他	-10.4133
无意	-10.4133
辞	-10.4134
为其	-10.4135
孔	-10.4142
仪	-10.4143
艾	-10.4146
鼓	-10.4147
经理	-10.4147
我在	-10.4147
处长	-10.4151
市民对	-10.4152
意愿	-10.4153
上市	-10.4156
屠杀	-10.4158
显得	-10.4159
范畴	-10.4164
执政	-10.4167
那种	-10.4168
意图	-10.4171
诚	-10.4172
舞台	-10.4174
假期	-10.4177
简化	-10.4184
新闻界	-10.4186
在本	-10.4188
▁他指出	-10.4193
我们将	-10.4193
纯	-10.4195
▁这次	-10.4196
仙	-10.4198
金管局	-10.4198
42	-10.4199
包装	-10.4203
民事	-10.4207
这条	-10.4208
幼	-10.4214
缩短	-10.4214
人在	-10.4217
残疾	-10.422
接收	-10.4222
酸	-10.4224
秘密	-10.4225
东亚	-10.4225
施加	-10.4226
太太	-10.4228
一段时间	-10.4228
发言者	-10.4232
同情	-10.4232
手术	-10.4242
的辩论	-10.4246
缔结	-10.4247
搜查	-10.4247
名为	-10.4249
介入	-10.4251
自然灾害	-10.4253
的性质	-10.4253
干事	-10.4255
让我们	-10.426
▁(2)	-10.4262
怀孕	-10.4263
童	-10.4265
无人	-10.4266
高科技	-10.4268
厚	-10.4269
日和	-10.4269
订定	-10.427
睡	-10.4277
比利时	-10.4277
帐	-10.4281
残疾人士	-10.4282
更好地	-10.4286
▁刚才	-10.4287
的修正案	-10.4292
社会人士	-10.4293
机构间	-10.4297
蒙古	-10.4299
的进程	-10.43
寄	-10.4301
庇护	-10.4302
根据第	-10.4304
洞	-10.4304
村庄	-10.4305
觉	-10.4306
恐怖分子	-10.4307
性和	-10.4307
区分	-10.4307
专家小组	-10.4309
副秘书长	-10.4311
协作	-10.4311
基建	-10.4316
露	-10.4317
调查结果	-10.4319
发达	-10.4323
祥	-10.4329
困扰	-10.433
冠	-10.4334
诸	-10.4341
的力量	-10.4341
分区域	-10.4349
签署了	-10.4351
部门的	-10.4352
全力	-10.4355
的价值	-10.4357
迎接	-10.4358
的平均	-10.4359
难民署	-10.436
先前	-10.4362
并以	-10.4362
行径	-10.4364
一时	-10.4365
扣	-10.4367
元朗	-10.4369
的未来	-10.4372
练	-10.4373
执行局	-10.4375
探	-10.4375
成效	-10.4379
鞋	-10.438
明天	-10.4385
发展和	-10.4386
活力	-10.4388
尤其是在	-10.4388
和美国	-10.4389
同样的	-10.4391
是否有	-10.4391
结束后	-10.4392
二十四	-10.4394
偷	-10.4394
可供	-10.4402
清晰	-10.441
非常重要	-10.4411
消灭	-10.4418
▁2	-10.4422
一步	-10.4425
七百	-10.4425
不仅是	-10.4432
巧	-10.4435
组合	-10.4436
审慎	-10.4437
奥地利	-10.4437
参	-10.4445
居住在	-10.4446
是不	-10.4447
里面	-10.4459
多元	-10.4461
强奸	-10.4464
筹资	-10.4466
城镇	-10.4466
迁	-10.4467
选票	-10.4467
刺激	-10.4469
普及	-10.447
竞选	-10.4471
削弱	-10.4482
议	-10.4488
凯	-10.449
纠正	-10.4491
气象	-10.4494
搜集	-10.4495
境	-10.4498
协调员	-10.4498
三个月	-10.45
▁我们必须	-10.4502
妻子	-10.4505
受害	-10.4508
外汇	-10.4512
的主题	-10.4513
的战略	-10.4514
就业机会	-10.4514
分为	-10.4515
超越	-10.4516
实验	-10.4516
营运	-10.4519
监	-10.4521
可以说	-10.4525
闻	-10.4526
载于	-10.4528
联合国在	-10.4529
使用武力	-10.4531
所述	-10.4536
一直是	-10.4537
抓	-10.454
粉	-10.4542
衡量	-10.4543
集中在	-10.4543
以外的	-10.4544
秘鲁	-10.4545
提倡	-10.4545
紧迫	-10.4546
放宽	-10.4547
介绍了	-10.4551
的教毓	-10.4551
4%	-10.4552
互	-10.4553
获准	-10.4553
苏联	-10.4556
烟	-10.4557
这么多	-10.4563
000	-10.4568
难民营	-10.4568
广场	-10.4569
可行	-10.4569
入侵	-10.4571
品质	-10.4571
扮演	-10.4572
我谨	-10.4573
武力	-10.4575
鲜	-10.4576
家园	-10.4576
总共	-10.4577
一支	-10.4579
设立的	-10.4579
解放	-10.4581
董事	-10.4582
十七	-10.4583
谋	-10.4585
汇报	-10.4585
报章	-10.4586
的条款	-10.4586
和非政府组织	-10.4587
的选举	-10.4593
罪案	-10.4593
管理和	-10.4597
这问题	-10.4597
南斯拉夫联邦共和国	-10.4599
的状况	-10.4601
▁新	-10.4604
供水	-10.4605
货车	-10.4611
限	-10.4612
还应	-10.4613
着名	-10.4615
国防	-10.4619
缴	-10.4625
所规定的	-10.4626
尼泊尔	-10.4627
佳	-10.4627
在港	-10.463
密切合作	-10.4632
但他	-10.4637
入境处	-10.4642
很大的	-10.4646
六百	-10.4658
的总	-10.4666
的援助	-10.4668
不错	-10.4668
维也纳	-10.4673
酌情	-10.4674
在非洲	-10.4675
北方	-10.4675
的决议	-10.4676
融入	-10.4677
签订	-10.4678
的指控	-10.4684
机密	-10.4684
勤	-10.4686
债权人	-10.469
和加强	-10.469
画家	-10.4699
临时立法会	-10.4703
市长	-10.4706
的居民	-10.4707
骂	-10.4709
场合	-10.4711
阐述	-10.4711
塞尔维亚	-10.4716
的声音	-10.4719
冬	-10.4719
行人	-10.4722
的市民	-10.4722
▁结果	-10.4723
▁应	-10.4724
多了	-10.4726
得知	-10.4726
当时的	-10.4728
长达	-10.4729
上学	-10.4734
骗	-10.4735
六千	-10.4737
机械	-10.4738
站在	-10.4741
是中国	-10.4742
好的	-10.4744
老板	-10.4744
中英	-10.4745
航空公司	-10.4755
中非共和国	-10.4755
引用	-10.4756
而且还	-10.4756
佩	-10.4757
呼	-10.4758
一座	-10.4759
百分之二十	-10.4761
地盘	-10.4762
甘	-10.4764
耀	-10.4764
瞭解	-10.4764
创意	-10.4766
▁1993	-10.4767
友好	-10.4769
裁定	-10.4769
他们对	-10.4769
东京	-10.4772
接到	-10.4778
技术援助	-10.4782
技术合作	-10.4783
总会	-10.4784
的日子	-10.4784
执行情况	-10.4787
设在	-10.479
累	-10.479
60%	-10.4794
分岐	-10.4794
还包括	-10.4796
册	-10.48
表示关注	-10.4801
统	-10.4801
应对	-10.4805
中心的	-10.4809
想到	-10.4809
休息	-10.4814
反对派	-10.482
现时的	-10.4823
受惠	-10.4825
信息技术	-10.4825
国家元首	-10.4827
演讲	-10.483
有不少	-10.4832
教毓和	-10.4833
的过程中	-10.4834
两种	-10.4835
的人权	-10.4844
君	-10.4844
大规模毁灭性武器	-10.4848
核试验	-10.4863
的罪行	-10.4868
综援	-10.4873
薪酬	-10.4875
南亚	-10.4879
很可能	-10.4879
一生	-10.488
熟悉	-10.4881
几个月	-10.4883
机器	-10.4885
的受害者	-10.4886
行动中	-10.4886
经济体系	-10.4886
该署	-10.4891
▁经过	-10.4894
迈	-10.4895
政制	-10.4899
的管理	-10.4899
签字	-10.49
方针	-10.49
前南斯拉夫	-10.49
小说	-10.4902
70%	-10.4905
98	-10.4907
世界卫生组织	-10.491
和技术	-10.4911
级别	-10.4921
究竟	-10.4922
过分	-10.4923
赤字	-10.4923
说明了	-10.4927
当事人	-10.4932
草拟	-10.4933
休	-10.4934
15%	-10.4935
这是一个	-10.4942
能在	-10.4944
高级别	-10.4948
加深	-10.4951
道理	-10.4952
7%	-10.4952
生活的	-10.4953
殴打	-10.4961
递交	-10.4962
儿童权利公约	-10.4964
几次	-10.4964
带领	-10.4969
注	-10.4974
社会主义	-10.4977
台大	-10.4988
纠纷	-10.4989
途迳	-10.4989
信托基金	-10.4989
一个月	-10.4992
码头	-10.4992
总干事	-10.4992
诚意	-10.4994
浮	-10.4994
大使馆	-10.4998
杯	-10.5012
本着	-10.5017
9%	-10.5017
策划	-10.5018
政府当局	-10.5021
阅读	-10.5024
改造	-10.5027
事件中	-10.5029
剥削	-10.503
传染病	-10.5031
区别	-10.5031
前提	-10.5033
只有在	-10.5035
干涉	-10.5039
时表示	-10.5044
加勒比	-10.5045
前面	-10.5046
捍卫	-10.5046
政策和	-10.5046
一九九五年	-10.5047
动力	-10.5051
的议案	-10.5053
25%	-10.5053
带来的	-10.5055
就在	-10.5055
赢得	-10.5058
后勤	-10.5059
残	-10.506
在国际	-10.5063
日本政府	-10.5064
等于	-10.5066
背后	-10.507
转型	-10.5072
邨	-10.5073
前途	-10.5074
欧安组织	-10.5074
清理	-10.5075
复兴	-10.5076
高度自治	-10.5076
跨国公司	-10.5079
46	-10.5079
可靠	-10.5081
申报	-10.5083
安全理事会第	-10.509
业绩	-10.5093
慢	-10.5094
水质	-10.5095
较低	-10.5099
成功的	-10.5101
一个国家	-10.5103
极大	-10.5104
发觉	-10.5105
盈余	-10.5109
泥	-10.5114
董事会	-10.5116
▁通过	-10.5116
所载	-10.5121
的愿望	-10.5122
妇女的	-10.5123
启	-10.5127
仔细	-10.5128
前来	-10.513
41	-10.5136
同期	-10.5139
施政	-10.5143
75	-10.5144
该委员会	-10.5147
测	-10.5148
深刻	-10.5148
不了	-10.5149
联合国会员国	-10.5153
丰富的	-10.5157
皈	-10.5159
90%	-10.5161
各界	-10.5163
▁相反	-10.5171
何时	-10.5172
二十一世纪	-10.5175
辛	-10.5177
管道	-10.518
便可以	-10.5181
便要	-10.5181
生毓	-10.5188
优先事项	-10.5189
印刷	-10.5189
嘴	-10.5189
保密	-10.5191
关怀	-10.5192
管治	-10.5192
其实是	-10.5195
融合	-10.5195
希望能	-10.5197
这位	-10.5198
族群	-10.5198
大国	-10.5204
想要	-10.5204
为基础	-10.5206
安全和	-10.5217
蛋	-10.5217
萨尔瓦多	-10.5218
离婚	-10.5219
种族岐视	-10.5223
力求	-10.5224
给我	-10.5224
授予	-10.5224
处置	-10.5225
携带	-10.5225
表示欢迎	-10.5225
争论	-10.5226
▁(1)	-10.5227
▁我觉得	-10.5229
处罚	-10.523
强化	-10.5232
的立法	-10.5235
辩护	-10.5236
浪	-10.5238
我会	-10.5244
暗	-10.5246
锡	-10.5247
1988	-10.5249
忘	-10.525
险	-10.5255
所列	-10.5257
商会	-10.5257
认定	-10.5258
继承	-10.5262
委员会的	-10.5264
的个案	-10.5266
人权问题	-10.5267
效力	-10.5267
▁3	-10.527
本身的	-10.527
工程处	-10.5271
▁近年来	-10.5271
段中	-10.5276
居留权	-10.5278
启用	-10.5284
食四	-10.5286
的意义	-10.5301
不需要	-10.5302
的请求	-10.5304
所带来的	-10.5306
早在	-10.5307
互动	-10.5307
医师	-10.5307
冲击	-10.5313
消防	-10.5327
卖淫	-10.533
效	-10.5331
一般性	-10.5333
对伊拉克	-10.5337
里的	-10.5339
已开始	-10.5339
完成了	-10.534
较高	-10.5343
的重点	-10.5343
的感觉	-10.5344
中断	-10.5346
2005	-10.5353
99	-10.5354
呈现	-10.5354
主导	-10.5355
劳动力	-10.5356
但它	-10.5357
复杂的	-10.5357
政府间	-10.5357
十五日	-10.5358
和平解决	-10.5359
预料	-10.5365
有待	-10.5368
政府已	-10.5368
响应	-10.5382
贩运	-10.5384
式的	-10.5388
轨道	-10.539
有关各方	-10.5394
一句	-10.5395
一人	-10.5396
不多	-10.5398
▁发言人	-10.5399
拖欠	-10.5404
的证据	-10.5405
角度	-10.5408
海关人员	-10.5412
时刻	-10.5414
东方	-10.5416
激烈	-10.5418
禁运	-10.5422
的数量	-10.5423
非洲统一组织	-10.5424
尼加拉瓜	-10.5424
逐	-10.5424
的联系	-10.5428
违法	-10.5428
具体的	-10.543
不顾	-10.5433
被认为是	-10.5433
制定了	-10.5436
了许多	-10.5438
▁2002	-10.544
全年	-10.5442
市民的	-10.5442
不可以	-10.5445
学位	-10.5446
不良	-10.545
振	-10.545
床	-10.545
的企业	-10.545
生产力	-10.5451
含有	-10.5452
法制	-10.5453
幼稚园	-10.5453
招聘	-10.5454
填补	-10.5454
▁上述	-10.5454
参照	-10.5454
英雄	-10.5455
百分之十	-10.5457
▁她说	-10.5458
则为	-10.5463
取得进展	-10.5468
货品	-10.5479
麦	-10.5481
察	-10.5483
徒	-10.5483
得出	-10.5489
自身	-10.5489
贩毒	-10.5493
热烈	-10.5495
的身份	-10.5499
房地产	-10.5501
诊所	-10.5503
▁显然	-10.5504
的部分	-10.5507
桑	-10.5512
郭	-10.5513
恐惧	-10.5513
落成	-10.5513
公尺	-10.5514
被人	-10.5516
忙	-10.5516
日期间	-10.552
族裔	-10.5524
三分之一	-10.5524
结束时	-10.5525
讯	-10.5529
经贸	-10.5529
深信	-10.5534
家中	-10.5537
货柜	-10.5538
辉	-10.5541
履行其	-10.5544
演员	-10.5545
呈	-10.5548
▁据报	-10.5548
的生命	-10.5549
流离失所者	-10.5552
▁董建华	-10.5553
翻译	-10.5555
脱离	-10.5555
时说	-10.5556
国际关系	-10.5556
做好	-10.5557
稍	-10.5559
间接	-10.556
面临的	-10.5561
更改	-10.5562
割	-10.5565
的那样	-10.5566
编辑	-10.557
缓慢	-10.5571
寻	-10.5573
深切	-10.5575
指责	-10.5575
幅度	-10.5576
一带	-10.558
较少	-10.558
自决	-10.5581
展出	-10.5587
妇女和儿童	-10.5592
远远	-10.5592
谋杀	-10.5597
宏	-10.5598
同胞	-10.5598
的孩子	-10.5602
蔓延	-10.5603
供款	-10.5604
天然气	-10.5604
此次	-10.5606
与中国	-10.5608
选手	-10.5615
分布	-10.5619
增长率	-10.5619
火车	-10.562
▁一个	-10.562
搭	-10.5621
全民	-10.5621
始	-10.5623
执行主任	-10.5624
宾	-10.5624
己	-10.5625
贤	-10.5633
排斥	-10.5633
艰难	-10.5634
奉	-10.5636
3000	-10.5645
铺	-10.5647
间的	-10.5649
幕	-10.565
财政预算案	-10.5654
方案的	-10.5656
又有	-10.5656
北约	-10.5657
摊款	-10.5658
局面	-10.5659
技	-10.566
法律规定	-10.566
经由	-10.5663
裁军谈判会议	-10.5664
▁理事会	-10.5665
的最佳	-10.5667
京	-10.567
巴黎	-10.5672
的整体	-10.5677
两天	-10.5679
工作者	-10.5688
穆	-10.5693
表示关切	-10.5693
现行的	-10.5694
谅解	-10.5694
吗	-10.5694
备忘录	-10.5694
当作	-10.5695
产出	-10.5696
主席团	-10.5698
一些人	-10.57
八年	-10.5702
轻微	-10.5704
将军	-10.571
对妇女	-10.5711
效益	-10.5718
照片	-10.5719
的最新	-10.5721
窗	-10.5722
成为一个	-10.5723
查阅	-10.5725
第二个	-10.5729
退出	-10.573
的改革	-10.5732
自卫	-10.5733
举办了	-10.5734
的健康	-10.5735
何种	-10.5736
的价格	-10.5737
弹性	-10.574
境内的	-10.5744
一同	-10.5744
说话	-10.5746
一九九六年	-10.5747
回国	-10.5747
表格	-10.5749
熟	-10.5753
什	-10.5754
之一是	-10.5754
除其他外	-10.5755
慢慢	-10.5755
空缺	-10.5767
衣服	-10.5767
不准	-10.5767
上次	-10.5768
并与	-10.577
走出	-10.5775
▁伊拉克	-10.5775
不同意	-10.5783
紧密	-10.5783
不妨	-10.5784
抢劫	-10.5785
▁国家	-10.5785
购物	-10.5785
探索	-10.5786
送交	-10.5789
受理	-10.5789
54	-10.5789
亲属	-10.5789
科索沃特派团	-10.5792
技术和	-10.5794
该报告	-10.5796
这些活动	-10.5798
定居	-10.5815
越来越多	-10.5816
父	-10.5817
价值观	-10.582
会使	-10.5821
最好的	-10.5822
其他地区	-10.5826
通知书	-10.5829
作物	-10.583
塔吉克斯坦	-10.5834
的想法	-10.5835
在本港	-10.5836
这种做法	-10.5838
▁后来	-10.5839
插	-10.5843
逼	-10.5847
辐射	-10.5847
美军	-10.585
手册	-10.5851
一般人	-10.5851
网页	-10.5852
是没有	-10.5852
由政府	-10.5854
▁4	-10.5859
大致	-10.5863
见附件	-10.5864
答案	-10.5866
和环境	-10.5867
营业	-10.5868
房子	-10.5869
肯	-10.5871
我们亦	-10.5872
最高法院	-10.5872
也就	-10.5876
悲剧	-10.5877
教科文组织	-10.5878
打破	-10.5879
用以	-10.588
一部	-10.588
和第	-10.5881
世贸组织	-10.5888
接受了	-10.589
十分重要	-10.5891
公报	-10.5893
九七年	-10.5896
犯人	-10.5897
我们已	-10.5898
制品	-10.5898
导演	-10.5899
交由	-10.5902
▁只有	-10.5902
哥斯达黎加	-10.5909
在内地	-10.591
沙田	-10.5918
聚	-10.5921
此一	-10.5923
而又	-10.5923
的制度	-10.5924
正好	-10.5927
参加者	-10.5934
玻璃	-10.594
雾	-10.594
盐	-10.594
发表了	-10.5941
洗钱	-10.5941
原住民	-10.5941
的风险	-10.5944
继续进行	-10.5951
入口	-10.5953
是香港	-10.5953
的长期	-10.5961
豪	-10.5964
不存在	-10.5966
的职责	-10.5966
策	-10.5969
偏	-10.597
考察	-10.5971
琴	-10.5971
韦	-10.5972
的成就	-10.5977
世界各国	-10.5977
周期	-10.5978
和促进	-10.5983
心中	-10.5986
的开支	-10.5987
▁还有	-10.5987
该国政府	-10.5989
观光	-10.5993
主要的	-10.5995
各部门	-10.5995
核武器国家	-10.5997
▁委员会还	-10.6
或其	-10.6003
规章	-10.6004
同等	-10.6004
制定的	-10.6007
面向	-10.6008
环境保护	-10.6011
▁它还	-10.6017
澳	-10.6018
只好	-10.6018
篇	-10.602
十九	-10.6021
的重大	-10.6027
的申请	-10.6027
无关	-10.603
的条文	-10.6033
波多黎各	-10.6034
岁男子	-10.6039
分摊	-10.604
检获	-10.6042
借此机会	-10.6043
操	-10.6043
立法机关	-10.6044
上限	-10.6047
灭	-10.6053
经营者	-10.6054
附属	-10.6056
办事	-10.6059
绝不	-10.6059
坚	-10.606
能够在	-10.6061
抵抗	-10.6066
厄瓜多尔	-10.6066
往来	-10.6069
恶劣	-10.6071
广东省	-10.6076
明确的	-10.6078
缩小	-10.6082
司法部	-10.6083
军事行动	-10.6084
马上	-10.6086
对他	-10.609
日电	-10.6092
就能	-10.6096
在内	-10.61
指明	-10.6101
人为	-10.6104
给我们	-10.6104
益	-10.6104
毕业生	-10.6105
脆弱	-10.6108
总体	-10.6109
高级官员	-10.6114
西岸	-10.6116
吸收	-10.6116
发给	-10.6118
非洲的	-10.6123
情形	-10.6124
十七日	-10.6126
壳	-10.6129
芬兰	-10.613
受益	-10.6132
一边	-10.6133
毁	-10.6134
改组	-10.6135
二零零零年	-10.6138
国集团	-10.6143
他对	-10.6145
吹	-10.6149
荃湾	-10.615
不超过	-10.6153
敬	-10.6154
妇女在	-10.6156
文章	-10.6158
资源的	-10.616
个百分点	-10.6161
的经费	-10.6162
进行合作	-10.6163
犯罪行为	-10.6164
金门	-10.6168
关税	-10.6169
政策的	-10.6188
私家车	-10.6189
不安	-10.619
委内瑞拉	-10.6193
致使	-10.6193
推翻	-10.6194
无数	-10.6195
收容	-10.6195
和安全	-10.6196
资深	-10.6196
让他	-10.6196
影片	-10.62
全球性	-10.6204
直升机	-10.6205
49	-10.6206
的声明	-10.6208
无核武器区	-10.6216
他认为	-10.6221
可惜	-10.6225
储蓄	-10.6225
举报	-10.6229
楼价	-10.623
咨询文件	-10.6232
名额	-10.6234
特设委员会	-10.6236
国务院	-10.6237
▁小组	-10.6237
政府和人民	-10.6238
速	-10.6242
这样一个	-10.6246
儿童权利	-10.6248
的业务	-10.6251
废	-10.6254
柏	-10.6255
前后	-10.6255
也不是	-10.6255
东盟	-10.6257
任择议定书	-10.6257
对中国	-10.6259
船舶	-10.626
身份证	-10.6261
十六日	-10.6261
在执行	-10.6262
对该	-10.6262
名义	-10.6265
山区	-10.6266
哥	-10.6268
困	-10.6268
当日	-10.6268
有关当局	-10.6273
虚	-10.6274
时间表	-10.6275
会见了	-10.6275
保卫	-10.6276
香港作为	-10.6278
百分之三十	-10.6279
之所以	-10.628
类似的	-10.6285
阴	-10.6289
柴油	-10.6289
律政司	-10.6289
外国直接投资	-10.629
排雷	-10.6291
不当	-10.6291
一件	-10.6293
这次会议	-10.6295
赤	-10.6297
和执行	-10.6298
债	-10.6298
饮食	-10.6301
全球经济	-10.6306
留意	-10.6308
类型	-10.631
层次	-10.6312
附表	-10.632
最为	-10.632
医药	-10.6321
更好的	-10.6321
剑	-10.6321
如果我们	-10.6324
有一	-10.6325
弃	-10.6326
的老	-10.6329
风格	-10.633
该决议	-10.6333
的官员	-10.6334
以及对	-10.6335
农村地区	-10.6335
参与者	-10.6342
摧毁	-10.6345
而且也	-10.6347
终审法院	-10.6355
富裕	-10.6355
入学	-10.6355
三日	-10.6359
渔船	-10.6359
代价	-10.6364
利息	-10.6372
拍摄	-10.6373
的军事	-10.6373
的设计	-10.6374
麻	-10.6375
都必须	-10.6377
周围	-10.6378
滑	-10.6378
定为	-10.6378
搬	-10.6381
庞大的	-10.6384
品牌	-10.6385
紧急情况	-10.6385
但这	-10.6385
53	-10.6387
'	-10.6387
噪音	-10.6387
恐吓	-10.6387
配偶	-10.6387
勇气	-10.6388
使用者	-10.639
朗	-10.639
疫苗	-10.6391
行政当局	-10.6391
磨	-10.6393
转交	-10.6394
▁咨询委员会	-10.6396
它在	-10.6398
解决冲突	-10.6403
▁那	-10.6405
的情形	-10.6405
污水	-10.6408
产生的	-10.6409
包括在	-10.6413
的增加	-10.6416
和支持	-10.6417
打开	-10.6419
粮农组织	-10.642
爸爸	-10.642
我就	-10.6421
过来	-10.6422
▁报告	-10.6424
会否	-10.6425
自由化	-10.643
安定	-10.6431
重大的	-10.6433
作者	-10.6439
我们应该	-10.6439
建成	-10.6445
大量的	-10.6446
议席	-10.6449
税率	-10.6452
也应	-10.6453
民主化	-10.6454
过去的	-10.6456
▁代理主席	-10.6457
120	-10.6458
处境	-10.646
马里	-10.6464
多人	-10.6467
侨	-10.6469
迫切需要	-10.647
名称	-10.6476
与发展	-10.6484
金属	-10.6484
太阳	-10.6485
肯尼亚	-10.6486
世界人权宣言	-10.6486
服装	-10.6487
密集	-10.6488
火警	-10.6488
因为我们	-10.6489
习	-10.6491
孟加拉国	-10.6495
公布的	-10.6496
的最	-10.6502
他们是	-10.6502
戏剧	-10.6502
抱	-10.6506
的气氛	-10.6507
手法	-10.6515
布什	-10.6517
贯彻	-10.6517
玛	-10.6518
劝	-10.6518
吸蔫	-10.6519
小朋友	-10.6521
中立	-10.6521
特别注意	-10.6522
国际公约	-10.6522
大埔	-10.6524
基准	-10.6524
的故事	-10.6524
提出建议	-10.6525
台风	-10.6526
的最大	-10.6527
但他们	-10.6528
司法机构	-10.6529
并使	-10.653
不单止	-10.6533
签署的	-10.6537
卫生部	-10.654
将为	-10.6542
负有	-10.6543
在伊拉克	-10.6544
补助	-10.6546
色彩	-10.6546
墨	-10.6547
落后	-10.6548
账	-10.6549
局局长	-10.655
萨达姆	-10.6552
七日	-10.6552
数码	-10.6553
播	-10.6553
将有助于	-10.6553
九七	-10.6556
丝	-10.6556
谈论	-10.6557
很重要	-10.656
越来越多的	-10.6563
的选择	-10.6564
绑架	-10.6566
扫	-10.6568
的特殊	-10.6568
也能	-10.6569
弹药	-10.6572
国防部	-10.6577
通货膨胀	-10.6578
都将	-10.6579
这项工作	-10.6579
民主的	-10.6583
想像	-10.6583
拆	-10.6585
专业人士	-10.6586
索取	-10.6587
从来没有	-10.6589
营地	-10.6591
金融市场	-10.6595
达成的	-10.6598
中国内地	-10.6602
表面	-10.6602
联合声明	-10.6604
代表团认为	-10.6605
埋	-10.6609
都知道	-10.661
和国家	-10.6615
挤	-10.6616
一只	-10.6617
献	-10.662
南北	-10.6625
的损失	-10.663
担忧	-10.663
愿望	-10.663
售卖	-10.6631
否决权	-10.6633
▁特别代表	-10.6638
言论自由	-10.6638
2006	-10.6638
债券	-10.6643
霍	-10.6644
权利的	-10.6646
57	-10.6646
带动	-10.6646
合办	-10.6649
鸿	-10.6651
阐明	-10.6652
官方发展援助	-10.6652
人员的	-10.6653
大部份	-10.6653
不论是	-10.6653
社团	-10.6657
预定	-10.6658
足够的	-10.666
文化和	-10.6662
消耗	-10.6663
学童	-10.6668
的理想	-10.6668
亦已	-10.6668
批出	-10.6669
任何其他	-10.6671
▁应该	-10.6672
回忆	-10.6673
误	-10.6676
动作	-10.6676
触	-10.6677
确	-10.6678
在世界	-10.6678
补救	-10.6679
差别	-10.668
一百五十	-10.6683
薄	-10.6683
了很多	-10.6684
这笔	-10.6685
渴望	-10.6685
记忆	-10.6686
代理主席	-10.6691
有关方面	-10.6691
夫妇	-10.6692
乐团	-10.6694
首相	-10.6694
效应	-10.6697
划分	-10.6697
合适的	-10.6697
一度	-10.6698
每周	-10.67
的方向	-10.6702
规定了	-10.6705
的决心	-10.6708
报告第	-10.6708
来台	-10.6709
66	-10.6715
政府会	-10.6718
斜坡	-10.6719
开拓	-10.6719
以便在	-10.6721
过去几年	-10.6721
人民币	-10.6722
不扩散条约	-10.6723
把握	-10.6724
水域	-10.6733
▁只要	-10.6735
附近的	-10.6735
与合作	-10.6735
攻	-10.6736
挑选	-10.674
概算	-10.674
率领	-10.674
几年	-10.674
更换	-10.6742
的最后	-10.6742
▁本人	-10.6742
将有	-10.6744
赚	-10.6752
昌	-10.6752
咖啡	-10.6753
邓	-10.6753
发展计划	-10.6754
是非常	-10.6754
桌	-10.6761
进出	-10.6763
教毓部	-10.6764
农场	-10.6766
的痛苦	-10.6767
危及	-10.6767
加重	-10.6772
的组织	-10.6772
租用	-10.6773
的角度	-10.6774
至二	-10.6775
▁台湾	-10.6776
香港特区	-10.678
市场上	-10.6784
疑	-10.6785
纾缓	-10.6786
镇压	-10.6788
播放	-10.6788
还需要	-10.6788
审核	-10.6789
市场经济	-10.6791
将成为	-10.6791
停车场	-10.6791
二十六日	-10.6792
配额	-10.6792
花园	-10.6792
保守	-10.6793
私营机构	-10.6794
活跃	-10.6796
枚	-10.6798
发言人今日	-10.68
裁员	-10.6802
适	-10.6806
的规则	-10.6812
可以看到	-10.6816
东欧	-10.682
兆	-10.682
与美国	-10.682
瓜	-10.682
匈牙利	-10.682
巴拿马	-10.6821
考验	-10.6821
征聘	-10.6821
身分	-10.6823
专利	-10.6825
56	-10.6827
是最	-10.6827
还必须	-10.6829
版本	-10.6832
的名义	-10.6841
积	-10.6842
坐在	-10.6844
港岛	-10.6845
▁假如	-10.6846
在这些	-10.685
网址	-10.6851
从此	-10.6854
循环	-10.6855
签	-10.6857
任意	-10.686
宿舍	-10.6861
在场	-10.6864
陶	-10.687
看不到	-10.6871
拓展	-10.6873
我们可以	-10.6879
跟着	-10.6879
隔离	-10.688
也可能	-10.6881
无视	-10.6881
的效率	-10.6882
院校	-10.6886
辖下	-10.6886
在国内	-10.6887
沃	-10.6887
其工作	-10.6888
与内地	-10.6888
羊	-10.6888
芳	-10.6889
幼儿	-10.6889
智慧	-10.689
系列	-10.6892
盟约	-10.6892
的局面	-10.6895
际	-10.6895
村民	-10.6896
炮	-10.6905
筹	-10.6908
十九日	-10.691
审批	-10.6911
很好	-10.6915
并由	-10.6917
珍	-10.692
管理人员	-10.6923
骑	-10.6923
种族灭绝	-10.6923
流失	-10.6925
迫	-10.6925
时代的	-10.6927
行政院	-10.6927
拍卖	-10.6927
▁市民	-10.6931
黑塞哥维那	-10.6932
的全面	-10.6936
清除	-10.6938
重组	-10.6939
沿海	-10.6939
常设	-10.6942
自主	-10.6944
不允许	-10.6946
声音	-10.6948
网路	-10.6949
成人	-10.695
冠军	-10.6953
强大	-10.6953
权威	-10.6954
醒	-10.6955
固然	-10.6958
预先	-10.696
我国政府	-10.6963
▁委员会注意到	-10.6965
针	-10.6967
堆	-10.6971
灾	-10.6974
热情	-10.6976
拨出	-10.6977
这两	-10.6978
公营	-10.6979
的工具	-10.6979
不足以	-10.698
游说	-10.698
框架内	-10.6983
货运	-10.6984
除外	-10.6984
限于	-10.6987
外界	-10.6988
扇动	-10.6996
航天	-10.6996
▁缔约国	-10.7
军方	-10.7003
唯一的	-10.7005
延误	-10.7014
以确定	-10.7014
日子	-10.7017
等候	-10.7018
进一步加强	-10.7019
社会福利署	-10.702
前进	-10.7025
因特网	-10.7026
挖	-10.7027
罗马尼亚	-10.7027
的人民	-10.7029
约束	-10.7032
的同事	-10.7035
由此	-10.7037
壁	-10.7038
所产生的	-10.7039
穷	-10.7039
共和国总统	-10.7043
行程	-10.7044
▁国际	-10.7045
波动	-10.705
重要的是	-10.7051
其中一个	-10.7052
▁预计	-10.7053
当代	-10.7056
袭	-10.7056
中亚	-10.7057
晓	-10.7057
▁他还	-10.7059
少于	-10.706
腿	-10.7062
走上	-10.7062
国际法庭	-10.7062
示	-10.7063
旅	-10.7064
形式的	-10.7064
票价	-10.7068
二零零二年	-10.707
分散	-10.7071
边缘	-10.7072
世纪议程	-10.7074
增多	-10.7077
拟议	-10.708
时限	-10.708
4000	-10.7081
人道	-10.7085
败	-10.7091
表示感谢	-10.7092
多元化	-10.7093
影响的	-10.7093
任何国家	-10.7094
富有	-10.7095
九百	-10.7096
安全问题	-10.7097
项目的	-10.7098
故意	-10.71
不清楚	-10.7101
这些建议	-10.7103
总值	-10.7108
艺术家	-10.7108
染	-10.711
▁如果我们	-10.7113
迫切	-10.7113
税务	-10.7116
家里	-10.7116
状湟	-10.7119
新兴	-10.7123
国内流离失所者	-10.7124
流通	-10.7125
演奏	-10.7128
警察部队	-10.7129
颜	-10.7131
妥协	-10.7132
教材	-10.7133
无辜	-10.7133
掌	-10.7134
协	-10.7135
引起的	-10.7136
今天的	-10.7136
象征	-10.7137
地图	-10.7139
毕竟	-10.7142
禁毒	-10.7142
应有的	-10.7143
在纽约	-10.7144
真相	-10.7147
的好处	-10.7148
天下	-10.7148
感情	-10.7149
教会	-10.7151
六个	-10.7151
其中有	-10.7151
陷	-10.7152
番	-10.7154
▁我们相信	-10.7155
为基础的	-10.7158
对所有	-10.7158
的作品	-10.7159
禽流感	-10.7167
谨慎	-10.7167
弥补	-10.7167
均衡	-10.7167
控	-10.7169
联合国开发计划署	-10.7172
理性	-10.7172
的预算	-10.7173
股东	-10.7177
人口基金	-10.7177
评审	-10.7179
各国人民	-10.7179
每人	-10.7185
多万	-10.7187
代理	-10.7189
可望	-10.7189
刊	-10.7191
快乐	-10.7194
讲座	-10.7195
并会	-10.7196
的期望	-10.7198
社工	-10.7198
严厉	-10.7199
该名	-10.72
癌	-10.7201
闹	-10.7202
几内亚	-10.7203
波斯尼亚和黑塞哥维那	-10.7203
观察团	-10.7208
这些措施	-10.7213
国际上	-10.7214
吓	-10.7214
采取的	-10.7225
而被	-10.7226
作战	-10.7226
在去年	-10.7226
五日	-10.7229
冒	-10.723
护士	-10.7231
池	-10.7232
本土	-10.7232
放缓	-10.7233
说服	-10.7233
康乐	-10.7238
住所	-10.7239
轰炸	-10.7239
▁我要	-10.7242
入息	-10.7242
群岛	-10.7242
交通意外	-10.7243
防治	-10.7245
条款草案	-10.7248
在大会	-10.725
▁面对	-10.7252
在所有	-10.726
较大	-10.7263
亡	-10.7263
人权和	-10.7266
审议了	-10.7271
赵	-10.7273
遵循	-10.7274
交付	-10.7274
餐厅	-10.7274
保毓	-10.7275
中医	-10.7277
音乐会	-10.7277
委托	-10.7279
一日	-10.728
加沙	-10.7284
界别	-10.7286
候	-10.7287
最重要的是	-10.7289
发言人表示	-10.729
如果没有	-10.7296
▁在此	-10.7297
二零零一年	-10.73
降至	-10.73
增幅	-10.7301
提前	-10.7301
殖民	-10.7302
印象	-10.7304
填	-10.7304
中药	-10.7306
纪律	-10.7307
寿	-10.7309
缺陷	-10.731
的结论	-10.731
缴纳	-10.7311
分担	-10.7311
一九九	-10.7311
其他地方	-10.7313
手中	-10.7317
的城市	-10.732
(2)	-10.7322
公共服务	-10.7322
更好	-10.7324
提供给	-10.7325
案例	-10.7326
主人	-10.7326
否决	-10.7326
要求政府	-10.7327
这就是	-10.7328
响	-10.733
遍	-10.7332
房屋委员会	-10.7334
军火	-10.7337
国人	-10.7338
在这一	-10.7339
岛屿	-10.7341
所在	-10.7341
题	-10.7342
▁大家	-10.7344
和非	-10.7344
金融机构	-10.7344
拯救	-10.7345
招募	-10.7345
害怕	-10.7346
测量	-10.7348
但由于	-10.7349
紧张局势	-10.735
将使	-10.7354
视乎	-10.7357
社会经济	-10.7357
多年的	-10.7358
发展权	-10.7358
罗马	-10.7362
该计划	-10.7365
的斗争	-10.7368
联合国大学	-10.7368
花费	-10.7369
共产党	-10.7375
时机	-10.7375
校园	-10.7378
炎	-10.738
坑	-10.7381
保加利亚	-10.7381
扭转	-10.7382
警官	-10.7384
接待	-10.7385
的产品	-10.7386
姓	-10.7386
连同	-10.7389
东北	-10.7393
的修订	-10.7393
的前景	-10.7394
▁双方	-10.7395
二十七	-10.7396
统计数字	-10.7403
所致	-10.7403
所进行的	-10.7407
组织和	-10.7411
船民	-10.7413
细菌	-10.7417
缩	-10.7417
联合国机构	-10.7419
难免	-10.7423
样本	-10.7424
给他	-10.7426
发表意见	-10.7429
要在	-10.743
损坏	-10.7437
劳工组织	-10.7438
增值	-10.7439
不对	-10.7441
西非	-10.7441
龄	-10.7445
那是	-10.745
摊	-10.7451
金融风暴	-10.7452
舱	-10.7453
色情	-10.7454
于二	-10.7457
侧	-10.7458
多位	-10.7458
企业家	-10.7459
是可以	-10.746
报告的	-10.7461
谈及	-10.7464
一一	-10.7464
人家	-10.7467
历来	-10.747
特使	-10.7474
所需要的	-10.7476
指挥官	-10.7477
研究报告	-10.7477
现今	-10.7477
死于	-10.7477
和平与	-10.748
的区域	-10.748
我亦	-10.748
不断增加	-10.7481
祝	-10.7485
也很	-10.7488
吊	-10.7489
与政府	-10.7489
友谊	-10.749
1985	-10.7494
派发	-10.7497
它将	-10.75
有信心	-10.75
表示支持	-10.7502
管理国	-10.7505
商机	-10.7506
的解释	-10.7506
覆盖	-10.7507
董建华	-10.7507
选举委员会	-10.7509
演变	-10.7511
相同的	-10.7513
的车辆	-10.7514
优	-10.7515
分开	-10.7516
有资格	-10.7517
坛	-10.752
的某些	-10.7521
▁他表示	-10.7523
了解到	-10.7524
每个人	-10.7524
以促进	-10.7525
罐	-10.7526
渔民	-10.7531
内政	-10.7531
上面	-10.7535
在同一	-10.7539
职工	-10.754
不起	-10.7543
热线	-10.7547
高级专员	-10.7551
提交的	-10.7553
立委	-10.7554
▁秘书处	-10.7555
做得	-10.7557
川	-10.7558
黎	-10.7559
以色列政府	-10.756
历史性	-10.7562
证监会	-10.7563
选区	-10.7565
▁经	-10.7565
工程师	-10.7566
巴格达	-10.7573
运行	-10.7577
平方米	-10.7577
办公	-10.7581
提出的建议	-10.7581
积极的	-10.7586
一本	-10.7588
年青人	-10.759
的市场	-10.7592
犯有	-10.7595
炉	-10.7595
凶	-10.7597
漏	-10.7599
详情	-10.7599
俊	-10.7599
迳	-10.7599
差饷	-10.76
总监	-10.7601
年后	-10.7604
所以我	-10.7605
的商业	-10.7607
驱逐	-10.7614
运动员	-10.7618
作出的	-10.7619
敏	-10.762
因为这	-10.762
困境	-10.7622
才可以	-10.7626
95	-10.7628
伴	-10.763
被发现	-10.763
▁请	-10.763
劲	-10.7631
受到了	-10.7632
二十九	-10.7632
问责制	-10.7633
闲	-10.7636
瓶	-10.7636
培毓	-10.7637
八千	-10.7637
讲述	-10.764
增设	-10.7641
环节	-10.7641
后面	-10.765
首要	-10.7651
已是	-10.7651
影响力	-10.7659
这件事	-10.766
缔约方会议	-10.7662
女生	-10.7663
有所增加	-10.7664
另一种	-10.7666
一笔	-10.7666
入境事务处	-10.7666
该公约	-10.7667
弗	-10.7669
崩溃	-10.7674
的保护	-10.7674
提出报告	-10.7674
64	-10.7675
少数群体	-10.7675
长期以来	-10.7678
大选	-10.7678
该项目	-10.7681
届会	-10.7682
环保署	-10.7683
引起了	-10.7685
是从	-10.7687
白俄罗斯	-10.7688
透	-10.7689
集中于	-10.769
简报	-10.7693
进修	-10.7696
外长	-10.7697
必定	-10.77
一面	-10.7702
一块	-10.7705
泉	-10.7705
摩	-10.7707
法律和	-10.7709
希族塞人	-10.771
网上	-10.7711
反恐	-10.7712
施行	-10.7717
常规	-10.7718
特权	-10.772
▁考虑到	-10.7721
68	-10.7721
这对	-10.7722
伊拉克人民	-10.7722
二十三日	-10.7723
百分之五	-10.7724
移徙	-10.7725
棒	-10.7725
的最高	-10.7727
既定	-10.7727
▁李	-10.7729
有限的	-10.7731
使命	-10.7735
星期	-10.7736
但也	-10.7737
二十二日	-10.7738
七千	-10.7738
莫斯科	-10.7743
下令	-10.7743
有力	-10.7743
遭迂	-10.7744
社会中	-10.7745
严重影响	-10.7747
眼睛	-10.7748
缓解	-10.7749
嘉宾	-10.7749
1986	-10.775
可说是	-10.7751
玩具	-10.7753
失去了	-10.7758
阿尔	-10.7764
▁5	-10.7764
成立一个	-10.7764
两个月	-10.7765
本区域	-10.777
领域中	-10.7774
雇佣军	-10.7775
常任理事国	-10.7777
判处	-10.7777
恐怖主义行为	-10.7777
之上	-10.7777
在二	-10.778
济	-10.7781
的命运	-10.7783
在日内瓦	-10.7785
喊	-10.7785
莫桑比克	-10.7786
挺	-10.7786
自由和	-10.7786
蔫	-10.7786
人类住区	-10.7786
蓄意	-10.7786
案件中	-10.7787
海牙	-10.7787
发电	-10.7789
大门	-10.7789
新市镇	-10.7791
的失业率	-10.7791
押	-10.7794
毫不	-10.7796
的必要	-10.7799
一大	-10.7802
敌对	-10.7809
遗产	-10.781
生长	-10.781
的交通	-10.7812
就算	-10.7812
第三次	-10.7813
清楚地	-10.7814
在日本	-10.7815
面临着	-10.7816
沉重	-10.7816
运输署	-10.7818
说法	-10.7818
慈善	-10.7823
的难民	-10.7824
电子商务	-10.7824
加大	-10.7824
素质	-10.7824
进攻	-10.7825
联阵	-10.7825
强劲	-10.7828
极大的	-10.783
在全球	-10.7832
在当地	-10.7834
强调了	-10.7834
个月内	-10.7836
中非	-10.7839
国有	-10.7843
......。	-10.7845
邻	-10.7846
社会保障	-10.7847
十四日	-10.7848
平静	-10.7849
不等	-10.7853
孩子们	-10.7857
暴力行为	-10.7858
湾仔	-10.7859
新技术	-10.786
尖	-10.786
慧	-10.786
小岛屿发展中国家	-10.7862
学费	-10.7862
圆桌会议	-10.7865
使之	-10.7867
就读	-10.7868
条的规定	-10.7869
被拘留者	-10.787
人均	-10.7871
社会和经济	-10.7874
上涨	-10.7878
不平等	-10.7882
的稳定	-10.7883
百分之五十	-10.7884
加强了	-10.7885
的改变	-10.7886
中所	-10.7887
址	-10.7892
遗	-10.7894
建造业	-10.7894
扎伊尔	-10.7894
轨	-10.7895
默	-10.7897
钢	-10.7897
不一定	-10.7898
泡	-10.7899
谅解备忘录	-10.7899
重要性	-10.79
和政治	-10.79
赚钱	-10.79
奉行	-10.7902
迎	-10.7904
2%	-10.7905
联合国秘书处	-10.7906
委员会的工作	-10.7911
这一进程	-10.7917
等地	-10.7918
谈谈	-10.7919
6000	-10.7921
的决议草案	-10.7921
百分之四十	-10.7923
行政部门	-10.7927
证件	-10.7928
及早	-10.7929
应有	-10.7933
泛	-10.7935
的使用	-10.7937
荣誉	-10.7937
欧洲委员会	-10.7938
我对	-10.794
副总理	-10.7941
转为	-10.7943
的空间	-10.7943
饰	-10.7946
顾	-10.7947
足球	-10.7947
59	-10.7948
可用	-10.795
是如何	-10.7957
的参与	-10.7958
理念	-10.7958
该人	-10.7963
读书	-10.7963
%	-10.7964
身为	-10.7965
想法	-10.7967
警卫	-10.7968
须要	-10.7968
的候选人	-10.7969
公安	-10.7971
女人	-10.7974
粗	-10.7974
谱	-10.7975
阿尔及利亚	-10.7975
百万	-10.7976
代表说	-10.7981
版权	-10.7982
施工	-10.7983
会导致	-10.7984
桶	-10.7991
外债	-10.7994
58	-10.7995
之余	-10.7996
司法制度	-10.8002
招标	-10.8003
如同	-10.8009
应是	-10.801
宝贵的	-10.8011
九八年	-10.8013
调查显示	-10.8014
会影响	-10.8015
原始	-10.8015
宣称	-10.8016
和其它	-10.8017
无力	-10.8017
学历	-10.8024
领土完整	-10.8024
家族	-10.8025
定罪	-10.8026
聚会	-10.8027
尼亚	-10.803
个小时	-10.8031
商务	-10.8032
独特的	-10.8034
发售	-10.8035
这不是	-10.8044
饱	-10.8047
营商	-10.8048
我们看到	-10.8048
上班	-10.8048
▁答	-10.8049
碎	-10.805
摇	-10.805
灰	-10.8051
浅	-10.8051
该缔约国	-10.8052
支柱	-10.8052
不在	-10.8054
记载	-10.8056
定居点	-10.8056
问题时	-10.8057
很有	-10.8063
各代表团	-10.8064
伊拉克的	-10.8068
市政	-10.8072
所做的	-10.8073
组成部分	-10.8073
的全球	-10.8075
和保护	-10.8077
并希望	-10.8077
散发	-10.8079
健全	-10.8082
尊	-10.8082
隐	-10.8084
▁陈	-10.8086
科研	-10.8086
拔	-10.8086
暖	-10.8088
吕	-10.809
珠江三角洲	-10.809
非洲大陆	-10.8093
▁其次	-10.8094
中医药	-10.8094
看待	-10.8095
解散	-10.8096
显示出	-10.8098
深感	-10.8098
吸引力	-10.81
答覆	-10.8104
的障碍	-10.8105
的民主	-10.8105
香港特别行政区政府	-10.8106
动机	-10.8106
复苏	-10.8106
或在	-10.8107
主流	-10.8108
不能够	-10.8109
柜	-10.8109
▁你	-10.8112
志愿	-10.8115
会出现	-10.8118
工作方法	-10.8118
被控	-10.8123
高兴	-10.8125
1970	-10.8125
夫妻	-10.8125
以此	-10.8128
法新社	-10.8129
聆讯	-10.8129
港人治港	-10.8129
纺织品	-10.813
向他们	-10.8132
稳	-10.8133
征求	-10.8134
二十八日	-10.8134
被送往	-10.8137
牵	-10.8137
该问题	-10.8138
受到影响	-10.8139
以使	-10.8139
想象	-10.8142
确切	-10.8142
成分	-10.8143
哲学	-10.8145
当今	-10.8148
并确保	-10.8149
▁然后	-10.8149
凌晨	-10.8151
纵	-10.8151
的心情	-10.8154
涉及到	-10.8156
和文化	-10.8158
在他	-10.8159
的时代	-10.816
▁当局	-10.816
赢	-10.8161
不单	-10.8162
此时	-10.8163
不肯	-10.8165
经济体	-10.8166
加强对	-10.8168
`	-10.8168
潘	-10.8168
废料	-10.8169
有害	-10.817
可否	-10.8171
前线	-10.8172
数学	-10.8175
的对话	-10.8177
人群	-10.8178
开始时	-10.8183
▁与会者	-10.8187
腾	-10.8187
下降了	-10.8187
可以说是	-10.8189
适宜	-10.8198
核实	-10.8199
强行	-10.8199
成本效益	-10.8201
苗	-10.8203
提交给	-10.8203
的武器	-10.8204
频繁	-10.8206
被拘留	-10.8206
第二阶段	-10.8208
在今后	-10.8209
的缔约国	-10.8209
过多	-10.821
实验室	-10.8211
很清楚	-10.8212
在我们	-10.8214
回归	-10.8214
有关机构	-10.822
大幅度	-10.8225
灵活性	-10.8226
打击恐怖主义	-10.8229
可行的	-10.8229
稳定的	-10.8231
应以	-10.8232
制度的	-10.8233
苦难	-10.8233
训	-10.8233
即可	-10.8237
杀人	-10.8243
爱沙尼亚	-10.8247
延迟	-10.8247
当地的	-10.8247
绿色	-10.8249
把它	-10.8251
截	-10.8265
如果不	-10.8267
经常预算	-10.827
社会问题	-10.8274
的真正	-10.8277
多于	-10.8277
安全理事会的	-10.8281
荒	-10.8285
不致	-10.8285
部长级会议	-10.8285
的报道	-10.8286
朝鲜半岛	-10.8286
的兴趣	-10.8286
援引	-10.8287
幸福	-10.8292
季度	-10.8292
决定是否	-10.8293
日趋	-10.8294
水资源	-10.8295
震	-10.8296
该方案	-10.8299
人质	-10.8304
将以	-10.8305
伍	-10.8307
▁印度	-10.8309
提供有关	-10.8309
将对	-10.8311
数百	-10.8312
还未	-10.8314
维和行动	-10.8318
违例	-10.8318
所提	-10.832
超出	-10.8322
该部	-10.8323
部队派遣国	-10.8325
牙买加	-10.8326
探访	-10.8326
无效	-10.8327
修复	-10.8328
进行研究	-10.8329
故此	-10.833
必需	-10.8333
上了	-10.8333
后续	-10.8333
给他们	-10.8333
撤回	-10.8333
机迂	-10.8339
又是	-10.8344
保健服务	-10.8344
巴林	-10.8346
四名	-10.8347
进行谈判	-10.8347
第八	-10.8347
关系的	-10.8347
并要求	-10.8348
没有得到	-10.835
境外	-10.8353
万吨	-10.8355
天然	-10.8355
几位	-10.8359
雕	-10.836
堡	-10.8363
在整个	-10.8364
阿拉伯叙利亚共和国	-10.8365
最早	-10.8371
早就	-10.8371
免受	-10.8372
生计	-10.8373
交代	-10.8373
国际社会的	-10.8374
的领域	-10.8374
执	-10.8374
占有	-10.8375
本年	-10.8378
与香港	-10.8379
现状	-10.8382
上课	-10.8383
的收费	-10.8387
领土上	-10.8389
及香港	-10.8393
这些机构	-10.8396
无线电	-10.8398
机构和	-10.84
裂	-10.84
狂	-10.8404
大不列颠及北爱尔兰联合王国	-10.8405
纳米比亚	-10.8405
的工资	-10.8407
完全没有	-10.8408
经济合作	-10.8408
秘书长特别代表	-10.841
者和	-10.8411
范	-10.8415
控告	-10.8415
到底	-10.8418
▁我谨	-10.8419
一番	-10.8419
日渐	-10.8421
我刚才	-10.8428
实在是	-10.8431
心里	-10.8432
公里的	-10.8432
的专业	-10.8434
来往	-10.8434
刊物	-10.8439
术	-10.844
强烈的	-10.8442
开采	-10.8442
脉	-10.8443
岩	-10.8443
栏	-10.8443
非自治领土	-10.8445
借贷	-10.8445
简介	-10.8445
纺织	-10.8445
标签	-10.8445
逃离	-10.8446
海军	-10.8446
的负担	-10.8448
空军	-10.8452
不明	-10.8456
很多时候	-10.8456
无论如何	-10.8458
工作地点	-10.846
年开始	-10.846
先生阁下	-10.8462
负债	-10.8462
96	-10.8465
的投诉	-10.8467
忽略	-10.8467
不希望	-10.8469
会令	-10.847
我很	-10.8471
努	-10.8471
的非	-10.8472
危险的	-10.8472
的积极	-10.8475
的行政	-10.8477
函	-10.8477
用地	-10.8479
被认为	-10.8481
选定	-10.8484
储	-10.8484
喀麦隆	-10.8485
逗留	-10.8486
党派	-10.8486
国内生产总值	-10.8486
相似	-10.8486
1987	-10.8487
情势	-10.849
行动的	-10.8491
迹	-10.8496
▁二	-10.8501
立法局议员	-10.8504
可以看出	-10.8511
示范法	-10.8517
暂	-10.8519
印发	-10.852
所在地	-10.8521
供资	-10.8521
的专家	-10.8521
饼	-10.8525
廖	-10.8525
捐赠	-10.8525
仓库	-10.8526
误解	-10.8526
医护人员	-10.8528
聚集	-10.8531
佛教	-10.8532
月中旬	-10.8534
所属	-10.8534
的全部	-10.8535
典	-10.8536
尊重人权	-10.8536
的高	-10.8541
主动行动	-10.8542
贫	-10.8543
全省	-10.8544
有否	-10.8545
生命的	-10.8547
三项	-10.8549
悲惨	-10.855
卫生组织	-10.8553
出国	-10.8556
宣传活动	-10.8558
郎	-10.8559
用水	-10.856
俗	-10.8563
土壤	-10.8566
奋斗	-10.8566
哈萨克斯坦	-10.8566
动荡	-10.8566
购置	-10.8567
登记册	-10.8567
崇高	-10.8568
立法会议员	-10.8568
公然	-10.8569
警察局	-10.8571
人选	-10.8573
(3)	-10.8575
似乎是	-10.8576
载列	-10.8579
的成绩	-10.8579
蒋	-10.859
51	-10.8591
损	-10.8592
正规	-10.8593
年年底	-10.8593
铭	-10.8597
高峰	-10.8598
均有	-10.8598
正视	-10.8602
宿	-10.8603
遂	-10.8603
深深	-10.8603
奖学金	-10.8606
报酬	-10.8608
跨越	-10.8609
应否	-10.861
忍受	-10.8611
捷克共和国	-10.8612
盟	-10.8613
辛苦	-10.8614
的日期	-10.8614
保护和	-10.8616
发言人说	-10.8617
在处理	-10.8617
个星期	-10.8622
很小	-10.8623
根源	-10.8625
国际标准	-10.8625
潮流	-10.8625
煮	-10.8625
85	-10.8628
二十一日	-10.8628
当然是	-10.8629
不包括	-10.863
政府与	-10.8631
的任期	-10.8634
事后	-10.8634
宗旨	-10.8635
的危机	-10.864
份子	-10.864
轮候	-10.8643
下述	-10.8644
香港的经济	-10.8645
决策者	-10.8645
柱	-10.8646
男孩	-10.8646
彭	-10.8647
涨	-10.8648
男童	-10.8649
干部	-10.8651
整理	-10.8652
我们现在	-10.8653
出庭	-10.8662
逻辑	-10.8662
该区	-10.8664
航班	-10.8664
阻	-10.8666
委员会认为	-10.8667
也曾	-10.8669
年纪	-10.8676
阅	-10.8676
的第一	-10.8677
的适当	-10.8681
52	-10.8683
刺	-10.8684
着名的	-10.8685
择	-10.8686
街道	-10.8688
哭	-10.8688
剪	-10.8688
干扰	-10.8689
成立的	-10.8689
第三国	-10.869
仪器	-10.869
初级	-10.8693
创建	-10.8697
街市	-10.8697
较多	-10.8701
国家间	-10.8703
不让	-10.8703
我们是	-10.8705
保护人权	-10.8705
有益	-10.8706
航运	-10.8709
体验	-10.871
的朋友	-10.8711
煤	-10.8716
75%	-10.8717
愈来愈	-10.8717
我们都	-10.8719
列明	-10.8721
的暴力	-10.8721
偶	-10.8721
的出口	-10.8721
培训班	-10.8723
五十年	-10.8724
涌	-10.8724
近来	-10.8726
媒介	-10.8726
及有关	-10.8727
邀	-10.8728
凤	-10.8729
挑衅	-10.8729
转向	-10.8729
泳滩	-10.8729
干旱	-10.873
阶级	-10.873
家具	-10.8731
联合国和	-10.8733
通往	-10.8736
精简	-10.8741
的事项	-10.8746
作出反应	-10.875
营造	-10.875
简单的	-10.876
懂得	-10.8762
因为在	-10.8766
有更多	-10.8768
跃	-10.877
慷慨	-10.8771
免疫	-10.8771
反过来	-10.8774
延伸	-10.8775
的执行情况	-10.8782
几乎所有	-10.8783
这些都是	-10.8783
耐	-10.8788
当初	-10.879
88	-10.8793
原有	-10.8794
找不到	-10.8797
政府亦	-10.8797
各机构	-10.8798
进度	-10.88
烈	-10.8801
在该国	-10.8802
利益的	-10.8803
龟	-10.8805
▁据称	-10.8806
生活中	-10.8811
升幅	-10.8812
注射	-10.8813
混合	-10.8813
卓越	-10.8813
歌曲	-10.8814
警署	-10.8815
保养	-10.8815
精英	-10.8815
藉此	-10.8815
新闻稿	-10.8816
地域	-10.8818
▁委员会认为	-10.8821
与此同时	-10.8824
不容易	-10.8829
够	-10.8832
的名字	-10.8838
誉	-10.8843
骚扰	-10.8848
特遣队	-10.8848
的工人	-10.8848
香港邮政	-10.8848
逢	-10.885
司长	-10.8851
按揭	-10.8852
交往	-10.8852
妇	-10.8852
乔	-10.8853
美术	-10.8854
教科书	-10.8854
世界贸易组织	-10.8855
所有会员国	-10.8856
议事规则	-10.8857
三分之二	-10.8859
作法	-10.8859
防火	-10.8859
人权情况	-10.8859
假定	-10.8862
规	-10.8863
的倡议	-10.8865
公约草案	-10.8865
较早前	-10.8867
牙	-10.887
便宜	-10.8872
发出的	-10.8877
否定	-10.8879
却没有	-10.8879
过去十年	-10.888
真实	-10.8885
第二季	-10.8885
2007	-10.8885
产品的	-10.8887
第三季	-10.8887
▁1992	-10.8888
收到了	-10.8894
亚太	-10.8895
週	-10.8896
行政局	-10.8896
赞比亚	-10.8896
即使是	-10.8897
海港	-10.8899
她说	-10.8903
标志着	-10.8903
帝	-10.8904
我们今天	-10.8906
的效果	-10.8911
态	-10.8911
更重要的是	-10.8915
的不同	-10.8915
有关人士	-10.8919
访问了	-10.892
拉丁美洲和加勒比	-10.892
辈	-10.8921
才有	-10.8922
石油气	-10.8926
分配给	-10.8929
二十二	-10.893
百分之三	-10.8931
对儿童	-10.8935
幸	-10.8935
消极	-10.8935
亚太区	-10.8936
号决议第	-10.8936
明显的	-10.8936
燕	-10.8937
将军澳	-10.8938
麻烦	-10.8938
巿场	-10.8939
▁我们也	-10.894
必须确保	-10.8942
▁于是	-10.8942
欧美	-10.8946
转换	-10.8946
仅有	-10.8948
研究和	-10.8951
监督厅	-10.8952
一万	-10.8952
幸运	-10.8953
对社会	-10.8955
点八	-10.8957
典礼	-10.8966
不易	-10.8967
驶	-10.8967
颗	-10.8973
九年	-10.8974
每小时	-10.8975
告诉我们	-10.8976
胸	-10.8977
乙	-10.8978
所能	-10.898
赚取	-10.8981
的结构	-10.8981
变为	-10.8982
不公正	-10.8982
偏见	-10.8982
探员	-10.8982
原料	-10.8983
的主权	-10.8984
认捐	-10.8986
眼前	-10.8986
东区	-10.8986
五十周年	-10.8988
▁换言之	-10.899
理由是	-10.899
抛	-10.8993
的一个重要	-10.8997
多达	-10.8997
▁非洲	-10.8999
券	-10.9
空运	-10.9
第七	-10.9001
病例	-10.9003
的根源	-10.9003
但没有	-10.9006
勇	-10.9007
出身	-10.9007
日开始	-10.9008
国家机构	-10.9009
只不过是	-10.901
树木	-10.901
会被	-10.9012
领先	-10.9014
均可	-10.9016
逃辟	-10.9023
引述	-10.9023
客家	-10.9028
要有	-10.9028
单方面行为	-10.9028
提供一个	-10.9028
旅费	-10.903
优秀	-10.9031
品种	-10.9031
农产品	-10.9032
的规模	-10.9035
循	-10.9037
第六	-10.904
最高的	-10.9044
本届会议	-10.9051
下文	-10.9053
的巨大	-10.9058
以加强	-10.9058
推荐	-10.9065
呀	-10.9065
搜索	-10.9065
的贸易	-10.9065
会对	-10.9066
私有化	-10.9066
气候变化	-10.9067
的准则	-10.9069
冷战	-10.907
摘要	-10.9071
香港居民	-10.9073
最新的	-10.9076
今晚	-10.9079
的解决办法	-10.9081
明确地	-10.9081
结果显示	-10.9082
男女平等	-10.9082
居留	-10.9086
备受	-10.9088
真诚	-10.9088
传染	-10.9088
人人	-10.9091
行政机关	-10.9092
合适	-10.9092
首长	-10.9095
详尽	-10.9096
所涉及的	-10.9099
的观念	-10.9099
三万	-10.9101
淡水	-10.9101
了一	-10.9103
心情	-10.9105
整个国际社会	-10.9106
研究中心	-10.9106
敦	-10.9107
喷	-10.9107
虚假	-10.9109
目睹	-10.9109
即是	-10.911
很低	-10.911
第一季	-10.9111
内外	-10.9111
学生的	-10.912
这也	-10.9121
人权法	-10.9124
已经有	-10.9125
自决权	-10.9126
开展了	-10.9127
奇怪	-10.9127
研	-10.9128
尖沙嘴	-10.9128
报名	-10.9131
科学家	-10.9137
流量	-10.9139
▁在这	-10.914
提案国	-10.914
一直以来	-10.9141
高出	-10.9141
太大	-10.9143
添	-10.9146
赏	-10.9147
审查了	-10.9148
展望	-10.915
亲人	-10.915
迁移	-10.9151
地中海	-10.9152
创立	-10.9153
250	-10.9153
住院	-10.9156
在全世界	-10.9157
万个	-10.9157
▁委员会建议	-10.9161
跨国	-10.9163
大自然	-10.9167
安全的	-10.9167
▁在过去	-10.9168
北美	-10.9172
为我们	-10.9174
领导的	-10.9174
事主	-10.918
于今日	-10.9181
我们不能	-10.9185
万人次	-10.9185
后才	-10.9186
消防处	-10.9187
新闻自由	-10.9188
混	-10.9191
奶	-10.9192
经历了	-10.9193
秒	-10.9193
的待迂	-10.9194
一九六	-10.9195
华侨	-10.9196
南韩	-10.9197
毋须	-10.9197
收购	-10.9197
基督教	-10.9199
是次	-10.92
的思想	-10.9201
约占	-10.9205
财政资源	-10.9208
渡	-10.9215
环境和	-10.9221
报告员	-10.9223
国际原子能机构	-10.9228
听取了	-10.9229
锁	-10.9232
中国人民	-10.9234
美国人	-10.9235
手机	-10.9238
家禽	-10.9239
引导	-10.9239
中止	-10.925
受过	-10.9251
中期计划	-10.9252
78	-10.9255
说出	-10.9255
的时刻	-10.9257
▁今日	-10.9259
专门机构	-10.9261
亦应	-10.9261
轻松	-10.9262
人们对	-10.9263
主体	-10.9263
充足	-10.9266
和平与发展	-10.9268
和协调	-10.9269
延期	-10.9271
......,	-10.9271
地方当局	-10.9273
向他	-10.9275
霸	-10.9275
受损	-10.9275
贺	-10.9278
飘	-10.928
凉	-10.928
茨	-10.928
多些	-10.9284
一九九四年	-10.9284
报复	-10.9285
公告	-10.9285
▁应当	-10.9286
百分之四	-10.9288
的必要性	-10.9291
半年	-10.9294
全体会议	-10.9294
千万	-10.9294
府	-10.9295
适当地	-10.9295
另一项	-10.9296
摄	-10.9301
的质量	-10.9301
乐意	-10.9304
加紧	-10.9305
取得成功	-10.9307
该国的	-10.9308
好好	-10.9312
空气污染	-10.9313
余额	-10.9313
点九	-10.9316
归还	-10.9317
也都	-10.9321
漫画	-10.9322
则由	-10.9323
邱	-10.9324
沿岸	-10.9324
桥梁	-10.9325
声援	-10.9326
科学和技术	-10.9326
创伤	-10.9326
已经开始	-10.9328
小巴	-10.9328
深受	-10.9329
二十六	-10.9333
亚太地区	-10.9334
"21	-10.9336
以协助	-10.9336
队员	-10.9338
又或	-10.9338
已经在	-10.9339
提高妇女地位	-10.934
出去	-10.9342
有两个	-10.935
明智	-10.935
的分析	-10.9352
和平进程的	-10.9352
合作伙伴	-10.9353
过了	-10.9353
老年	-10.9357
习俗	-10.9361
进而	-10.9363
坚信	-10.9364
结果是	-10.9366
▁张	-10.9366
缓	-10.9366
更具	-10.9367
奔	-10.9367
芬	-10.9367
猛	-10.9367
鸦片	-10.9368
合併	-10.9368
不变	-10.9368
毫米	-10.9368
兼顾	-10.9368
一代	-10.937
提请注意	-10.9371
当我们	-10.9371
感兴趣	-10.9375
是什么	-10.9377
人员和	-10.9378
第五委员会	-10.9379
对环境	-10.9383
有关决议	-10.9384
我说	-10.9385
信息系统	-10.9386
大学的	-10.9387
一百二十	-10.9389
化验	-10.939
前所未有的	-10.9391
不像	-10.9391
三人	-10.9392
分别是	-10.9393
大为	-10.9395
工业化	-10.9396
的岐视	-10.9398
很明显	-10.9399
提到了	-10.9404
▁(3)	-10.9407
像是	-10.9408
从而使	-10.9409
到处	-10.941
豆	-10.9412
倡导	-10.9412
公帑	-10.9412
估计为	-10.9412
扣押	-10.9412
▁同	-10.9413
向联合国	-10.9413
预备	-10.9413
▁如今	-10.9413
暴力和	-10.9414
了不少	-10.9414
罪行的	-10.9415
合格	-10.9416
研究员	-10.9419
67	-10.9421
发言时	-10.9428
从中	-10.9428
期内	-10.9428
主持人	-10.9428
使人们	-10.943
繁忙	-10.9431
房间	-10.9431
刊登	-10.9435
小姐	-10.9437
斯特	-10.9439
的两个	-10.9439
路上	-10.944
收到的	-10.9443
计划在	-10.9448
高速	-10.9449
国内法	-10.945
同时亦	-10.9451
如果要	-10.9452
丧生	-10.9453
葬	-10.9456
构思	-10.9456
访港	-10.9458
感受	-10.9458
艘	-10.9459
夺	-10.9459
题目	-10.946
动乱	-10.9461
数年	-10.9465
扣除	-10.9465
的培训	-10.9466
咨询服务	-10.9467
收获	-10.9468
应急	-10.9471
的成本	-10.9471
鹿	-10.9475
副总统	-10.9476
毁坏	-10.9478
提供的资料	-10.9478
渐	-10.9479
长大	-10.9484
一周	-10.9485
物流	-10.9488
将与	-10.9491
图片	-10.9492
演习	-10.9492
该条约	-10.9494
所有权	-10.9495
祸	-10.9496
后续行动	-10.9497
性质的	-10.9497
命运	-10.95
作出努力	-10.95
侵害	-10.9501
已经成为	-10.9501
污	-10.9503
学家	-10.9504
一九九一年	-10.9505
少女	-10.9508
的严重	-10.9509
往往是	-10.951
但仍	-10.9511
可谓	-10.9517
三点	-10.9517
经济转型	-10.9519
第三方	-10.9519
上任	-10.9522
第一阶段	-10.9527
旅行社	-10.9529
则有	-10.9531
解释说	-10.9532
在阿富汗	-10.9536
不属于	-10.9536
发挥作用	-10.9536
在全国	-10.954
根本没有	-10.9542
回皈	-10.9542
向前	-10.9543
戒	-10.9543
如有	-10.9544
的意思	-10.9544
另一些	-10.9544
总裁	-10.9544
一如	-10.9545
蛇	-10.9545
翠	-10.9545
杰出	-10.9545
观塘	-10.9546
被判	-10.9546
也必须	-10.9548
中部	-10.9548
▁他认为	-10.9548
正在进行	-10.9549
明日	-10.9551
整个社会	-10.9553
一所	-10.9557
算是	-10.9557
流行病	-10.9563
财团	-10.9563
课题	-10.9563
完善的	-10.9565
多样性	-10.9566
的比率	-10.9566
的对象	-10.9567
中午	-10.9567
捕	-10.9568
不扩散核武器条约	-10.9569
所面临的	-10.9569
罚	-10.957
区域组织	-10.957
一连串	-10.9572
得很	-10.9573
的有效	-10.9575
振兴	-10.9579
军事人员	-10.958
方案和	-10.958
更高	-10.9582
截止	-10.959
甜	-10.959
休闲	-10.959
你的	-10.959
爵士	-10.959
的地点	-10.9592
艰苦	-10.9592
投票权	-10.9593
加沙地带	-10.9594
所作	-10.9599
的印象	-10.9599
公平的	-10.96
岛上	-10.9601
忘记	-10.9602
有没有	-10.9602
邻近	-10.9602
的优势	-10.9602
三十分	-10.9603
研发	-10.9607
可能导致	-10.9608
迈向	-10.9609
去世	-10.962
播出	-10.9623
起了	-10.9623
出色	-10.9624
离职	-10.9627
和经济	-10.9627
教室	-10.9629
所有这些	-10.9634
▁1	-10.9634
会期	-10.9635
娜	-10.9635
独联体	-10.9635
成立以来	-10.9636
本地生产总值	-10.9636
旅馆	-10.9636
年为	-10.9637
普通话	-10.9638
无奈	-10.9638
大规模的	-10.964
政府认为	-10.9642
排队	-10.9642
水浸	-10.9642
与会	-10.9644
暴行	-10.9645
已向	-10.9649
出席了	-10.965
递	-10.9654
证明书	-10.9654
千年	-10.9654
急剧	-10.9657
图像	-10.9657
不平衡	-10.9659
外籍	-10.9662
都应	-10.9663
拿出	-10.9663
▁众所周知	-10.9664
盆	-10.9666
国中	-10.9667
独特	-10.9669
建议的	-10.9669
联合国大会	-10.9674
液	-10.9679
结算	-10.968
高昂	-10.9681
厘定	-10.9682
至少有	-10.9683
特性	-10.9683
分工	-10.9686
地产	-10.9692
前者	-10.9692
坦	-10.9694
善用	-10.9694
获得通过	-10.9695
的范围内	-10.9695
恰当	-10.9696
有一种	-10.9697
木材	-10.9697
鼓舞	-10.9698
人身	-10.97
受影响的	-10.9701
69	-10.9703
提供更多	-10.9703
呼吁市民	-10.9704
所指的	-10.9704
安全理事会成员	-10.9704
古老	-10.9705
的言论	-10.9708
的一般	-10.9708
缴款	-10.9713
盈利	-10.9716
目的地	-10.9719
美元的	-10.9719
妻	-10.9721
都已	-10.9722
▁此	-10.9722
粮	-10.9723
不予	-10.9723
某些国家	-10.9724
翁	-10.9724
冯	-10.9726
非殖民化	-10.9726
拥挤	-10.9726
伪造	-10.9726
火箭	-10.9726
普通法	-10.9727
思维	-10.9729
也门	-10.973
又说	-10.9733
一律	-10.9734
批准了	-10.9736
会费	-10.9736
途	-10.9736
行业的	-10.9738
的答复	-10.9739
现在是	-10.9742
更能	-10.9743
专用	-10.9747
专家会议	-10.9748
表示赞赏	-10.9749
西亚	-10.975
民族和解	-10.9754
捐	-10.9755
国际人道主义法	-10.9765
全力支持	-10.9766
的若干	-10.977
近东救济工程处	-10.9771
营养不良	-10.9772
欠缺	-10.9772
古迹	-10.9773
下面	-10.9773
▁基于	-10.9775
解除武装	-10.9777
向大会	-10.9778
捕鱼	-10.9783
代表性	-10.9784
缺点	-10.9784
犯罪活动	-10.9787
组别	-10.9789
的人道主义	-10.9792
它对	-10.9796
▁本报告	-10.9798
敢	-10.98
完全是	-10.9801
撞	-10.9802
低收入	-10.9802
数千	-10.9802
▁安理会成员	-10.9804
仓	-10.9805
都很	-10.9808
可于	-10.981
趣	-10.981
▁到	-10.9811
的裁决	-10.9811
不只是	-10.9813
无需	-10.9814
地方政府	-10.9816
体现了	-10.9817
玲	-10.9817
汗	-10.9817
外层空间	-10.9817
塞内加尔	-10.9818
61	-10.9818
资本主义	-10.982
功夫	-10.982
是基于	-10.982
双重	-10.9824
肠	-10.9825
带有	-10.9827
亿港元	-10.9828
解决争端	-10.9829
展现	-10.9829
调节	-10.9832
一百一十	-10.9832
售价	-10.9833
有理由	-10.9834
共计	-10.9835
多半	-10.9836
十个	-10.9838
大会堂	-10.9838
学年	-10.9839
资料显示	-10.984
后代	-10.9842
点三	-10.9843
的提议	-10.9843
特别重视	-10.9844
所载的	-10.9848
证明了	-10.9849
屏	-10.9851
香港在	-10.9855
今天上午	-10.9855
处处	-10.9856
促请政府	-10.9858
惨	-10.9859
市政局	-10.9859
八十年代	-10.9861
淑	-10.9863
贝尔格莱德	-10.9863
掩盖	-10.9864
卡塔尔	-10.9866
达成共识	-10.9866
国际文书	-10.9866
交换意见	-10.9869
案中	-10.9871
菌	-10.9871
越来越大	-10.9873
胜利	-10.9873
原则和	-10.9874
学校的	-10.9876
极度	-10.9878
耗	-10.9879
提供资金	-10.9881
业的	-10.9885
民协	-10.9887
制造商	-10.9887
西欧	-10.9887
国际机构	-10.9889
事务部	-10.989
置于	-10.9892
的根本	-10.9892
联同	-10.9894
焦点	-10.9896
迫害	-10.9897
退休金	-10.9897
73	-10.99
并已	-10.9903
的理解	-10.9904
人心	-10.9905
盗	-10.9906
首先是	-10.9906
岗	-10.9908
绑	-10.9909
介乎	-10.9909
阿布哈兹	-10.9909
数十	-10.9909
涂	-10.9909
坪	-10.991
坎	-10.991
乌拉圭	-10.991
国内外	-10.991
事态发展	-10.991
曼谷	-10.9911
而定	-10.9911
▁特别是	-10.9912
申明	-10.9912
94	-10.9915
的经济发展	-10.9918
见面	-10.9918
工作人员的	-10.9919
获得了	-10.992
提交报告	-10.9926
涉	-10.993
令人满意	-10.9934
求助	-10.9934
都认为	-10.9939
行车	-10.9941
又要	-10.9942
新鲜	-10.9942
舰	-10.9946
义工	-10.9948
本港经济	-10.9949
一股	-10.9949
映	-10.9953
为本	-10.9953
吸毒	-10.9953
笼	-10.9953
腰	-10.9956
仇恨	-10.9956
各省	-10.9956
玻利维亚	-10.9956
诊断	-10.9957
回报	-10.9959
地址	-10.996
核查团	-10.996
费率	-10.9964
乌兹别克斯坦	-10.9965
家庭暴力	-10.9967
今早	-10.9968
进行讨论	-10.9969
高等法院	-10.9969
检察官办公室	-10.9974
无权	-10.9976
都不能	-10.9981
之道	-10.9981
本月	-10.9983
项下	-10.9983
工作中	-10.9984
材	-10.9985
急需	-10.9992
严峻	-10.9992
积极地	-10.9993
而这些	-10.9993
得益	-10.9994
次数	-10.9997
已将	-10.9997
亿人	-10.9998
役	-10.9998
政府机构	-10.9999
商场	-10.9999
反恐怖主义	-11.0001
钻	-11.0001
向我们	-11.0002
开了	-11.0002
祭	-11.0002
研制	-11.0005
晋升	-11.0005
估计数	-11.0006
咨询意见	-11.0006
常规武器	-11.0006
大湖区	-11.0007
过渡时期	-11.0008
被占领土	-11.0008
步伐	-11.0009
伸	-11.001
世界会议	-11.001
国的	-11.0011
率先	-11.0012
赠	-11.0015
谈话	-11.0015
采矿	-11.0019
的战争	-11.0019
正确的	-11.0019
继续在	-11.002
这样说	-11.0022
实用	-11.0022
国际和平与安全	-11.0023
并通过	-11.0025
复甦	-11.0028
非政府	-11.0031
也好	-11.0035
预防冲突	-11.0035
分离	-11.0036
76	-11.0036
其中一些	-11.0036
我们相信	-11.0037
不便	-11.0039
身心	-11.0041
貌	-11.0046
怨	-11.0047
占据	-11.0048
适用的	-11.0049
这也是	-11.005
颠覆	-11.005
孤立	-11.0051
各组织	-11.0053
以防止	-11.0053
的作法	-11.0053
裁减	-11.0054
人体	-11.0057
三十五	-11.0059
最多的	-11.0062
加纳	-11.0065
应予	-11.0068
本届	-11.0069
广州	-11.0071
战后	-11.0073
聘	-11.0076
无限	-11.0078
家乡	-11.0078
炒	-11.0079
的资产	-11.0079
执业	-11.0079
书籍	-11.0081
诉	-11.0085
秘书长的报告	-11.0085
代理人	-11.0086
她们的	-11.0086
款额	-11.0091
来处理	-11.0091
萧	-11.0092
法律程序	-11.0092
可能需要	-11.0095
嫁	-11.0095
合资格	-11.0096
的形象	-11.0096
孝	-11.0097
茂	-11.0097
杀伤人员地雷	-11.0097
津巴布韦	-11.0097
珍惜	-11.0097
巡查	-11.0098
港币	-11.0098
天主教	-11.01
的职能	-11.0101
董先生	-11.0101
租户	-11.0102
作证	-11.0102
致电	-11.0103
▁法国	-11.0105
以供	-11.0108
公平竞争	-11.0108
的法例	-11.0111
人工	-11.0113
现在的	-11.0115
警务处	-11.0115
的目标是	-11.0116
台独	-11.0116
总经理	-11.0118
健康的	-11.012
万元的	-11.0121
提醒市民	-11.0123
提起	-11.0126
因为我	-11.0127
两千	-11.0129
社会各界	-11.0132
的母亲	-11.0136
▁的确	-11.0142
尝	-11.0142
灌溉	-11.0144
联刚特派团	-11.0144
征询	-11.0145
得悉	-11.0146
1982	-11.0147
2000-2001	-11.0147
西贡	-11.0149
多谢	-11.0154
有关资料	-11.0156
剧院	-11.0157
这批	-11.0157
可疑	-11.0162
向市民	-11.0162
生活水平	-11.0164
所有其他	-11.0165
今年的	-11.0166
立法院	-11.0174
信中	-11.0176
选举中	-11.0176
常会	-11.0179
还指出	-11.0182
主持下	-11.0182
那就是	-11.0184
协商一致	-11.0185
的生产	-11.0185
▁俄罗斯	-11.0186
的综合	-11.0186
限额	-11.0189
防卫	-11.019
艇	-11.019
▁一位	-11.0191
啦	-11.0192
阻挠	-11.0192
遥感	-11.0193
秘书长报告	-11.0195
六四	-11.0195
香港社会	-11.0195
有用	-11.0196
净额	-11.0197
识	-11.0202
铭记	-11.0202
皇家	-11.0203
采取的措施	-11.0203
的保障	-11.0203
战胜	-11.0204
定位	-11.0205
夏季	-11.0205
所有的	-11.0206
转口	-11.0206
严肃	-11.0208
将可	-11.0209
的竞争	-11.0209
趋	-11.0211
善意	-11.0214
实施的	-11.0215
可能性	-11.0216
激	-11.0217
以辟免	-11.0219
莲	-11.0219
发明	-11.0222
培训和	-11.0223
充分的	-11.0223
把他们	-11.0225
致命	-11.0226
警察和	-11.0226
在大陆	-11.0231
国民议会	-11.0231
假日	-11.0232
因为这些	-11.0233
鸣	-11.0238
稳健	-11.0241
甚至在	-11.0241
红色	-11.0246
享	-11.025
基本的	-11.0252
93	-11.0253
历史的	-11.0254
区域内	-11.0255
秘书长的	-11.0259
派别	-11.0262
一九八	-11.0263
首脑	-11.0263
工业化国家	-11.0263
一百多	-11.0268
月以来	-11.0272
叛乱	-11.0273
照料	-11.0276
我们还	-11.0279
诞生	-11.0281
跌幅	-11.0281
▁运输署	-11.0283
140	-11.0283
喉	-11.0287
从前	-11.0287
政务司司长	-11.0288
拉脱维亚	-11.0288
遏制	-11.0288
阴谋	-11.0288
模型	-11.0289
捷	-11.0289
热闹	-11.0289
执政党	-11.0291
先例	-11.0292
担当	-11.0293
放松	-11.0293
请允许我	-11.0294
验	-11.0299
解决方案	-11.0301
转达	-11.0302
为自己	-11.0305
▁在这个	-11.0306
▁教毓署	-11.0308
民主和	-11.031
显然是	-11.0311
军事观察员	-11.0313
军官	-11.0313
我不	-11.0317
政府应该	-11.032
政府必须	-11.0323
秘书长关于	-11.0325
一组	-11.0325
顾问公司	-11.0328
裔	-11.033
在目前	-11.033
法律制度	-11.0333
▁谨	-11.0334
他也	-11.0336
有什么	-11.0336
实现和平	-11.0336
熊	-11.0336
阿拉伯利比亚民众国	-11.0337
外商	-11.0338
狱	-11.0338
章程	-11.0338
唱片	-11.0339
财经	-11.0341
合乎	-11.0344
压制	-11.0346
惊人	-11.0346
充	-11.0347
的领导	-11.0352
有利的	-11.0357
独立专家	-11.0359
三大	-11.036
详	-11.036
执行任务	-11.0361
三十年	-11.0362
裁	-11.0362
听说	-11.0364
的薪酬	-11.0367
平台	-11.0368
获释	-11.0368
缓和	-11.0371
看过	-11.0371
采取的行动	-11.0372
为主的	-11.0373
敌人	-11.0374
的位置	-11.0375
共同体	-11.0377
信念	-11.038
不管是	-11.0383
的材料	-11.0383
房地	-11.0384
漠视	-11.0385
暗示	-11.0385
诉诸	-11.0385
救灾	-11.0386
军备	-11.0386
西北	-11.0388
吃饭	-11.0389
的那	-11.039
提供资料	-11.039
和平与稳定	-11.0392
收藏	-11.0392
的种种	-11.0394
该中心	-11.0397
个人的	-11.04
遗憾	-11.0401
预防性	-11.0402
的款项	-11.0404
岁以下	-11.0405
车主	-11.0408
同联合国	-11.0409
不安全	-11.0411
等国	-11.0412
令我们	-11.0413
的财产	-11.0416
法律援助	-11.0417
植	-11.0419
的质素	-11.042
乃至	-11.0421
▁既然	-11.0422
每天都	-11.0426
记者会	-11.0427
挥	-11.0428
令他们	-11.043
负面	-11.0433
嘛	-11.0434
磁	-11.0434
僵局	-11.0434
积累	-11.0434
光碟	-11.0434
游泳	-11.0434
僱用	-11.0434
▁希望	-11.0437
民主国家	-11.0439
汽油	-11.0441
兴奋	-11.0442
新增	-11.0443
大臣	-11.0446
五名	-11.0447
之用	-11.0448
所作的努力	-11.0449
入住	-11.0449
一个新的	-11.045
等到	-11.0453
下一个	-11.0454
上升至	-11.0455
很高兴	-11.0456
阿拉伯国家	-11.0456
学科	-11.0458
即便	-11.0462
政府统计处	-11.0466
我们就	-11.0466
白色	-11.0467
不出	-11.047
持久和平	-11.0472
气体	-11.0476
肥	-11.0478
棋	-11.0479
根本不	-11.0481
悬	-11.0482
逊	-11.0482
紫	-11.0482
皮肤	-11.0483
阿拉伯国家联盟	-11.0484
坦克	-11.0484
有足够	-11.0485
▁再者	-11.0486
的租金	-11.0488
辩论中	-11.0488
时常	-11.0488
于今年	-11.0489
专门知识	-11.0489
有其	-11.049
与和平	-11.049
大事	-11.049
是通过	-11.049
我们需要	-11.0491
将要	-11.0491
塞族人	-11.0491
与他	-11.0491
国家和	-11.0491
预防和	-11.0493
热带	-11.0497
对政府	-11.0498
客运	-11.0499
他自己	-11.0501
行动者	-11.0502
就其	-11.0503
二万	-11.0505
拟议的	-11.0508
某人	-11.0512
在不同	-11.0512
8000	-11.0514
▁妇女	-11.0514
▁王	-11.0515
86	-11.0517
目的在于	-11.0517
岐视性	-11.0518
商户	-11.0519
这将	-11.0519
以提高	-11.052
就职	-11.0521
不利于	-11.0522
介	-11.0526
优质	-11.0527
忧	-11.0529
盗版	-11.0529
居住的	-11.053
猫	-11.0532
昭	-11.0532
举例来说	-11.0533
过后	-11.0537
的知识	-11.0537
革新	-11.0541
明星	-11.0541
既不	-11.0542
令我	-11.0545
向你	-11.0547
缩减	-11.0549
朝着	-11.0553
比起	-11.0555
填海	-11.0555
零售业	-11.0555
提早	-11.0555
的协议	-11.0556
不仅仅是	-11.0556
团长	-11.056
昂	-11.0563
回复	-11.0564
上诉法院	-11.0569
一路	-11.0578
狮	-11.0578
符	-11.0579
可向	-11.0581
联塞特派团	-11.0581
伊斯兰会议组织	-11.0581
俱乐部	-11.0581
侦查	-11.0582
国家和国际	-11.0583
防御	-11.0584
约翰	-11.0584
的新闻	-11.0585
民国七十	-11.0587
殖民主义	-11.0588
七成	-11.0589
号法令	-11.0589
配备	-11.059
常驻代表	-11.059
......"	-11.0594
制订了	-11.0595
这一事实	-11.0595
保护环境	-11.0596
示威者	-11.0597
其目的是	-11.0597
纲领	-11.0597
亦须	-11.0598
行使其	-11.0602
伤者	-11.0602
先进的	-11.0603
不容	-11.0603
看着	-11.0603
患有	-11.0607
南极	-11.0608
1500	-11.0612
吉尔吉斯斯坦	-11.0613
的协定	-11.0613
为他们	-11.0613
工商业	-11.0618
行政和	-11.0618
确信	-11.0621
第二天	-11.0622
采取步骤	-11.0623
粮食计划署	-11.0624
新政府	-11.0624
丧	-11.0626
居民的	-11.063
摸	-11.063
事件的	-11.0631
鹰	-11.0631
联保部队	-11.0631
抱怨	-11.0631
罢工	-11.0632
祝愿	-11.0632
扫雷	-11.0632
邮政局	-11.0633
进一步发展	-11.0633
促进发展	-11.0633
00	-11.0636
有人认为	-11.0636
海域	-11.0636
姓名	-11.0638
在国家	-11.064
医院管理局	-11.0641
制衡	-11.0643
阳光	-11.0644
但如果	-11.0645
室内	-11.0646
只占	-11.0646
生产和	-11.065
89	-11.0652
杀死	-11.0655
译	-11.0655
来了	-11.066
农业和	-11.0661
化的	-11.0661
可靠的	-11.0661
预见	-11.0662
新移民	-11.0662
上星期	-11.0664
国小	-11.0666
三天	-11.0667
远离	-11.0668
年起	-11.0669
财政年度	-11.0674
位议员	-11.0675
72	-11.0676
此举	-11.0677
荷	-11.0678
猎	-11.0681
生涯	-11.0681
白皮书	-11.0681
观测	-11.0682
邻居	-11.0683
各方面的	-11.0683
国际刑事法院	-11.0683
应考虑	-11.0685
单身	-11.0685
不断地	-11.0685
容量	-11.0685
经济和社会发展	-11.0688
款规定	-11.0689
湿	-11.0689
监测和	-11.069
冬季	-11.0691
车站	-11.0691
180	-11.0692
所得的	-11.0694
对那些	-11.0695
文职人员	-11.0696
的另一	-11.0699
不见	-11.0707
令香港	-11.0709
中港	-11.0709
和设备	-11.0709
穿着	-11.0711
梯	-11.0712
▁1990	-11.0716
说是	-11.0717
咸	-11.0717
▁相信	-11.0717
频	-11.0719
国王	-11.0719
滥	-11.0723
"──	-11.0724
诊	-11.0725
出境	-11.0726
桃	-11.0728
来解决	-11.073
恒	-11.073
秦	-11.073
尘	-11.0731
夹	-11.0731
四分之一	-11.0731
的决策	-11.0731
坦桑尼亚联合共和国	-11.0731
钢铁	-11.0732
▁7	-11.0736
130	-11.0736
分庭	-11.0738
试验计划	-11.0738
各成员国	-11.0738
该机构	-11.0739
异常	-11.074
区域的	-11.0742
好转	-11.0745
确定了	-11.0749
王国	-11.0751
▁呃	-11.0751
信号	-11.0752
公务	-11.0752
见证	-11.0752
执法人员	-11.0753
运动会	-11.0753
午	-11.0753
单元	-11.0754
相对于	-11.0754
是不是	-11.0756
已达	-11.0757
的捐款	-11.076
可能有	-11.0762
大约有	-11.0768
的福利	-11.0769
字眼	-11.077
月期间	-11.0772
令人鼓舞	-11.0772
给人	-11.0772
短暂	-11.0774
国际金融	-11.0775
的第一个	-11.0775
▁一名	-11.0776
鼻	-11.0778
做的	-11.0778
民主制度	-11.0779
不宜	-11.078
释	-11.0782
同性恋	-11.0782
发病率	-11.0783
清拆	-11.0784
难题	-11.0784
解放军	-11.0784
商店	-11.0784
一九九三年	-11.0784
运载	-11.0785
罗湖	-11.0785
没有理由	-11.0786
两百	-11.0786
开启	-11.0786
黑色	-11.0787
美丽	-11.0788
七个	-11.0788
活动中	-11.0789
输往	-11.0789
靠近	-11.0791
审计委员会	-11.0792
经济和	-11.0792
价值观念	-11.0796
置业	-11.0807
域	-11.0808
天内	-11.0811
节约	-11.0812
出入境	-11.0815
九五年	-11.0815
是这样	-11.0821
观看	-11.0823
权利和	-11.0823
发展商	-11.0826
列车	-11.0826
序	-11.0829
▁世界	-11.083
▁可惜	-11.0831
非典型肺炎	-11.0833
遵照	-11.0833
相互依存	-11.0833
职业培训	-11.0833
港同盟	-11.0834
简短	-11.0834
贬值	-11.0836
业内人士	-11.0836
不合理	-11.0837
百分之六十	-11.0837
大屿山	-11.084
董事长	-11.0841
政变	-11.0843
建立的	-11.0844
门诊	-11.0845
技术转让	-11.0852
景观	-11.0855
无疑是	-11.0856
在很大程度上	-11.0856
被称为	-11.0857
只需	-11.0866
的心理	-11.0869
等领域	-11.0869
从小	-11.0871
讯息	-11.0871
过高	-11.0871
省份	-11.0872
宣	-11.0873
刑罚	-11.0874
镜	-11.0875
第十	-11.0877
三方	-11.0879
类型的	-11.088
拳	-11.088
开枪	-11.0881
岭	-11.0882
畅	-11.0882
恋	-11.0882
锅	-11.0882
维持和平行动部	-11.0883
·	-11.0883
怒	-11.0883
几十年	-11.0884
卜	-11.0884
杀伤地雷	-11.0884
传递	-11.0884
世界各地的	-11.0885
上周	-11.0886
的转变	-11.0887
没想到	-11.0891
最近在	-11.0892
所知	-11.0893
百分之七十	-11.0894
扩大到	-11.0895
非政府组织和	-11.0897
于本年	-11.0899
就是说	-11.09
舒	-11.0902
召集	-11.0912
积极参加	-11.0919
半岛	-11.0919
所以我们	-11.092
总统府	-11.0921
一八	-11.0922
绝大部分	-11.0923
占了	-11.0923
提出申请	-11.0924
绕	-11.0929
超级	-11.0932
落马洲	-11.0935
蔬菜	-11.0935
亭	-11.0935
民政事务总署	-11.0935
扩充	-11.0935
这项建议	-11.0935
追究	-11.0935
水务署	-11.0935
支配	-11.0935
感激	-11.0936
充份	-11.0936
四处	-11.0938
公众人士	-11.0938
区议员	-11.0939
政治和经济	-11.094
周边	-11.0941
的训练	-11.0942
二十三	-11.0943
二十年	-11.0945
的功能	-11.0947
该区域的	-11.0951
内地的	-11.0951
平常	-11.0953
处以	-11.0954
没有必要	-11.0955
副本	-11.0957
▁随后	-11.0957
是联合国	-11.0958
要把	-11.0959
三角	-11.0959
金融危机	-11.0959
饮水	-11.096
84	-11.0962
强大的	-11.0963
▁我还要	-11.0963
仍会	-11.0963
环境规划署	-11.0963
日报	-11.0966
死因	-11.0968
孤	-11.0968
肩	-11.097
排雷行动	-11.0971
合作关系	-11.0971
的数额	-11.0972
的信	-11.0974
希望政府	-11.0976
潜在	-11.0977
饮用水	-11.0983
与否	-11.0985
创造了	-11.0986
书记官长	-11.0986
谭	-11.0986
食环署	-11.0987
精确	-11.0987
食用	-11.0987
颜色	-11.0988
汇编	-11.0988
亲友	-11.0989
之间的合作	-11.0989
87	-11.0992
是不会	-11.0993
本条	-11.0994
门口	-11.0995
良心	-11.0997
市民大众	-11.0999
▁他强调	-11.1
两大	-11.1002
地铁公司	-11.1002
打电话	-11.1003
停车	-11.1003
季节	-11.1004
练习	-11.1005
教堂	-11.1007
输出	-11.1009
纳税人	-11.1011
市中心	-11.1012
碰到	-11.1016
这些努力	-11.1018
已从	-11.1019
▁他在	-11.1019
就不会	-11.102
▁按	-11.102
和有关	-11.1022
衷心	-11.1023
可能出现	-11.1024
互助	-11.1026
有多少	-11.1028
风气	-11.103
暴力事件	-11.1034
棉	-11.1035
胡锦涛	-11.1036
对策	-11.1036
卓	-11.1037
提供协助	-11.1037
香港大学	-11.1038
浩	-11.1038
不满意	-11.1038
互补	-11.1039
暗杀	-11.1039
的老人	-11.1039
红十字会	-11.1042
此案	-11.1043
极为重要	-11.1044
圣诞	-11.1045
刻意	-11.1046
会产生	-11.1047
香港特区政府	-11.1048
三次	-11.1048
是政府	-11.105
计划生毓	-11.1051
协同	-11.1052
上月	-11.1057
整合	-11.1059
倾	-11.106
访问团	-11.1061
下滑	-11.1063
国际人权	-11.1063
送达	-11.1068
加强联合国	-11.1072
的统计	-11.1074
牵涉	-11.1077
做事	-11.1077
无辜平民	-11.1078
论点	-11.1078
不承认	-11.1079
会议期间	-11.1079
回去	-11.1086
譬如	-11.1088
到来	-11.1088
有个	-11.1089
的制裁	-11.1089
日下午	-11.1089
溢	-11.109
艰巨	-11.109
残酷	-11.109
愉快	-11.109
两份	-11.1091
的共识	-11.1091
改良	-11.1093
财物	-11.1093
抵制	-11.1094
妇女参与	-11.1095
触犯	-11.1096
可获	-11.1096
视野	-11.1097
意志	-11.1098
可以通过	-11.1098
发言中	-11.1099
每年都	-11.1106
上文第	-11.1106
为促进	-11.1106
告诉我	-11.1108
港澳	-11.1111
更多地	-11.1113
日本人	-11.1113
发展援助	-11.1114
向政府	-11.1116
政府将	-11.1118
使他	-11.1119
疫情	-11.1119
开展工作	-11.1122
生活质素	-11.1125
制约	-11.1126
不喜欢	-11.1126
非正式协商	-11.1129
不必要的	-11.113
▁一旦	-11.1131
日常生活	-11.1133
温和	-11.1135
的重视	-11.1136
巴尔干	-11.1138
必然会	-11.1138
在各	-11.1139
缴交	-11.114
但不	-11.1141
药物管制署	-11.1143
穆罕默德	-11.1143
缝	-11.1143
野蛮	-11.1143
以便使	-11.1144
台湾人	-11.1144
闭幕	-11.1145
性别问题	-11.1147
外汇基金	-11.1147
二十世纪	-11.1147
巴勒斯坦问题	-11.1148
最低工资	-11.1148
精力	-11.115
头部	-11.115
有机	-11.1153
划定	-11.1154
学术界	-11.1156
无形	-11.1158
优良	-11.116
▁财政司司长	-11.1161
爬	-11.1165
客人	-11.1167
大会主席	-11.1169
事务处	-11.117
务实	-11.1172
採取行动	-11.1179
的攻击	-11.118
;(	-11.1181
传送	-11.1183
少数人	-11.1185
扇	-11.119
旺	-11.1193
生物技术	-11.1193
拼	-11.1195
钦	-11.1195
爱滋病	-11.1195
使它	-11.1196
逝世	-11.1196
大幅增加	-11.1197
观赏	-11.1197
可达	-11.1198
临床	-11.1198
信徒	-11.12
变成了	-11.1203
气温	-11.1203
此后	-11.1204
将根据	-11.1205
74	-11.1207
本公约	-11.1208
程度的	-11.1211
两方面	-11.1211
问卷	-11.1211
界人士	-11.1213
▁加拿大	-11.1213
商定的	-11.1216
十万	-11.1218
百分之二	-11.1222
的焦点	-11.1222
那么多	-11.1226
的竞争力	-11.1229
的详细	-11.1229
业务活动	-11.123
往返	-11.123
的台湾	-11.1235
的框架内	-11.1244
培	-11.1246
即使在	-11.1247
温度	-11.1248
奖励	-11.1248
误导	-11.1249
个单位	-11.1249
监视	-11.125
化学品	-11.1251
法语发言	-11.1251
以前的	-11.1252
届满	-11.1253
妇女和	-11.1255
热爱	-11.1256
辟难	-11.1258
补助金	-11.1259
关岛	-11.1259
根除	-11.1259
挫折	-11.1259
7000	-11.126
震惊	-11.126
爱国	-11.1261
把这些	-11.1265
以应付	-11.1266
▁其后	-11.1266
提供支助	-11.1268
说要	-11.1269
明显地	-11.127
的特点	-11.1272
传说	-11.1274
继续下去	-11.1275
市政府	-11.1275
锋	-11.1275
在某些	-11.1276
早年	-11.1276
本条例草案	-11.1277
的初步	-11.1279
成年人	-11.1281
士气	-11.1287
总局	-11.129
79	-11.129
指定的	-11.1291
工艺	-11.1292
不只	-11.1292
62	-11.1295
财政部	-11.1295
的家属	-11.1296
我个人	-11.1296
污染物	-11.1296
发展问题	-11.1296
携手	-11.1299
叹	-11.13
上网	-11.1301
土族塞人	-11.1301
马英九	-11.1301
愤怒	-11.1301
扩阔	-11.1302
绳之以法	-11.1302
带给	-11.1302
该地区的	-11.1303
和资源	-11.1304
的行业	-11.1308
倒退	-11.1312
若要	-11.1314
的透明度	-11.1317
这样一种	-11.1318
这些行动	-11.132
案件的	-11.132
同步	-11.132
在政治	-11.1322
的节目	-11.1324
克斯	-11.1326
报案	-11.1326
贩	-11.1326
提出的问题	-11.1329
这份报告	-11.133
由联合国	-11.133
带头	-11.1331
应为	-11.1334
事物	-11.1335
国家主权	-11.1337
喀布尔	-11.1339
的审议	-11.1341
加幅	-11.1341
缔约国会议	-11.1344
的了解	-11.1344
公积金	-11.1346
一号	-11.1347
参与了	-11.1347
行政会议	-11.1351
幻	-11.1352
欧元	-11.1352
口岸	-11.1352
文职	-11.1352
在国家一级	-11.1353
泪	-11.1354
的关切	-11.1354
刘慧卿议员	-11.1355
扭曲	-11.1355
失误	-11.1356
巴勒斯坦权力机构	-11.1357
栋	-11.1359
签名	-11.136
财力	-11.136
可持续的	-11.136
实际上是	-11.136
廉	-11.136
保管	-11.1362
修建	-11.1362
大师	-11.1363
来得	-11.1363
希望在	-11.1363
地质	-11.1365
欧洲国家	-11.1365
台南	-11.1367
的支出	-11.1368
保护区	-11.1369
一艘	-11.1371
届会议上	-11.1372
旺角	-11.1373
一百三十	-11.1378
台湾地区	-11.1379
的现实	-11.1379
改变了	-11.1381
应根据	-11.1382
教导	-11.1383
校舍	-11.1385
▁俄罗斯联邦	-11.1387
伙	-11.1388
免除	-11.1389
▁卫生署	-11.1392
▁第四	-11.1392
和程序	-11.1395
充分利用	-11.1395
百分比	-11.1396
省长	-11.1397
的所谓	-11.14
也无法	-11.14
百分之六	-11.1401
而且是	-11.1401
设于	-11.1405
服务质素	-11.1407
在欧洲	-11.1408
胶	-11.1408
巷	-11.1409
竞赛	-11.1409
个人和	-11.1409
温暖	-11.1409
▁9	-11.141
藉着	-11.141
处处长	-11.141
推销	-11.141
人文	-11.1411
滥用药物	-11.1411
容纳	-11.1411
频道	-11.1412
单纯	-11.1413
充当	-11.1413
卷入	-11.1413
严格遵守	-11.1414
新台币	-11.1415
很简单	-11.1416
有人说	-11.1416
物价	-11.1418
墓	-11.1421
传真	-11.1422
日上午	-11.1422
▁6	-11.1423
须在	-11.1426
空前	-11.1427
看起来	-11.1428
细则	-11.1429
国际恐怖主义	-11.1432
的指示	-11.1433
国防部长	-11.1436
公众利益	-11.1437
食水	-11.1438
可由	-11.1439
全国性	-11.144
强积金	-11.144
长久	-11.144
非常重视	-11.1441
等因素	-11.1441
本会议	-11.1443
前夕	-11.1444
这些武器	-11.1444
的非政府组织	-11.1445
海事处	-11.1445
专责小组	-11.1447
东帝汶人民	-11.1449
的主要原因	-11.1449
名字	-11.1451
新世纪	-11.1451
水果	-11.1455
应将	-11.1456
这项计划	-11.1457
▁但在	-11.1458
的职位	-11.1458
制服	-11.1458
和实施	-11.1459
安全部队	-11.1459
碗	-11.1462
滚	-11.1462
寸	-11.1463
致函	-11.1463
承包商	-11.1464
就是要	-11.1465
走廊	-11.1466
1983	-11.1468
美国和	-11.1468
文献	-11.1469
经济政策	-11.1469
陪同	-11.1469
就不可能	-11.1472
挑	-11.1472
▁2.	-11.1474
百分之一	-11.1475
把他	-11.1481
系教授	-11.1481
▁没有	-11.1482
车队	-11.1483
送到	-11.1483
过渡期	-11.1485
第一期	-11.1485
公正和	-11.1486
心灵	-11.1486
出席会议	-11.1494
高官	-11.1495
调查委员会	-11.1496
懂	-11.1501
处决	-11.1501
的动议	-11.1503
燃	-11.1506
规划和	-11.1506
因此而	-11.1506
公会	-11.1507
步行	-11.1507
限定	-11.1508
自由的	-11.1511
执行委员会	-11.1512
有很大	-11.1513
牧	-11.1514
的特别	-11.1514
经济改革	-11.1514
坡	-11.1514
▁劳工处	-11.1514
非法贩运	-11.1517
珊	-11.1517
踊跃	-11.1517
堕胎	-11.1517
郊野公园	-11.1517
不结盟运动	-11.1517
抑制	-11.1518
临时市政局	-11.1518
附加	-11.1519
配套	-11.1519
为实现	-11.1521
契约	-11.1521
外贸	-11.1523
流血	-11.1523
工作计划	-11.1524
亦要	-11.1524
发表声明	-11.1526
年第	-11.1527
其他成员	-11.1527
在任何	-11.1529
增加至	-11.153
格局	-11.1534
他将	-11.1535
提高了	-11.1536
太空	-11.1536
例如在	-11.1538
将他	-11.1539
心态	-11.1541
的公民	-11.1542
通过其	-11.1547
因为它们	-11.1549
生产者	-11.1552
各区	-11.1552
来临	-11.1553
联网	-11.1554
直接影响	-11.1555
垂	-11.1558
二十八	-11.1558
前苏联	-11.1561
九千	-11.1564
的处境	-11.1564
浓	-11.1566
访客	-11.1568
佐	-11.1571
昆	-11.1571
撒	-11.1572
贫富悬殊	-11.1572
阿鲁沙	-11.1572
搁置	-11.1572
分娩	-11.1572
跨境	-11.1573
老百姓	-11.1573
华裔	-11.1574
自信	-11.1577
喜爱	-11.1577
的事态发展	-11.1578
回升	-11.1578
的中心	-11.1579
自由贸易	-11.1583
黑社会	-11.1583
▁各	-11.1584
不扩散	-11.1584
沦为	-11.1584
▁任何	-11.1586
的模式	-11.1586
促	-11.1586
当前的	-11.1587
我愿	-11.1591
强调指出	-11.1594
我们已经	-11.1594
基本原则	-11.1597
设备和	-11.1597
印制	-11.1598
眼中	-11.16
领土内	-11.1601
本法院	-11.1603
所有成员	-11.1604
民意调查	-11.1604
半小时	-11.1604
的一次	-11.1606
两条	-11.1608
的袭击	-11.1608
阁	-11.1609
势头	-11.1609
在最近	-11.161
宪	-11.161
和俄罗斯联邦	-11.1611
必要时	-11.1616
前任	-11.1617
零点	-11.1617
纯粹	-11.1619
深表	-11.162
对国家	-11.1624
拆除	-11.1624
劫	-11.1624
公正的	-11.1625
标题	-11.1625
丢	-11.1626
恨	-11.1626
忙碌	-11.1627
平方公里	-11.1627
红十字国际委员会	-11.1627
渔农处	-11.1627
宪政	-11.1627
乡镇	-11.1629
删去	-11.163
宏观经济	-11.163
▁我们在	-11.163
蓝图	-11.163
公职人员	-11.1631
神圣	-11.1632
反对党	-11.1632
宴	-11.1633
被杀害	-11.1636
这套	-11.1636
比如	-11.1636
设计的	-11.1638
▁我们会	-11.1639
关键的	-11.1642
的实施	-11.1643
段所述	-11.1643
在一九九七年	-11.1644
名男子	-11.1648
伟大	-11.1648
抵港	-11.1651
的报告中	-11.1651
奖项	-11.1654
意思	-11.1654
走过	-11.1655
名册	-11.1656
衰退	-11.1656
肯定会	-11.1656
环境中	-11.1657
全文	-11.1662
和使用	-11.1664
▁像	-11.1665
列举	-11.1665
爱情	-11.1666
只得	-11.1666
二十一	-11.1667
不信任	-11.1668
还说	-11.1668
必须要	-11.1669
分别有	-11.1669
企	-11.1674
百分之九十	-11.1676
国际性	-11.1678
荡	-11.1679
小国	-11.1679
冻	-11.168
寺	-11.1681
盒	-11.1682
砖	-11.1682
压迫	-11.1683
遥远	-11.1683
种族隔离	-11.1683
扩张	-11.1684
遗传	-11.1684
柏林	-11.1686
却不	-11.1686
筹委会	-11.1686
环境问题	-11.1694
的潜力	-11.1694
的背景	-11.1696
廉价	-11.1699
十分重视	-11.17
立陶宛	-11.1701
水道	-11.1701
▁毫无疑问	-11.1701
每位	-11.1703
▁我们欢迎	-11.1703
它们在	-11.1704
较高的	-11.1708
和家庭	-11.1708
会造成	-11.1711
管理的	-11.1713
表面上	-11.1714
82	-11.1714
新竹	-11.1714
特设	-11.1719
我自己	-11.1719
新生	-11.172
庄严	-11.172
合法性	-11.1721
十年前	-11.1722
12%	-11.1722
童工	-11.1722
宪制	-11.1723
台上	-11.1723
陪	-11.1723
电视节目	-11.1726
但对	-11.1726
空袭	-11.1726
所采取的	-11.1727
技术性	-11.1731
闭	-11.1731
焦	-11.1733
条约机构	-11.1734
欠款	-11.1734
几百	-11.1734
控诉	-11.1736
柯	-11.1736
为联合国	-11.1737
闪	-11.1737
里程碑	-11.1738
中央人民政府	-11.1738
住屋	-11.1738
乘搭	-11.1738
▁据报道	-11.1738
店铺	-11.1739
招牌	-11.174
起码	-11.174
移居	-11.174
肇事者	-11.174
非法入境者	-11.1741
恶意	-11.1741
亚洲金融风暴	-11.1742
下台	-11.1743
复员	-11.1744
集团的	-11.1744
有罪	-11.1744
均须	-11.1749
说得	-11.1751
税制	-11.1752
和社区	-11.1753
减至	-11.1756
小组成员	-11.1757
花了	-11.1757
紧密合作	-11.1757
的判决	-11.1757
一般性辩论	-11.1759
年上半年	-11.1759
十八岁	-11.1762
总数的	-11.1763
单位的	-11.1764
有超过	-11.1764
法人	-11.1767
代表在	-11.1767
该局	-11.177
他们都	-11.1771
和个人	-11.1773
所有有关	-11.1774
在一九九九年	-11.1777
指令	-11.1778
报告指出	-11.1778
▁本港	-11.1779
法团	-11.178
更有效地	-11.1781
发挥了	-11.1781
▁我们要	-11.1782
斯洛伐克	-11.1785
同类	-11.1787
很好的	-11.1787
充实	-11.179
的课程	-11.179
在审议	-11.1791
对台湾	-11.1791
宇宙	-11.1793
斯洛文尼亚	-11.1793
马德里	-11.1793
切勿	-11.1794
装饰	-11.1795
昂贵	-11.1795
设施的	-11.1795
放射性	-11.1795
全民投票	-11.1796
健康和	-11.18
爆	-11.18
▁特别委员会	-11.1801
他们自己	-11.1803
决定将	-11.1807
几内亚比绍	-11.181
的男子	-11.181
的迹象	-11.1812
的这个	-11.1814
中环	-11.1816
跨界	-11.1817
已由	-11.1818
不高	-11.1821
破坏性	-11.1822
平均每	-11.1825
企业的	-11.1827
的协调	-11.1827
臣	-11.1831
惜	-11.1831
将被	-11.1832
的信任	-11.1832
交出	-11.1833
土着人	-11.1835
亿美元的	-11.1836
剧团	-11.1836
好了	-11.1836
未成年人	-11.184
参赛	-11.1841
合作社	-11.1844
的独立	-11.1846
下调	-11.1846
阔	-11.1846
让市民	-11.1847
充满了	-11.1847
慈	-11.1849
丑	-11.1849
饥饿	-11.185
葵涌	-11.185
阿拉伯联合酋长国	-11.185
天水围	-11.185
经社理事会	-11.185
的权益	-11.185
检察院	-11.185
一九九二年	-11.1851
器材	-11.1851
也就是说	-11.1851
房舍	-11.1852
务求	-11.1853
通过一项	-11.1857
百分之八十	-11.1858
伊斯兰教	-11.1858
迄今为止	-11.1862
则会	-11.1862
▁曾荫权	-11.1862
少了	-11.1863
十多	-11.1863
世界的	-11.1864
其他方面	-11.1865
过去一年	-11.1866
工作量	-11.1866
路面	-11.1867
文艺	-11.1868
一倍	-11.1869
物料	-11.1871
辅	-11.1872
的宗旨	-11.1874
藉以	-11.1878
随之	-11.1878
冲突后	-11.1878
特别强调	-11.1878
敌对行动	-11.1879
周末	-11.1883
胆	-11.1884
国际法委员会	-11.1886
1967	-11.1886
球员	-11.1887
对这种	-11.1887
不确定	-11.1888
腹	-11.1888
都需要	-11.1889
各区域	-11.1891
固	-11.1892
水库	-11.1892
是为	-11.1894
税项	-11.1897
出入	-11.1897
格式	-11.1897
契	-11.1897
三级	-11.1901
向其	-11.1901
洁	-11.1902
纷	-11.1905
漂	-11.1906
可怕	-11.1906
艳	-11.1906
中小学	-11.1906
▁故此	-11.1906
漏洞	-11.1906
中英联合声明	-11.1907
下降到	-11.1907
讲究	-11.1907
邮件	-11.1907
联合国系统内	-11.1909
账目	-11.191
劳动人口	-11.191
和政策	-11.1912
领空	-11.1913
这个世界	-11.1914
或以上	-11.1916
伤残	-11.192
好评	-11.192
交易所	-11.1923
营办商	-11.1925
送往	-11.1926
犹太	-11.1927
哪里	-11.1929
应邀	-11.1929
本条例	-11.1929
尸体	-11.1931
和中国	-11.1931
数月	-11.1931
▁古巴	-11.1934
长远的	-11.1935
高潮	-11.1936
消除贫困	-11.1936
上下	-11.1936
管理部门	-11.1936
委员会在	-11.1937
在亚洲	-11.1938
书中	-11.1939
共和国政府	-11.1943
和人权	-11.1944
几千	-11.1946
成衣	-11.1947
率为	-11.195
却又	-11.195
酬	-11.1958
粒	-11.1959
答应	-11.1959
艾滋病的	-11.196
炼	-11.1962
抗生素	-11.1963
勘探	-11.1963
模拟	-11.1963
七月一日	-11.1964
两间	-11.1964
半数	-11.1965
开幕礼	-11.1965
美丽的	-11.1965
合法的	-11.1966
一九五	-11.1967
关注的	-11.1968
经常性	-11.1973
他们将	-11.1977
并加强	-11.1979
的困境	-11.1981
▁另一个	-11.1982
国家一级	-11.1985
万美元的	-11.1986
撤	-11.1987
中央银行	-11.1989
普选	-11.1989
危	-11.1989
恐怖主义分子	-11.1992
美国国会	-11.1992
上帝	-11.1995
的一名	-11.1997
一百六十	-11.1997
一把	-11.2001
第一位	-11.2002
仍然在	-11.2003
种子	-11.2004
而且在	-11.201
有一天	-11.201
殿	-11.2011
粤	-11.2013
八点	-11.2013
必须有	-11.2015
的设施	-11.2015
厕所	-11.2016
巡	-11.2016
指派	-11.2018
我们正	-11.2018
扰	-11.2018
胎	-11.2018
完工	-11.202
洪都拉斯	-11.2021
吸纳	-11.2021
优越	-11.2022
乘坐	-11.2022
竞争对手	-11.2022
初中	-11.2022
1979	-11.2023
最重要	-11.2024
皇帝	-11.2024
了大量	-11.2027
据此	-11.2028
第三个	-11.2029
自称	-11.203
的领导人	-11.2033
的学校	-11.2035
编列	-11.2035
重返	-11.2036
生物多样性	-11.2038
高增值	-11.2044
哲	-11.2047
不少人	-11.2047
公共卫生	-11.2049
应变	-11.2049
▁开发计划署	-11.2051
出租	-11.2053
对立	-11.2055
树立	-11.2057
越多	-11.2058
深远	-11.2061
日举行	-11.2061
生活方式	-11.2061
居所	-11.2063
也应该	-11.2063
我们欢迎	-11.2065
主办的	-11.2065
可以用	-11.2066
波斯尼亚塞族	-11.2068
最近几年	-11.2068
两年前	-11.2068
性行为	-11.2069
以求	-11.2072
有足够的	-11.2073
▁黄	-11.2076
诉求	-11.2077
三位	-11.2077
李登辉	-11.2077
吞	-11.2077
抹	-11.2077
疟疾	-11.2077
帮忙	-11.2078
不分	-11.2079
一开始	-11.208
亲切	-11.208
光明	-11.2082
商标	-11.2083
发展局	-11.2083
台中	-11.2083
处在	-11.2083
中美	-11.2086
二零零三年	-11.2089
私人楼宇	-11.209
天文台	-11.209
对古巴	-11.209
在其他	-11.2091
将这些	-11.2093
其成员	-11.2093
83	-11.2094
能力和	-11.2094
远见	-11.2095
颇为	-11.2096
该批	-11.2096
驱	-11.2097
体重	-11.2099
特别行政区	-11.2101
使馆	-11.2103
去了	-11.2106
92	-11.2109
尤其在	-11.2109
中等	-11.2109
63	-11.211
取向	-11.2113
饮食业	-11.2115
现在已经	-11.2116
让步	-11.2118
生命权	-11.2118
平等的	-11.212
停留	-11.212
训练课程	-11.2121
筑	-11.2122
▁来自	-11.2122
绝不能	-11.2123
谢谢	-11.2124
董	-11.2127
有用的	-11.2127
运往	-11.2127
被告人	-11.2128
民选	-11.2129
基础教毓	-11.213
帽	-11.2132
肺	-11.2133
提出意见	-11.2133
座位	-11.2133
过时	-11.2133
不能接受	-11.2133
朴	-11.2135
切尔诺贝利	-11.2135
颂	-11.2135
东帝汶过渡当局	-11.2135
叛军	-11.2136
▁这方面	-11.2136
厦门	-11.2136
隐藏	-11.2136
道歉	-11.2137
增添	-11.2138
人口普查	-11.2139
南朝鲜	-11.2139
所引起的	-11.2139
他指出	-11.2139
知悉	-11.214
想起	-11.2142
生毓率	-11.2142
助理秘书长	-11.2143
国际社会对	-11.2144
忍	-11.2145
边缘化	-11.2147
谓	-11.2148
之日	-11.2149
好几	-11.2149
权利和自由	-11.215
可怕的	-11.215
诚实	-11.2152
同盟	-11.2156
法律顾问	-11.2158
走了	-11.2159
预防犯罪	-11.216
内陆	-11.216
有所不同	-11.2161
三国	-11.2161
的水	-11.2162
人士的	-11.2162
该领土	-11.2163
交战	-11.2163
管理委员会	-11.2165
有问题	-11.2167
该决议草案	-11.2172
为数	-11.2174
疾	-11.2175
长期的	-11.2175
完整的	-11.2177
石头	-11.2177
各民族	-11.2178
日益增加	-11.2178
构想	-11.2178
了一系列	-11.2179
情感	-11.2182
造成严重	-11.2184
度过	-11.2185
理应	-11.2186
回返	-11.2186
时间内	-11.2187
妥	-11.2187
一百四十	-11.2189
不难	-11.2189
模	-11.2189
民航	-11.219
经济状况	-11.2192
年青	-11.2193
桂	-11.2193
小册子	-11.2193
毛里求斯	-11.2193
伞	-11.2193
一九八七年	-11.2194
赌博	-11.2194
规格	-11.2195
射击	-11.2195
耐心	-11.2197
改革开放	-11.2197
宽容	-11.2198
统计调查	-11.2199
1975	-11.2199
手上	-11.2201
典范	-11.2202
通货膨胀率	-11.2205
拒	-11.2206
工作时间	-11.2206
赛事	-11.2207
奉献	-11.2208
和日本	-11.2208
教毓及	-11.2208
我现在	-11.2209
提到的	-11.2209
项目厅	-11.2213
九巴	-11.2214
的普遍	-11.2215
成员的	-11.2215
发展中	-11.2215
画面	-11.2215
克制	-11.2216
他就	-11.2216
对自己	-11.2218
▁除非	-11.222
发了言	-11.2221
灾区	-11.2221
传达	-11.2223
并可	-11.2224
地政总署	-11.2225
家庭的	-11.2226
要看	-11.2226
提及的	-11.2229
我们应	-11.2229
开展的	-11.2231
最长	-11.2234
▁我也	-11.2234
十几	-11.2235
诱	-11.2236
各国的	-11.2237
▁林	-11.2237
进行协商	-11.2237
西藏	-11.2237
行政管理	-11.2239
稳定和	-11.2241
有些国家	-11.2243
塘	-11.2247
奈	-11.2247
行为的	-11.2248
为使	-11.2249
和国际社会	-11.2249
蓄	-11.225
书记	-11.225
的良好	-11.225
普遍性	-11.2251
斐济	-11.2252
精致	-11.2254
表态	-11.2255
1949	-11.2255
1974	-11.2256
祖先	-11.2256
我们所	-11.2257
举行一次	-11.2262
总量	-11.2262
1960	-11.2263
领事	-11.2265
教练	-11.2266
占用	-11.2266
基本人权	-11.2272
诸多	-11.2272
人权领域	-11.2277
传出	-11.2278
不然	-11.228
迹象	-11.228
判定	-11.2283
表达了	-11.2283
的评估	-11.2283
惟	-11.2284
培训课程	-11.2285
辩	-11.2286
给了	-11.2287
德尔	-11.2288
讨	-11.229
环境卫生	-11.2293
造型	-11.2294
▁我还	-11.2296
完成后	-11.2297
坚定地	-11.2298
五点	-11.2298
正常化	-11.2299
儿女	-11.2299
人口中	-11.2301
而这	-11.2301
政务	-11.2303
许多地方	-11.2305
▁大多数	-11.2305
大学生	-11.2305
牢	-11.2309
贪	-11.231
岁月	-11.231
杆	-11.2311
滴	-11.2311
浏览	-11.2311
美洲国家组织	-11.2311
历程	-11.2312
西撒哈拉	-11.2312
聆听	-11.2313
▁很多	-11.2313
饭店	-11.2313
界线	-11.2314
违法行为	-11.2314
外面	-11.2314
多个国家	-11.2315
借助	-11.2315
解体	-11.2317
孕妇	-11.2318
17%	-11.2319
18%	-11.2319
核定	-11.232
运营	-11.2323
下一代	-11.2323
的可行性	-11.2324
试点	-11.2326
起飞	-11.2326
再培训	-11.2327
长的	-11.2329
转到	-11.2333
中国代表团	-11.2334
相处	-11.2337
调低	-11.2338
宝贵	-11.2342
我们知道	-11.2349
结束了	-11.2349
教训	-11.2351
三种	-11.2351
蓬勃	-11.2358
公务员的	-11.2364
作风	-11.2364
产妇	-11.2366
呼吸	-11.2367
串	-11.2368
魔	-11.2369
▁我在	-11.2369
抗拒	-11.237
财务报表	-11.2371
密度	-11.2373
▁委员会建议缔约国	-11.2373
鉴定	-11.2373
1976	-11.2374
意味	-11.2374
受教毓	-11.2374
的经济增长	-11.2374
将需要	-11.2375
国别	-11.2376
将他们	-11.2378
关乎	-11.238
乐于	-11.2381
船员	-11.2383
必须是	-11.2384
的提案	-11.2384
进行磋商	-11.2388
领土的	-11.2389
陷于	-11.2389
下属	-11.2396
奏	-11.2396
南太平洋	-11.2397
的基本原则	-11.2398
表明了	-11.24
保险业	-11.2401
发现了	-11.2401
上一	-11.2403
选择了	-11.2403
惯	-11.2405
悲	-11.2406
中山	-11.2408
导致了	-11.2408
要比	-11.241
专责	-11.241
不佳	-11.2413
围绕	-11.2414
奥运会	-11.2414
只在	-11.2416
突	-11.2417
人格	-11.2418
第九	-11.2418
巿	-11.2419
要点	-11.2422
亦曾	-11.2424
的拨款	-11.2424
各派	-11.2424
现在已	-11.2425
这段	-11.2425
疾病的	-11.2425
继续支持	-11.2426
鼠	-11.2427
的评论	-11.2428
桩	-11.2429
侯	-11.2429
伊拉克入侵和占领科威特	-11.2429
蝶	-11.2429
怡	-11.2429
盼望	-11.243
追溯	-11.243
财赤	-11.243
藉口	-11.2432
并不能	-11.2432
有意义的	-11.2432
能得到	-11.2435
香港是	-11.2435
开创	-11.2435
有组织犯罪	-11.2435
第二期	-11.2436
外地办事处	-11.2437
则在	-11.2437
水源	-11.2437
去做	-11.2438
协助他们	-11.2438
总额的	-11.2441
劳动者	-11.2441
其次是	-11.2444
全额	-11.2444
力度	-11.2446
承担责任	-11.2447
失业人士	-11.2451
派驻	-11.2454
作出回应	-11.2454
▁刘	-11.2455
的员工	-11.2455
区域合作	-11.2459
股份	-11.246
批发	-11.2467
条件下	-11.2467
甚至是	-11.247
出路	-11.247
苑	-11.2471
携	-11.2473
进行审查	-11.2474
社交	-11.2475
元的	-11.2476
球场	-11.2477
是完全	-11.2477
各大	-11.248
达到了	-11.248
毁灭	-11.2481
获奖	-11.2483
有关问题	-11.2484
丛	-11.2487
议事规则第	-11.2487
这两项	-11.2488
以其	-11.2488
哀	-11.2489
第二部分	-11.2489
暨	-11.2489
侮辱	-11.2489
息息相关	-11.2489
一九八八年	-11.249
主权和领土完整	-11.249
稳固	-11.249
向我	-11.249
清晨	-11.249
论述	-11.2491
宜兰	-11.2492
理财	-11.2492
众所周知	-11.2493
号决议中	-11.2493
听众	-11.2493
基本上是	-11.2493
欧洲共同体	-11.2493
实务	-11.2494
鲜明	-11.2494
和行政	-11.2496
期待着	-11.2501
任内	-11.2502
病床	-11.2505
台湾省	-11.2507
培训方案	-11.2507
赠款	-11.2509
的工业	-11.251
影响了	-11.251
等人	-11.2511
最严重	-11.2514
北韩	-11.2514
概述	-11.2516
兑	-11.2517
其间	-11.2518
过的	-11.2522
国庆	-11.2522
动态	-11.2523
对香港的	-11.2525
码	-11.2525
专科	-11.2525
公共部门	-11.2526
门外	-11.2527
无可	-11.2528
调查报告	-11.2531
宗教和	-11.2531
预防措施	-11.2533
任务规定	-11.2534
妙	-11.2534
资源和	-11.2536
价钱	-11.2537
粮食安全	-11.2537
因为这是	-11.2539
九九年	-11.254
区域性	-11.254
和宗教	-11.2541
可以从	-11.2543
纹	-11.2543
受训	-11.2544
▁在我们	-11.2544
某些人	-11.2545
的财务	-11.2545
并应	-11.2547
库存	-11.2547
违规	-11.2548
在明年	-11.2549
亏	-11.2549
烂	-11.2549
宋楚瑜	-11.255
灌输	-11.255
亏损	-11.255
榜样	-11.255
马耳他	-11.255
搬迁	-11.255
第四季	-11.2551
海湾	-11.2551
婴儿死亡率	-11.2551
其他机构	-11.2551
涉案	-11.2551
涌入	-11.2552
伦理	-11.2553
▁正是	-11.2553
商贸	-11.2554
居然	-11.2554
▁所谓	-11.256
的各个	-11.256
的相关	-11.2563
剩余	-11.2566
不容忍	-11.2566
就有关	-11.2569
海报	-11.2571
奥运	-11.2571
在科索沃	-11.2573
三十六	-11.2574
的大部分	-11.2574
主要是由于	-11.2574
公认的	-11.2577
行动自由	-11.2577
街上	-11.2579
武装人员	-11.258
偷运	-11.2583
兽	-11.2585
▁一九九八年	-11.2586
不懂	-11.2586
完美	-11.2587
年满	-11.2588
过去两年	-11.2588
有关的问题	-11.259
没有一个	-11.2591
儿童和	-11.2592
对美国	-11.2594
▁委员会对	-11.2595
尚有	-11.2596
论文	-11.2596
亦不	-11.26
注意力	-11.2601
),"	-11.2602
尺	-11.2603
对有关	-11.2603
曾多次	-11.2605
七点	-11.2606
疏	-11.2608
形成了	-11.261
垫	-11.261
詹	-11.261
福祉	-11.261
果断	-11.2612
母语	-11.2613
渐渐	-11.2613
是美国	-11.2614
以配合	-11.2617
的议题	-11.2618
联系在一起	-11.262
有很大的	-11.2621
到现在	-11.2622
罪名	-11.2628
中东和平进程	-11.2629
的方针	-11.2631
国际劳工组织	-11.2632
这是因为	-11.2632
转入	-11.2638
在职	-11.2639
信息和	-11.2643
我今天	-11.2643
先生在	-11.2643
程度上	-11.2646
申诉人	-11.2647
提供关于	-11.2648
外交政策	-11.2648
的好	-11.2648
犹太人	-11.2649
成年	-11.265
协调中心	-11.2653
家庭成员	-11.2656
和分析	-11.2661
他们认为	-11.2662
晚会	-11.2662
体力	-11.2663
被定罪	-11.2664
进程中	-11.2665
武器的	-11.2665
时光	-11.2665
在东帝汶	-11.2665
天地	-11.2666
担任主席	-11.2669
文盲	-11.2669
链	-11.267
犬	-11.267
妄	-11.2671
取缔	-11.2671
稳步	-11.2672
工联会	-11.2672
转介	-11.2673
将于明日	-11.2674
青衣	-11.2674
各主要	-11.2676
边防	-11.2676
武器禁运	-11.2679
外判	-11.268
目前正	-11.2682
婴	-11.2682
入学率	-11.2682
这些国家的	-11.2684
港台	-11.2684
起到	-11.2685
对这一	-11.2685
道路上	-11.2687
组建	-11.269
指导原则	-11.2691
较大的	-11.2696
名单上	-11.2697
交存	-11.2697
农地	-11.2698
▁该公司	-11.2698
这些权利	-11.2699
在学校	-11.2708
的那些	-11.2709
不一样	-11.2709
是谁	-11.2714
1)	-11.2714
族人	-11.2715
找到工作	-11.2717
我可以	-11.2719
卡拉	-11.272
一份报告	-11.2721
拿到	-11.2721
文化的	-11.2721
次区域	-11.2723
住宿	-11.2724
览	-11.2725
次级方案	-11.2726
柴	-11.2726
已完成	-11.2729
陌生	-11.273
增长了	-11.2731
宅	-11.2731
赋	-11.2731
柔	-11.2732
遮	-11.2732
采取必要措施	-11.2732
直布罗陀	-11.2733
还可	-11.2733
婆	-11.2733
公用事业	-11.2733
最低限度	-11.2733
向委员会	-11.2737
极端主义	-11.2738
实例	-11.2738
公务员队伍	-11.2738
随意	-11.2739
途中	-11.2739
小贩	-11.274
他们会	-11.2742
剧场	-11.2746
议程上	-11.2746
原油	-11.2747
合作的	-11.2747
的另一个	-11.2748
进行对话	-11.2749
标准的	-11.2754
召开了	-11.2755
露出	-11.2758
呼吁国际社会	-11.2758
有所改善	-11.2759
预留	-11.2759
第二十三条	-11.276
提议的	-11.2762
▁据估计	-11.2762
附带	-11.2765
教毓制度	-11.2769
亦没有	-11.2769
表示愿意	-11.277
分成	-11.277
复原	-11.277
西铁	-11.2773
建立起	-11.2773
感到满意	-11.2775
税款	-11.2777
省的	-11.278
与我们	-11.2783
可使	-11.2784
晨	-11.2785
联合国儿童基金会	-11.279
也已	-11.279
上水	-11.2791
如果他们	-11.2791
▁无论	-11.2791
乳	-11.2793
虾	-11.2794
糖尿病	-11.2794
沮丧	-11.2794
疏忽	-11.2794
驻科部队	-11.2795
探亲	-11.2796
第二次世界大战	-11.2796
面貌	-11.2796
善政	-11.2797
有甚么	-11.2797
性格	-11.2797
只不过	-11.2798
▁这类	-11.2799
原议案	-11.28
▁(4)	-11.2801
马拉	-11.2801
工夫	-11.2803
阿曼	-11.2803
详细的	-11.2803
鱼类	-11.2804
出示	-11.2805
个月的	-11.2806
受到威胁	-11.2807
年期	-11.2807
附件一	-11.2807
蚊	-11.2807
帮助他们	-11.281
迈出	-11.281
营商环境	-11.281
有意义	-11.2811
在台北	-11.2813
的动机	-11.2813
只限于	-11.2815
薪水	-11.2816
口译	-11.2817
就没有	-11.2818
小时候	-11.2818
研究人员	-11.2819
多久	-11.2819
团队	-11.2819
可能对	-11.2819
他还	-11.2821
恐怖主义活动	-11.2821
对这个	-11.2821
级的	-11.2822
官兵	-11.2822
所取得的	-11.2822
委员会第	-11.2822
重庆	-11.2823
既有	-11.2827
执法行动	-11.2831
政治家	-11.2832
融	-11.2835
西区	-11.2838
月开始	-11.2838
爷	-11.2839
很强	-11.2839
加税	-11.284
埔	-11.2841
不惜	-11.2843
随便	-11.2843
娘	-11.2845
想知道	-11.2847
的策略	-11.2848
寿命	-11.2851
仇	-11.2851
的债务	-11.2852
渠	-11.2853
骄傲	-11.2853
但政府	-11.2854
接受治疗	-11.2855
劣	-11.2855
重要问题	-11.2855
郁	-11.2856
环境保护署	-11.2856
丙	-11.2856
曹	-11.2856
碧	-11.2856
铅	-11.2856
匮乏	-11.2856
挣扎	-11.2856
直接或间接	-11.2856
承运人	-11.2856
赤贫	-11.2857
不赞成	-11.2858
部队的	-11.2858
盗窃	-11.2858
薄弱	-11.2858
流亡	-11.2858
碰	-11.2861
妥当	-11.2861
国土	-11.2862
为每	-11.2864
接管	-11.2864
一共	-11.2865
发出了	-11.2865
仍然存在	-11.2866
不合	-11.2866
极力	-11.2867
本年度	-11.2867
连战	-11.287
行驶	-11.2871
无论在	-11.2874
大麻	-11.2877
亿元的	-11.2878
的大量	-11.2879
我知道	-11.288
要想	-11.288
改动	-11.288
▁主席说	-11.2881
160	-11.2881
加强合作	-11.2884
而受到	-11.2884
所示	-11.2885
神经	-11.2888
李柱铭议员	-11.289
宇	-11.2893
在本局	-11.2893
感动	-11.2899
超过了	-11.29
后期	-11.2902
家务	-11.2902
界的	-11.2902
还认为	-11.2903
并表示	-11.2903
出的	-11.2905
的回应	-11.2909
楚	-11.2909
的案文	-11.2909
赌	-11.2913
社署	-11.2913
节日	-11.2913
说他	-11.2914
踏	-11.2915
贿	-11.2916
柒	-11.2916
的途径	-11.2917
团员	-11.2917
鼎	-11.2918
这些因素	-11.2918
鲍	-11.2919
筒	-11.2919
赐	-11.2919
欺诈	-11.2919
投机	-11.2919
孤儿	-11.292
有大量	-11.292
侵入	-11.292
减缓	-11.2921
指导方针	-11.2921
下了	-11.2921
绝望	-11.2921
解释为	-11.2924
订单	-11.2925
礼物	-11.2926
供求	-11.2926
影像	-11.2928
标记	-11.293
提问	-11.2931
隶属	-11.2934
工业发展	-11.2934
三成	-11.2934
阶	-11.2936
(1	-11.2938
并促进	-11.2938
能量	-11.2939
▁针对	-11.2942
以南	-11.2942
饮	-11.2942
的人们	-11.2943
▁预期	-11.2944
充分合作	-11.2944
排名	-11.2947
反映在	-11.2948
▁总之	-11.2948
任何一个	-11.2951
许多发展中国家	-11.2954
海运	-11.2955
需时	-11.2956
还有一些	-11.2957
趁	-11.2957
口号	-11.2958
外围	-11.2958
一九八五年	-11.2959
和平文化	-11.296
卡尔	-11.296
再说	-11.2962
的纪录	-11.2966
覆	-11.2966
的议程	-11.2966
修理	-11.2967
一类	-11.2968
镜头	-11.297
捉	-11.297
所长	-11.2971
世贸	-11.2974
毕	-11.2974
根据其	-11.2975
关押	-11.2977
年之久	-11.2978
晋	-11.2979
知名	-11.2979
衰	-11.298
细胞	-11.2982
模糊	-11.2982
斯普斯卡共和国	-11.2982
哥本哈根	-11.2982
挖掘	-11.2982
识别	-11.2983
当晚	-11.2983
实习	-11.2984
强烈谴责	-11.2985
预报	-11.2986
表扬	-11.2987
转运	-11.2988
失业问题	-11.2989
和欧洲	-11.2989
私营化	-11.2989
▁墨西哥	-11.299
高度重视	-11.2991
通告	-11.2991
确定的	-11.2992
用的	-11.2994
▁乌克兰	-11.2994
第一批	-11.2994
我没有	-11.2995
上台	-11.2996
91	-11.2996
陆军	-11.2996
社会和	-11.2998
人是	-11.2999
在新	-11.3002
洪水	-11.3002
此等	-11.3005
苏丹政府	-11.3009
篮	-11.301
港商	-11.3011
变得更	-11.3013
申	-11.3015
岗位	-11.3015
票数	-11.3018
冲突各方	-11.3019
加入了	-11.3021
大多数人	-11.3023
新型	-11.3023
海峡	-11.3023
的心态	-11.3025
统计数据	-11.3025
在一些	-11.3026
保险公司	-11.3026
▁也许	-11.3028
之路	-11.3028
令到	-11.3029
扣留	-11.3033
看出	-11.3035
留学生	-11.3036
违	-11.3037
二三	-11.3037
目前已	-11.3041
推出的	-11.3043
收养	-11.3044
春节	-11.3044
梦想	-11.3044
捷克	-11.3044
氯	-11.3045
亨	-11.3045
蟹	-11.3045
很久	-11.3045
旗帜	-11.3045
侦察	-11.3045
傍晚	-11.3046
抵销	-11.3046
和合作	-11.3048
的第一步	-11.3049
科目	-11.305
南京	-11.305
排放量	-11.3051
含量	-11.3051
业已	-11.3052
于一九九九年	-11.3052
可取	-11.3052
大陆的	-11.3053
保护儿童	-11.3055
公营房屋	-11.3055
光华	-11.3055
十足	-11.3057
跨部门	-11.3058
的医疗	-11.306
受让人	-11.3062
的职业	-11.3062
▁多年来	-11.3062
有关人员	-11.3063
海洋法	-11.3063
安全区	-11.3065
不免	-11.3066
水泥	-11.3066
存放	-11.3067
林业	-11.3067
以下的	-11.3068
会议厅	-11.3069
所需经费	-11.307
腔	-11.307
而导致	-11.3072
曾荫权	-11.3072
工务	-11.3072
都不会	-11.3074
叙述	-11.3075
八个	-11.3078
的贷款	-11.3078
局限于	-11.3078
委员会建议	-11.3078
政府首脑	-11.3078
价值的	-11.3083
由香港	-11.3085
卡车	-11.3085
而努力	-11.3087
个国家的	-11.3087
夜间	-11.3089
上有	-11.3093
▁欧盟	-11.3094
袭击事件	-11.3094
提高效率	-11.3094
督察	-11.3096
驻留	-11.3097
户口	-11.3098
贝尔	-11.31
经济利益	-11.31
银行业	-11.31
国内的	-11.3101
▁让我们	-11.3101
提交了	-11.3102
独裁	-11.3103
预警	-11.3105
因其	-11.3107
捞	-11.3108
仿	-11.3108
叙	-11.3108
嘉年华	-11.3109
逸	-11.3109
布基纳法索	-11.3109
干脆	-11.3109
索偿	-11.3109
魅力	-11.3109
彷佛	-11.3109
昨晚	-11.3109
宣告	-11.3109
公共交通工具	-11.311
岁以上	-11.3112
1984	-11.3112
法语	-11.3113
大法官	-11.3115
公众对	-11.3116
和机构	-11.3117
子女的	-11.3118
感受到	-11.3118
名誉	-11.3119
开车	-11.3119
自觉	-11.312
即在	-11.3121
在本年	-11.3123
附属机构	-11.3124
我已	-11.3125
的经历	-11.3126
爆炸事件	-11.3127
劳工市场	-11.3129
晚间	-11.3129
理论上	-11.3132
意义上	-11.3132
联合行动	-11.3133
安南	-11.3134
建立和平	-11.3136
第二届	-11.3139
规划署	-11.314
禁令	-11.314
过去三年	-11.3141
在短期内	-11.3143
到场	-11.3145
信件	-11.3146
年轻的	-11.3146
由于缺乏	-11.3147
10.	-11.3147
警区	-11.3149
事件发生	-11.3152
联合国各机构	-11.3152
▁发言人表示	-11.3153
公务员制度	-11.3153
心脏病	-11.3153
性剥削	-11.3155
外销	-11.3156
联会	-11.3159
2010	-11.3162
开心	-11.3162
阿里	-11.3162
在国际上	-11.3163
作进一步	-11.3164
跟随	-11.3165
伟大的	-11.3166
或不	-11.3166
伏	-11.3167
绳	-11.3169
砍	-11.317
沿着	-11.3171
敲	-11.3171
问责	-11.3172
第一届	-11.3172
铃	-11.3173
萨拉热窝	-11.3173
国旗	-11.3173
珠三角	-11.3173
利得税	-11.3173
撤退	-11.3174
高速公路	-11.3174
有力的	-11.3174
巡视	-11.3174
审判分庭	-11.3174
包容	-11.3175
藉此机会	-11.3176
结构性	-11.3176
冲突中	-11.3176
摊位	-11.3176
毛额	-11.3177
民主选举	-11.3178
71	-11.3179
发牌	-11.3183
小型武器	-11.3185
界限	-11.3185
现存	-11.3186
远远超过	-11.3187
▁我国政府	-11.3188
免税	-11.3189
数百万	-11.3189
该法	-11.3191
数个	-11.3191
调查工作	-11.3192
则可	-11.3195
舞台上	-11.3197
发生的事件	-11.3197
船上	-11.32
的领土	-11.32
向来	-11.3201
使它们	-11.3202
50%。	-11.3211
实施了	-11.3211
消除贫穷	-11.3212
和地方	-11.3215
农业部门	-11.3221
今晨	-11.3222
▁巴基斯坦	-11.3224
的就业	-11.3224
是会	-11.3225
81	-11.3225
提供必要的	-11.3226
外交官	-11.3227
精神病	-11.3229
油价	-11.3229
委员会和	-11.323
教徒	-11.323
国立	-11.323
的首要	-11.3231
黑人	-11.3233
其次	-11.3234
道义	-11.3234
窃	-11.3235
却有	-11.3235
徽	-11.3236
法院的	-11.3237
吐	-11.3237
洒	-11.3237
钢琴	-11.3237
各部	-11.3239
对比	-11.3239
授	-11.324
特别重要	-11.324
的青少年	-11.324
脚步	-11.3241
阵线	-11.3241
清洗	-11.3241
维持国际和平与安全	-11.3242
董事局	-11.3243
协调一致	-11.3244
第一步	-11.3244
并就	-11.3245
红十字委员会	-11.3245
的前途	-11.3246
航行	-11.3246
汲取	-11.3248
可为	-11.3249
已获	-11.3249
持续发展	-11.3251
图案	-11.3253
扩	-11.3254
严格的	-11.3255
一名男子	-11.3255
时段	-11.3257
效率和	-11.3257
不堪	-11.3258
受害者的	-11.3258
每项	-11.3258
台语	-11.326
申请者	-11.3261
减少到	-11.3262
发展方案	-11.3264
构成了	-11.3264
民政	-11.3264
的悲剧	-11.327
惩教署	-11.3272
▁图片	-11.3273
这一切	-11.3274
着作	-11.3275
▁这里	-11.3275
均为	-11.3277
四十五	-11.3279
京剧	-11.3281
国家利益	-11.3282
县市	-11.3285
演说	-11.3286
克拉	-11.3286
润	-11.3286
有一次	-11.3287
充分执行	-11.3289
阿拉伯人	-11.329
出版的	-11.3291
▁在本报告所述期间	-11.3292
方面发挥	-11.3293
呈交	-11.3293
做生意	-11.3295
在今天	-11.3296
是值得	-11.3296
的现有	-11.3296
的细节	-11.3296
执行秘书	-11.3297
1.5	-11.3297
秘	-11.3298
▁估计	-11.3299
使香港	-11.3301
作好准备	-11.3302
博览会	-11.3302
红磡	-11.3302
操纵	-11.3303
联合国难民事务高级专员办事处	-11.3303
的预测	-11.3303
倒闭	-11.3303
撰写	-11.3304
旁边	-11.3305
对本港	-11.3306
降到	-11.3307
国语	-11.3309
13%	-11.331
经营的	-11.3311
所要求的	-11.3313
关注的问题	-11.3315
▁据悉	-11.3315
人被	-11.3315
就不能	-11.3316
的持续	-11.3316
类别的	-11.3317
对手	-11.3317
非洲各国	-11.3319
在经济	-11.332
占地	-11.3322
生动	-11.3326
不影响	-11.3327
个多月	-11.3327
号码	-11.333
的补充	-11.3332
四周	-11.3332
以及为	-11.3335
河流	-11.3338
最有	-11.3339
限制了	-11.334
文件中	-11.3342
的组成	-11.3342
▁法院	-11.3346
基础结构	-11.3346
的合法	-11.3347
▁在这种情况下	-11.3347
的理念	-11.3348
政治意愿	-11.3348
物种	-11.335
人或	-11.3352
停泊	-11.3352
一千五百	-11.3355
▁民主党	-11.3355
不住	-11.3357
盲	-11.3359
的步伐	-11.336
炸	-11.336
提供经费	-11.336
向安理会	-11.336
九个	-11.3361
的合同	-11.3367
防范	-11.3367
臭	-11.3367
繁殖	-11.3368
前南斯拉夫的马其顿共和国	-11.3368
临区局	-11.3368
挽救	-11.3368
西方国家	-11.3368
疲弱	-11.3368
($)	-11.3368
11%	-11.337
轻易	-11.337
考古	-11.3373
才能够	-11.3373
日本的	-11.3374
中最	-11.3374
为此目的	-11.3375
兑换	-11.3377
抓住	-11.3378
距	-11.3379
免税额	-11.3379
沿用	-11.3381
平安	-11.3383
附有	-11.3383
投票站	-11.3385
工作坊	-11.3385
逆	-11.3387
估价	-11.3387
人次	-11.3389
长久以来	-11.339
不遵守	-11.3392
并呼吁	-11.3393
各项决议	-11.3394
同其他	-11.3395
贸易和	-11.3395
每当	-11.3395
物理	-11.3396
书法	-11.3399
继续存在	-11.3401
年里	-11.3403
了一份	-11.3404
妇女权利	-11.3404
将从	-11.3406
这个项目	-11.3408
缴费	-11.3409
一是	-11.341
正处于	-11.3414
补充说	-11.3415
使用核武器	-11.3416
规则和	-11.3416
的正式	-11.3417
以解决	-11.3417
纽约市	-11.342
日程	-11.3422
表示希望	-11.3424
程序和	-11.3425
已经完成	-11.3425
竞	-11.3428
国际经济	-11.3429
遥	-11.3431
证据表明	-11.3432
实行的	-11.3432
的单位	-11.3432
署方	-11.3432
须由	-11.3433
悟	-11.3433
独奏	-11.3433
壶	-11.3433
经合组织	-11.3433
棚	-11.3433
裸	-11.3433
蜂	-11.3433
混淆	-11.3433
租赁	-11.3434
妈祖	-11.3434
歪曲	-11.3434
遗址	-11.3434
科特迪瓦	-11.3434
(1999)	-11.3435
奇迹	-11.3435
疑犯	-11.3436
的代表团	-11.3437
驻港	-11.3437
天津	-11.3437
统计资料	-11.3437
改革进程	-11.3438
出版社	-11.3439
联合国海洋法公约	-11.3439
向公众	-11.3442
外科	-11.3443
架次	-11.3445
律	-11.3447
筹办	-11.3447
维持和平部队	-11.3447
而来	-11.3448
劳工界	-11.3449
第一次会议	-11.3449
头上	-11.3452
机动	-11.3453
便于	-11.3454
表示满意	-11.3456
该条例	-11.3457
广大市民	-11.3457
时报	-11.3459
▁该报告	-11.346
条件是	-11.3462
一幅	-11.3462
漫	-11.3463
罪恶	-11.3464
普遍认为	-11.3466
难怪	-11.3466
经济效益	-11.3466
大于	-11.3467
新任	-11.3468
小规模	-11.3468
▁我们对	-11.3468
重量	-11.3469
的指标	-11.3472
判刑	-11.3474
劫持	-11.3475
在我国	-11.3475
和区域	-11.3477
健康状况	-11.3477
史上	-11.3479
区域和国际	-11.3479
日举行的	-11.3483
我请	-11.3486
的规划	-11.3486
是正确的	-11.3486
的差距	-11.3486
没有什么	-11.3488
不适合	-11.3489
政治领导人	-11.3491
联合国总部	-11.3493
几项	-11.3494
两性	-11.3495
匪	-11.3499
记者招待会	-11.35
苏格兰	-11.35
惩处	-11.35
核电厂	-11.3501
四大	-11.3501
账户	-11.3501
乍得	-11.3502
1981	-11.3502
招待	-11.3503
露天	-11.3503
终身	-11.3503
刚开始	-11.3503
的大型	-11.3504
该小组	-11.3504
货量	-11.3504
阵地	-11.3508
现阶段	-11.351
迈进	-11.3511
▁这就是	-11.3513
借口	-11.3513
亚洲国家	-11.3513
乎	-11.3514
中毒	-11.3514
并指出	-11.3516
二十四小时	-11.3518
救护	-11.3519
发展战略	-11.352
更可	-11.352
的苦难	-11.3522
充足的	-11.3523
中巴	-11.3527
也希望	-11.3528
任用	-11.3528
提出上诉	-11.3528
该省	-11.353
区内的	-11.3531
公吨	-11.3533
香港与	-11.3533
行政长官董建华	-11.3534
都被	-11.3536
大屠杀	-11.3536
充分支持	-11.3537
在英国	-11.3538
潜	-11.3539
开列	-11.354
时才	-11.3541
倘若	-11.3543
以保障	-11.3546
大力支持	-11.3547
全世界的	-11.3548
会场	-11.3549
另一方	-11.355
一项重要	-11.3554
受灾	-11.3556
体会	-11.3557
会带来	-11.3557
克罗地亚共和国	-11.3557
我建议	-11.3557
这些地区	-11.3558
第一项	-11.3558
那天	-11.3561
公道	-11.3563
施政报告中	-11.3563
裕	-11.3565
上升到	-11.3565
肖	-11.3566
养殖	-11.3566
战俘	-11.3566
追踪	-11.3567
并有	-11.3567
信用卡	-11.3568
废除死刑	-11.3568
公共交通	-11.3568
累计	-11.3569
私人机构	-11.3569
破坏了	-11.3569
相继	-11.3571
患病	-11.3571
每逢	-11.3572
通过后	-11.3572
是用	-11.3573
▁澳大利亚	-11.3573
首批	-11.3573
的外交	-11.3574
尽量减少	-11.3574
的分配	-11.3574
威力	-11.3574
合计	-11.3574
并且在	-11.3576
该司	-11.3577
屋宇署	-11.3577
艺人	-11.3578
党员	-11.358
性能	-11.358
已超过	-11.358
的论点	-11.3581
吸引了	-11.3581
使用了	-11.3583
也需要	-11.3583
陆地	-11.3584
我不想	-11.3586
知情	-11.3587
折扣	-11.3588
其任务	-11.3588
英联邦	-11.3588
的评价	-11.3588
将不会	-11.3589
无所	-11.3589
主管当局	-11.3589
代表团团长	-11.3589
的特色	-11.359
不接受	-11.3591
持有人	-11.3593
城市规划	-11.3593
应继续	-11.3595
农业生产	-11.3597
家居	-11.3598
▁届时	-11.3599
用心	-11.3601
岁以上的	-11.3601
▁据报告	-11.3601
多方面	-11.3602
中指出	-11.3603
证实了	-11.3603
兼职	-11.3603
非政府机构	-11.3605
的破坏	-11.3607
▁一般	-11.3607
和服务	-11.3608
童年	-11.3609
把自己	-11.361
同志	-11.361
中小企	-11.3612
绍	-11.3614
控制的	-11.3614
完全支持	-11.3614
▁8	-11.3614
公共安全	-11.3615
之间的联系	-11.3615
到目前为止	-11.3616
又不	-11.3618
检察	-11.3619
▁英国	-11.3619
当地居民	-11.3621
摘	-11.3621
▁这位	-11.3624
暴雨	-11.3625
令市民	-11.3625
10%。	-11.3626
水量	-11.3626
政府一直	-11.3627
虐	-11.3629
公布了	-11.363
为了辟免	-11.363
撒哈拉	-11.3631
灌	-11.3632
悠	-11.3633
在发展中国家	-11.3633
绵	-11.3633
官僚	-11.3633
南南合作	-11.3633
积金局	-11.3634
一九八九年	-11.3634
号决定	-11.3634
粤港	-11.3634
跟踪	-11.3634
西班牙语发言	-11.3634
追查	-11.3636
的体制	-11.3637
狮子	-11.3638
上文	-11.3639
几十	-11.364
吸	-11.3644
意向	-11.3644
年会	-11.3644
流传	-11.3645
的侵略	-11.3645
多哥	-11.3647
不定	-11.3647
▁小组认为	-11.3649
美国总统	-11.365
在中东	-11.365
过关	-11.3652
五十五	-11.3652
不明白	-11.3652
会把	-11.3653
会议室	-11.3654
2.5	-11.3655
路边	-11.3655
的年龄	-11.3657
曾有	-11.3657
文化艺术	-11.3657
负责任的	-11.3659
公益	-11.3659
利亚	-11.3661
大家庭	-11.3662
建设和平	-11.3663
▁为此目的	-11.3666
原居民	-11.3666
感觉到	-11.3668
▁11	-11.367
改建	-11.3671
研究结果	-11.3671
北区	-11.3671
小武器	-11.3672
小学生	-11.3674
正在进行的	-11.3679
毫无疑问	-11.3679
市区重建	-11.368
的姓名	-11.3681
精彩	-11.3682
合共	-11.3682
各缔约国	-11.3683
筹备工作	-11.3683
实现了	-11.3686
的组成部分	-11.3686
在该地区	-11.3687
民政事务处	-11.3689
益处	-11.369
的后续行动	-11.3692
好象	-11.3692
各地的	-11.3696
旋	-11.3697
请愿	-11.3698
廷	-11.3698
争夺	-11.3701
蒸	-11.3701
瘫痪	-11.3701
羽	-11.3701
纽西兰	-11.3701
急症室	-11.3701
田北俊议员	-11.3701
内部监督事务厅	-11.3701
宣扬	-11.3701
引爆	-11.3702
功能界别	-11.3703
救助	-11.3703
晚宴	-11.3703
施加压力	-11.3704
用了	-11.3704
各界人士	-11.3704
方案预算	-11.3707
座谈会	-11.3712
大气	-11.3712
武装冲突中	-11.3713
返回家园	-11.3714
病患	-11.3716
贸易伙伴	-11.3717
战场	-11.3718
赞	-11.3718
就开始	-11.3719
以满足	-11.3721
元素	-11.3722
进去	-11.3726
创新科技	-11.3726
最具	-11.3727
四点	-11.3731
宣传运动	-11.3731
自豪	-11.3732
倾向于	-11.3734
不符	-11.3735
通用	-11.3735
今天下午	-11.3738
方面的作用	-11.3741
新措施	-11.3741
塑	-11.3742
主要官员	-11.3744
退化	-11.3744
每名	-11.3747
之多	-11.3747
不一	-11.3751
可能被	-11.3753
刑事司法	-11.3754
有一点	-11.3761
国际间	-11.3761
三十一	-11.3761
两局	-11.3761
转让人	-11.3763
用语	-11.3764
更容易	-11.3764
民用	-11.3765
▁我深信	-11.3765
福建	-11.3765
的支助	-11.3766
消费物价指数	-11.3766
省级	-11.3768
潭	-11.3769
囊	-11.3769
孟	-11.3769
堆填区	-11.3769
冯检基议员	-11.3769
飓风	-11.377
展览会	-11.377
本组织的	-11.3773
▁尤其	-11.3774
弃权	-11.3774
接下来	-11.3774
副主任	-11.3776
六点	-11.3778
做为	-11.378
持久的	-11.3784
期间内	-11.3786
只可	-11.3787
据点	-11.379
不及	-11.3791
他被	-11.3791
议定	-11.3793
但现在	-11.3794
行动方案	-11.3795
生态系统	-11.3797
和平协议	-11.3797
被指控	-11.3801
不少于	-11.3801
▁南非	-11.3803
部长级	-11.3807
取得的进展	-11.3807
阿富汗人民	-11.3808
少量	-11.3809
的热情	-11.3809
短短	-11.381
限度	-11.381
通常是	-11.3813
我们大家	-11.3813
也认为	-11.3815
回报率	-11.3816
经济问题	-11.3818
二读	-11.3818
一环	-11.3818
已经是	-11.3819
职权	-11.382
的最低	-11.382
其余的	-11.3822
则认为	-11.3822
▁10	-11.3823
认真考虑	-11.3827
不得超过	-11.3828
编写的	-11.3829
哀悼	-11.383
只有一个	-11.3835
逝	-11.3836
斑	-11.3837
柳	-11.3837
歌仔戏	-11.3837
马鞍山	-11.3837
参议院	-11.3838
驻地协调员	-11.3838
抵押	-11.3838
沉默	-11.3838
罕见	-11.3838
筹划	-11.3838
燃烧	-11.3839
抽样	-11.3839
竭力	-11.3839
越南船民	-11.3839
这些原则	-11.3839
配置	-11.3839
抽象	-11.384
电池	-11.384
八成	-11.3842
供电	-11.3842
世人	-11.3843
的广泛	-11.3844
这种现象	-11.3845
计算的	-11.3846
根本是	-11.3847
条草案	-11.3849
热烈欢迎	-11.3849
全日制	-11.385
东主	-11.3852
地进行	-11.3852
署署长	-11.3853
▁换句话说	-11.3854
案情	-11.3854
欣	-11.3854
男生	-11.3857
黑山	-11.3857
该条	-11.3859
换取	-11.3859
在现场	-11.3862
于一九九八年	-11.3863
城市地区	-11.3865
相连	-11.3866
四十八	-11.3868
的青年	-11.3868
一些问题	-11.3869
在没有	-11.387
公民教毓	-11.3871
局限	-11.3871
新建	-11.3871
全港市民	-11.3871
药物滥用	-11.3872
湿地	-11.3873
升高	-11.3875
有议员	-11.3877
这使	-11.3877
感到非常	-11.3882
带到	-11.3884
俄国	-11.3885
提供意见	-11.3886
深化	-11.3887
主角	-11.3889
▁各国	-11.3889
年度报告	-11.389
▁啊	-11.3891
医护	-11.3895
不法行为	-11.3897
召	-11.3897
当局在	-11.3898
制度下	-11.39
古典	-11.39
廊	-11.3901
幢	-11.3903
多文化	-11.3905
躲	-11.3905
殷	-11.3906
翼	-11.3906
毛泽东	-11.3906
抄	-11.3906
新纪元	-11.3906
廉政公署	-11.3906
恐慌	-11.3906
登革热	-11.3907
巴巴多斯	-11.3907
众议院	-11.3907
发表的声明	-11.3907
意识形态	-11.3907
西南	-11.3908
演艺	-11.3909
贝宁	-11.3909
硬件	-11.391
巨额	-11.391
四川	-11.3911
形成的	-11.3911
题材	-11.3912
航线	-11.3913
议事	-11.3917
刑事责任	-11.3918
市值	-11.3918
绿化	-11.3919
的选民	-11.3919
指望	-11.392
十周年	-11.3921
比重	-11.3921
订出	-11.3921
泊车	-11.3921
仅为	-11.3924
原籍国	-11.3926
要面对	-11.3928
单车	-11.3928
行列	-11.3928
接见	-11.3929
那时候	-11.3929
于去年	-11.393
验证	-11.3936
仍将	-11.3937
一致认为	-11.3937
行政机构	-11.394
集结	-11.394
充分发挥	-11.3944
就该	-11.3946
东南	-11.3946
政治解决	-11.3948
斡旋	-11.3949
跟我	-11.3949
就这样	-11.3951
相应的	-11.3952
更会	-11.3957
设定	-11.3957
海底	-11.3957
在此期间	-11.3959
切合	-11.396
核不扩散	-11.396
大多数国家	-11.396
电器	-11.3963
的非法	-11.3963
这些事件	-11.3964
雷达	-11.3964
百年	-11.3964
和各	-11.3965
认为这是	-11.397
径	-11.397
津	-11.3971
不去	-11.3972
划作	-11.3974
巡回	-11.3974
掩	-11.3974
窄	-11.3974
醉	-11.3975
荒漠化	-11.3976
莉	-11.3976
康乐文化署	-11.3976
残障	-11.3976
信息和通信技术	-11.3976
塞尔维亚和黑山	-11.3976
编纂	-11.3976
▁奉我国政府指示	-11.3976
巴布亚新几内亚	-11.3976
优异	-11.3977
血液	-11.3977
致敬	-11.3977
持续增长	-11.3978
东涌	-11.3979
迁往	-11.3979
我国的	-11.3979
孩子的	-11.398
免于	-11.3982
零件	-11.3982
强有力的	-11.3982
听过	-11.3983
变迁	-11.3984
委员会决定	-11.3984
连任	-11.3989
支持政府	-11.3991
下半年	-11.3991
专业知识	-11.3991
事前	-11.3993
再一次	-11.3994
发展方面	-11.3995
当场	-11.3996
政治和	-11.3998
作出承诺	-11.3998
特别关注	-11.4001
成份	-11.4004
出现问题	-11.4004
个性	-11.4006
到访	-11.4007
的差异	-11.4009
▁而在	-11.401
关注的是	-11.401
恰当的	-11.4012
大专	-11.4014
这些资料	-11.4015
声明中	-11.4015
山地	-11.4016
事务司	-11.4016
塑胶	-11.4018
的联合	-11.402
这些组织	-11.4022
肚	-11.4024
法文	-11.4025
大增	-11.4026
劳动法	-11.4026
翌日	-11.4027
当选为	-11.4028
事例	-11.4028
▁监督厅	-11.4029
的同意	-11.4032
在讨论	-11.4032
晶	-11.4038
经济环境	-11.4038
秘书长在	-11.4041
的代价	-11.4043
屡	-11.4043
临时政府	-11.4044
伪	-11.4044
窝	-11.4046
肝	-11.4046
姑	-11.4046
抚养	-11.4046
研究院	-11.4046
鼓吹	-11.4046
号召	-11.4047
执照	-11.4048
不算	-11.4048
决赛	-11.4048
采纳	-11.405
东耶路撒冷	-11.405
1978	-11.405
绘画	-11.405
推展	-11.4051
以改善	-11.4053
扩建	-11.4053
强调必须	-11.4059
检查站	-11.406
公共开支	-11.4061
生产国	-11.4061
作出任何	-11.4062
为目标	-11.4063
开罗	-11.4064
的百分比	-11.4064
的一半	-11.4064
国家之间	-11.4065
商业活动	-11.4069
公职	-11.4069
的实质	-11.407
的一系列	-11.4073
进了	-11.4076
最后一次	-11.4076
每个人都	-11.4076
百分之八	-11.4078
的伙伴关系	-11.4078
属实	-11.4081
令人失望	-11.4084
服务中心	-11.4086
穷国	-11.4087
加强其	-11.4088
有一位	-11.4089
悦	-11.409
坊	-11.4093
政策上	-11.4094
本文件	-11.4095
决定在	-11.4096
我们觉得	-11.4099
▁特区政府	-11.4101
摆在	-11.4101
管理公司	-11.4101
分阶段	-11.4101
代表参加	-11.4102
▁我现在	-11.4102
便有	-11.4109
可通过	-11.4109
抱有	-11.4111
使我	-11.4111
全面检讨	-11.4111
滋	-11.4112
全人类	-11.4115
舟	-11.4115
就可	-11.4115
标准和	-11.4115
盅	-11.4116
四万	-11.4116
牲畜	-11.4116
联检组	-11.4116
监控	-11.4117
答辩	-11.4117
吸取	-11.4117
承办商	-11.4118
找寻	-11.4118
车臣	-11.4119
各位同事	-11.412
调查发现	-11.4122
▁警方今日	-11.4123
角落	-11.4123
收支	-11.4123
到期	-11.4124
一个例子	-11.4124
大纲	-11.4126
新闻中心	-11.4126
陆路	-11.4127
排水	-11.4127
中央公积金	-11.4129
今后的	-11.4129
前总统	-11.4133
有幸	-11.4133
武器和	-11.4134
不是一个	-11.4135
是我	-11.4135
反叛	-11.4138
的工作量	-11.4142
职等	-11.4144
的效力	-11.4146
才开始	-11.4146
的协助下	-11.4147
的阶段	-11.4147
城乡	-11.4147
兴起	-11.4148
印度尼西亚政府	-11.4148
可从	-11.4148
常见	-11.415
经济衰退	-11.415
我还	-11.4151
与他们	-11.4151
双方都	-11.4155
师生	-11.4157
户外	-11.4158
▁3.	-11.4159
几乎没有	-11.4159
一处	-11.4162
异议	-11.4165
人身安全	-11.4166
只是在	-11.4168
抱着	-11.4168
他希望	-11.4169
转移到	-11.4169
的集体	-11.4169
的问题上	-11.417
经纪	-11.417
并根据	-11.4171
天天	-11.4171
一篇	-11.4171
并鼓励	-11.4173
和冲突	-11.4174
简直是	-11.4175
所面对的	-11.4176
邮政	-11.4176
吸引更多	-11.4178
建国	-11.4178
到香港	-11.4178
这些项目	-11.418
达成了	-11.4181
酒会	-11.4183
的宣传	-11.4184
事务的	-11.4184
国际市场	-11.4184
效用	-11.4186
常驻联合国代表	-11.4186
屈	-11.4186
一百八十	-11.4187
陵	-11.4187
麟	-11.4187
簿	-11.4187
锺	-11.4187
重案组	-11.4187
显而易见	-11.4187
肌肉	-11.4187
在一定程度上	-11.4187
不可分割	-11.4188
建议将	-11.4188
第一委员会	-11.419
致词	-11.419
物体	-11.4191
全球化的	-11.4191
的感受	-11.4191
大有	-11.4191
外空	-11.4193
多米尼加共和国	-11.4193
在许多	-11.4194
化学武器	-11.4195
艺术节	-11.4197
解雇	-11.4198
回皈后	-11.4199
已取得	-11.42
北京市	-11.4202
与环境	-11.4202
一来	-11.4203
(5)	-11.4203
国际货币基金组织	-11.4204
师资	-11.4206
租约	-11.4207
这名	-11.4207
侵略者	-11.4207
眼镜	-11.4207
经济困难	-11.4207
重要作用	-11.4209
是唯一	-11.421
▁埃及	-11.421
的大多数	-11.4214
大胆	-11.4215
称赞	-11.4218
和美利坚合众国	-11.4218
科学研究	-11.4219
的原因是	-11.4219
所用的	-11.4219
看到了	-11.4219
在这次	-11.4219
的进步	-11.422
准备工作	-11.4221
*	-11.4223
专业团体	-11.4223
代表发了言	-11.4225
继续对	-11.4226
确有	-11.4226
度的	-11.4227
更要	-11.4228
▁有人认为	-11.4229
教毓机构	-11.4229
歌手	-11.4229
纳尔	-11.4231
▁另	-11.4232
慎重	-11.4236
的供应	-11.4237
马克	-11.4238
送给	-11.4238
救护车	-11.424
▁这些措施	-11.4241
嗯	-11.4243
各种问题	-11.4244
难于	-11.4245
仰	-11.4245
受欢迎	-11.4246
受访者	-11.4247
严重罪行	-11.4248
二五	-11.4249
帝国	-11.4251
▁如果政府	-11.4251
不法	-11.4251
高峰期	-11.4251
经济危机	-11.4254
教毓改革	-11.4255
物件	-11.4255
过去数年	-11.4255
上游	-11.4257
综合性	-11.4258
衔	-11.4258
赔	-11.4258
魂	-11.4258
擦	-11.4258
辣	-11.4258
眉	-11.4258
铝	-11.4258
丘	-11.4259
警惕	-11.4259
娶	-11.4259
琼	-11.4259
医学院	-11.4259
张建宗	-11.4259
重点放在	-11.4259
掠夺	-11.4259
打工仔	-11.4259
委託	-11.4259
匪徒	-11.4259
麻醉品	-11.4259
接驳	-11.4259
危急	-11.4259
症状	-11.426
青春	-11.4261
寻常	-11.4262
生活条件	-11.4262
九铁	-11.4262
第二项	-11.4262
完全不	-11.4266
水灾	-11.4267
留学	-11.4268
山东	-11.427
建立无核武器区	-11.4271
月下旬	-11.4272
整整	-11.4272
可能要	-11.4273
可以获得	-11.4274
四成	-11.4275
对外贸易	-11.4278
水警	-11.4278
国家元首和政府首脑	-11.428
▁中国政府	-11.4281
学额	-11.4282
的年代	-11.4283
工地	-11.4286
草案第	-11.4287
美好	-11.4288
经已	-11.4289
地上	-11.4292
人潮	-11.4293
各自的	-11.4294
登上	-11.4295
迂上	-11.4297
是不能	-11.43
巴勒斯坦领土	-11.4302
目标和	-11.4302
110	-11.4303
学业	-11.4305
升学	-11.4306
拥	-11.4306
三十九	-11.4308
曾表示	-11.4309
或任何	-11.431
▁尤其是	-11.431
▁否则	-11.431
放置	-11.4317
这意味着	-11.4318
以实现	-11.4322
受僱	-11.4322
犹	-11.4322
为主题	-11.4323
欺	-11.4326
综	-11.4327
扶	-11.4327
支付的	-11.4327
联邦政府	-11.4328
国家警察	-11.4328
的家人	-11.433
姿	-11.433
是十分	-11.433
哎	-11.4331
践踏	-11.4331
半个世纪	-11.4331
钥匙	-11.4331
弊端	-11.4331
地价	-11.4331
公寓	-11.4331
国民生产总值	-11.4331
饲养	-11.4332
三倍	-11.4332
和贸易	-11.4332
黑暗	-11.4333
宁愿	-11.4333
进行改革	-11.4333
指出的是	-11.4333
话题	-11.4334
重叠	-11.4335
▁在这些	-11.4336
百分之七	-11.434
司法机关	-11.434
需要有	-11.434
产权	-11.434
偏高	-11.4343
一亿	-11.4344
重型	-11.4345
含义	-11.4345
调配	-11.4345
或者是	-11.4346
请他	-11.4346
熟悉的	-11.4346
此前	-11.4346
不久将	-11.4352
心脏	-11.4354
九六年	-11.4355
最快	-11.4355
药物管制	-11.4355
六名	-11.4356
千年首脑会议	-11.4357
资助计划	-11.4357
有钱	-11.4361
的金融	-11.4362
得奖	-11.4362
不过是	-11.4364
作为联合国	-11.4364
如果是	-11.4366
执法机构	-11.4366
重重	-11.4367
人权和基本自由	-11.4369
明确规定	-11.437
这就	-11.4371
南海	-11.4372
的货物	-11.4375
巴士公司	-11.4376
专长	-11.4377
受害国	-11.4378
的交易	-11.4378
十二个月	-11.4379
批准的	-11.438
这个数字	-11.4382
未曾	-11.4383
部长会议	-11.4383
工作时	-11.4383
五万	-11.4384
▁新华社	-11.4385
35%	-11.4385
豁免权	-11.4386
发言的	-11.4386
偿	-11.4387
奋	-11.4388
日生效	-11.4393
来讲	-11.4395
的生存	-11.4398
频率	-11.4399
初步调查	-11.44
器官	-11.44
南区	-11.4401
人间	-11.4403
...	-11.4403
歇	-11.4403
咭	-11.4403
金沙萨	-11.4403
全面禁试条约	-11.4403
崇拜	-11.4403
该名男子	-11.4403
屍体	-11.4404
繁重	-11.4405
激动	-11.4405
养护	-11.4405
东南欧	-11.4405
偏低	-11.4407
发展合作	-11.4409
重新安置	-11.441
补救办法	-11.441
和以色列	-11.4411
目光	-11.4411
不行	-11.4412
哪个	-11.4412
通胀率	-11.4413
必须加强	-11.4414
圆满	-11.4414
的框架	-11.4415
经济学	-11.4417
向安全理事会	-11.4418
也表示	-11.4418
民族主义	-11.4418
的第二	-11.4418
控罪	-11.4419
的文章	-11.4423
属下	-11.4426
不会有	-11.4426
重点是	-11.4428
协调和	-11.4429
有形	-11.443
台币	-11.4431
鉴	-11.4432
孕	-11.4432
建立在	-11.4432
的总体	-11.4432
全系统	-11.4433
多国	-11.4435
的真实	-11.444
神话	-11.4442
姿态	-11.4443
本署	-11.4443
的资格	-11.4443
可能造成	-11.4446
不可或缺的	-11.4447
充分参与	-11.4447
商品价格	-11.4447
对发展中国家	-11.4449
自治区	-11.4449
阿布	-11.445
代表团成员	-11.4452
世界和平	-11.4454
供应量	-11.4455
的子女	-11.4456
运到	-11.4456
核能	-11.4457
为人	-11.4458
的陈	-11.4461
共同利益	-11.4461
正常的	-11.4461
亦不会	-11.4462
▁1991	-11.4463
履	-11.4465
与此	-11.4467
经济全球化	-11.4467
的男女	-11.4467
170	-11.4469
领域内	-11.447
就说	-11.4471
制药	-11.4471
既是	-11.4472
爆炸物	-11.4473
略有	-11.4474
年底前	-11.4475
年下半年	-11.4475
弯	-11.4475
指的是	-11.4476
踢	-11.4476
荒谬	-11.4476
仅仅是	-11.4476
无家可归	-11.4476
行之有效	-11.4476
摄氏	-11.4477
衔接	-11.4477
年以后	-11.4477
举措	-11.4477
为了实现	-11.4478
年代初	-11.4478
分别在	-11.4479
各有关	-11.448
添加	-11.448
欺骗	-11.4481
外出	-11.4481
办法是	-11.4482
下一	-11.4484
趣味	-11.4484
各地区	-11.4485
身边	-11.4486
支票	-11.4487
享用	-11.4487
海面	-11.4488
三十二	-11.4489
歌舞	-11.4489
立法会选举	-11.449
强硬	-11.4493
建立信任	-11.4493
门票	-11.4493
的监督	-11.4493
公用	-11.4493
是世界上	-11.4494
可致电	-11.4494
需要在	-11.4494
十多年	-11.4495
的访问	-11.4495
春天	-11.4497
▁该项	-11.4498
从来不	-11.4501
不明朗	-11.4502
然后再	-11.4502
不能再	-11.4503
我一直	-11.4504
▁4.	-11.4506
分析和	-11.4507
在上述	-11.4509
下放	-11.4509
公顷土地	-11.4509
简要	-11.451
楼市	-11.4511
别的	-11.4511
才知道	-11.4516
全都	-11.4517
理据	-11.4518
场面	-11.4519
强加	-11.4519
我已经	-11.4519
激烈的	-11.452
生产能力	-11.4521
和财政	-11.4522
对未来	-11.4522
为由	-11.4522
无条件	-11.4523
也没	-11.4524
可能在	-11.4524
堪	-11.4525
电费	-11.4525
其它国家	-11.4527
第一部分	-11.4528
停电	-11.4528
的直接	-11.4528
▁一些代表团	-11.4529
探测	-11.453
应与	-11.453
实物	-11.4531
我曾	-11.4532
优秀的	-11.4533
是世界	-11.4534
互利	-11.454
会议中	-11.4541
调高	-11.4541
上级	-11.4542
私有	-11.4542
的病人	-11.4543
人性	-11.4545
原来的	-11.4547
国际社会必须	-11.4547
反倒	-11.4548
得到解决	-11.4549
斩	-11.4549
+	-11.455
克什米尔	-11.455
三合会	-11.455
的人都	-11.455
悲痛	-11.455
四个月	-11.455
心目中	-11.4551
负荷	-11.4551
功能组别	-11.4551
灾民	-11.4552
自愿捐款	-11.4552
前瞻性	-11.4553
说了	-11.4554
建立信任措施	-11.4554
▁但我们	-11.4555
安全理事会主席	-11.4556
两性平等	-11.4557
身亡	-11.4557
贸易自由化	-11.4559
的部队	-11.4559
民间团体	-11.4562
以色列当局	-11.4562
上个月	-11.4563
我们没有	-11.4565
的距离	-11.4567
五四	-11.4567
构成威胁	-11.4567
立即停止	-11.4569
征税	-11.4571
鸡只	-11.4571
智能	-11.4574
我将	-11.4577
有益的	-11.4577
警报	-11.458
负责任	-11.4582
忽略了	-11.4583
举出	-11.4583
今年三月	-11.4584
斯先生	-11.4584
发现有	-11.4585
是非	-11.4588
为高	-11.4588
远东	-11.4588
▁所有这些	-11.4589
人命	-11.4589
核证	-11.459
宗个案	-11.459
生殖	-11.4592
仍可	-11.4592
起诉书	-11.4593
看了	-11.4594
并请	-11.4595
中心和	-11.4598
大城市	-11.4598
是合理的	-11.4598
珍贵	-11.4599
继续与	-11.4599
往年	-11.46
这可能	-11.4601
很快就	-11.4602
和改善	-11.4602
傅	-11.4602
妇女问题	-11.4603
这时	-11.4604
管理层	-11.4604
国界	-11.4605
反措施	-11.4608
中占	-11.4609
局部	-11.4611
几年前	-11.4611
国际条约	-11.4614
联合国人员	-11.4614
▁该名	-11.4619
国际援助	-11.4619
这种行为	-11.4619
发展进程	-11.4622
该系统	-11.4622
奥林匹克	-11.4623
凌	-11.4623
胃	-11.4623
‧	-11.4623
磅	-11.4624
钉	-11.4624
绿皮书	-11.4624
联格观察团	-11.4624
祸害	-11.4624
乔治	-11.4625
低估	-11.4625
加蓬	-11.4625
冷静	-11.4625
的使命	-11.4625
较早时	-11.4626
比喻	-11.4626
的估计	-11.4626
认知	-11.4626
偶像	-11.4627
负资产	-11.4627
我很高兴	-11.4628
那一	-11.4628
当我	-11.4629
一年前	-11.4629
反抗	-11.4629
升值	-11.463
科学园	-11.4631
被杀	-11.4631
和民间社会	-11.4631
请你	-11.4631
必须以	-11.4632
离港	-11.4634
还是在	-11.4634
全盘	-11.4634
中国文化	-11.4636
面包	-11.4637
是属于	-11.4637
营运基金	-11.4638
写作	-11.4638
将它	-11.464
很长	-11.4645
的次数	-11.4645
创下	-11.4645
活泼	-11.4647
使联合国	-11.4647
线路	-11.4649
的儿子	-11.4653
不再是	-11.4654
高兴地	-11.4655
缔造	-11.4655
的经营	-11.4656
继续保持	-11.4657
公司在	-11.4661
的父亲	-11.4661
可持续性	-11.4661
我只想	-11.4662
显示了	-11.4663
▁法庭	-11.4664
一直到	-11.4664
下次	-11.4664
雨水	-11.4665
在家	-11.4666
实现其	-11.4667
忘了	-11.4668
解决的问题	-11.4671
我们能够	-11.4671
我只是	-11.4672
有趣	-11.4675
促进了	-11.4675
弃置	-11.4675
减免	-11.4676
损害了	-11.4676
解决这些问题	-11.4677
我们便	-11.4677
所属的	-11.4683
已就	-11.4683
▁不幸的是	-11.4684
不清	-11.4684
▁索赔人	-11.4685
多么	-11.4688
的钱	-11.4688
李卓人议员	-11.4689
犯罪者	-11.469
的律师	-11.4692
巴拉	-11.4694
的公务员	-11.4695
的价值观	-11.4696
是针对	-11.4696
▁第二个	-11.4696
的增长率	-11.4696
的语言	-11.4697
侠	-11.4697
呆	-11.4698
裂变材料	-11.4698
一揽子	-11.4698
训研所	-11.4698
行政协调会	-11.4698
共产主义	-11.4698
疏散	-11.4699
厨房	-11.4699
团伙	-11.47
的答覆	-11.4701
空调	-11.4703
杂项	-11.4703
启发	-11.4704
不停	-11.4705
光荣	-11.4708
平日	-11.4708
▁他补充说	-11.4708
三号	-11.4711
对人类	-11.4711
味道	-11.4712
进行全面	-11.4713
▁嗯	-11.4715
对非洲	-11.4716
交通工具	-11.4717
子弹	-11.4719
趋向	-11.472
一架	-11.4721
但其	-11.4721
▁我们呼吁	-11.4722
的薪金	-11.4726
国际和平	-11.4727
的支持下	-11.4728
应该在	-11.4728
鹅	-11.4729
看得	-11.473
社会政策	-11.4732
燃油	-11.4733
去看	-11.4735
建屋	-11.4735
死伤	-11.4736
服务行业	-11.4736
出现在	-11.4737
人道主义局势	-11.4738
▁有些人	-11.4738
不合理的	-11.474
进来	-11.4741
的讯息	-11.4741
的时间表	-11.4743
战略和	-11.4743
某项	-11.4743
战斗人员	-11.4746
四十年	-11.4747
个州	-11.4749
▁政府在	-11.475
▁委员会欢迎	-11.4758
数位	-11.4758
分组	-11.4758
盾	-11.476
在他的	-11.476
感到鼓舞	-11.4762
处所	-11.4763
糟糕	-11.4764
而无法	-11.4765
会长	-11.4766
弟	-11.4766
是确保	-11.4769
碍	-11.4771
愤	-11.4772
绪	-11.4772
有很多人	-11.4772
都应该	-11.4773
卢森堡	-11.4773
布政司	-11.4773
禁飞区	-11.4773
坦桑尼亚	-11.4773
科索沃和梅托希亚	-11.4773
遏止	-11.4773
概括	-11.4773
峰会	-11.4774
可将	-11.4774
察觉	-11.4774
种族清洗	-11.4774
霍乱	-11.4775
(4)	-11.4775
遵从	-11.4775
安慰	-11.4775
建筑工程	-11.4776
恢复正常	-11.4777
包围	-11.4777
维持在	-11.4779
10000	-11.4779
设计师	-11.4779
在现阶段	-11.478
审查会议	-11.478
海滩	-11.4782
在安理会	-11.4782
▁6.	-11.4782
之类的	-11.4783
劳力	-11.4784
录音	-11.4786
所用	-11.4786
盛行	-11.4787
过份	-11.4787
放心	-11.4787
的利润	-11.4788
天的	-11.4789
希望能够	-11.4789
本次	-11.4789
时至	-11.4789
效能	-11.4789
▁儿童基金会	-11.479
闻名	-11.4791
致辞时	-11.4796
还得	-11.4798
有困难	-11.4799
灯光	-11.4802
中期审查	-11.4803
落在	-11.4808
经济复甦	-11.4809
自由市场	-11.4809
拉斯	-11.481
会引起	-11.4811
长江	-11.4814
的现状	-11.4814
况	-11.4815
本局议员	-11.4816
联合国各	-11.4817
不单止是	-11.4817
条和第	-11.4817
不适用于	-11.4818
约束力	-11.4819
20%。	-11.4819
技术上	-11.4819
展开了	-11.4821
的士司机	-11.4821
是一位	-11.4821
非法活动	-11.4822
一九七	-11.4823
的邀请	-11.4827
名学生	-11.4827
整体经济	-11.4827
的动力	-11.4829
核武器的	-11.483
他会	-11.4831
债权	-11.4832
组织了	-11.4834
名被告	-11.4834
国际金融机构	-11.4834
预计将	-11.4835
这表明	-11.4837
外流	-11.4838
旨	-11.4839
产假	-11.4839
生产的	-11.4839
多数人	-11.484
一件事	-11.484
储备金	-11.4841
嫌	-11.4842
的重点是	-11.4842
电力公司	-11.4843
如果有	-11.4844
情节	-11.4845
成千上万的	-11.4846
仗	-11.4847
调解人	-11.4847
中东局势	-11.4848
▁近年	-11.4848
棍	-11.4849
槽	-11.4849
邓小平	-11.4849
浙江	-11.4849
海洛因	-11.4849
临时区域市政局	-11.485
坚守	-11.485
驳回	-11.485
危害人类罪	-11.4851
英勇	-11.4851
常驻联合国代表团	-11.4851
助理署长	-11.4851
100%	-11.4851
坦率	-11.4852
单亲家庭	-11.4854
任由	-11.4856
修订动议	-11.4856
这是由于	-11.4857
币	-11.4857
作出的承诺	-11.4859
年终	-11.4859
平民百姓	-11.4861
侧重于	-11.4861
货柜车	-11.4863
设备的	-11.4863
金牌	-11.4865
甚或	-11.4865
并继续	-11.4866
行李	-11.487
李议员	-11.4872
深度	-11.4873
▁昨天	-11.4874
的收益	-11.4874
向所有	-11.4874
统一的	-11.4875
▁随	-11.4875
图书	-11.4876
说到	-11.4876
年以前	-11.4876
▁发展中国家	-11.4877
这正是	-11.4877
人类发展	-11.4878
二号	-11.488
特殊的	-11.4882
课本	-11.4883
图则	-11.4883
引来	-11.4884
他表示	-11.4884
这几年	-11.4886
严重关切	-11.4886
职权范围	-11.4888
日军	-11.489
文人	-11.4894
名妇女	-11.4894
助长	-11.4894
同年	-11.4894
尚无	-11.4894
其中一项	-11.4895
是否可以	-11.4895
所有人都	-11.4896
也被	-11.4897
不能不	-11.4897
中说	-11.4898
▁今次	-11.49
第六委员会	-11.49
的意图	-11.49
多家	-11.4902
庆祝活动	-11.4904
作出的努力	-11.4906
负起	-11.4908
决议中	-11.491
有赖	-11.4911
北角	-11.4913
旱灾	-11.4914
美好的	-11.4915
源于	-11.4915
长度	-11.4916
的记录	-11.4916
是项	-11.492
主要是因为	-11.492
一届	-11.492
先行	-11.4921
定会	-11.4925
恳	-11.4925
禅	-11.4925
侵蚀	-11.4925
咬	-11.4925
自力更生	-11.4925
拘禁	-11.4925
俱	-11.4925
侯赛因	-11.4926
争拗	-11.4926
陈鉴林议员	-11.4926
滋扰	-11.4926
会受到	-11.4926
被迨捕	-11.4926
一九八六年	-11.4926
忠诚	-11.4926
应收款	-11.4927
康体	-11.4928
告别	-11.4929
布雷顿森林机构	-11.493
不禁	-11.493
在世界各地	-11.493
经典	-11.4931
导向	-11.4932
先生和	-11.4932
改善工程	-11.4933
音乐学院	-11.4933
的角度来看	-11.4934
和传播	-11.4934
并提供	-11.4936
沙龙	-11.4936
司法部长	-11.4937
通行	-11.4937
的忧虑	-11.4937
他们所	-11.4938
的译文	-11.4939
的严重性	-11.494
社会和文化权利	-11.4941
的控制	-11.4942
驻地	-11.4943
将导致	-11.4945
发挥重要作用	-11.4948
总面积	-11.4949
我们自己	-11.495
那次	-11.4952
并强调	-11.4952
专才	-11.4954
抑或	-11.4954
现有资源	-11.4954
相等于	-11.4958
的食物	-11.4959
先进国家	-11.4959
有违	-11.496
的父母	-11.4962
起点	-11.4962
妹	-11.4965
制成	-11.4965
平等机会	-11.4965
曾被	-11.4966
为他	-11.4967
▁是次	-11.4967
内心	-11.4968
提供的服务	-11.4969
2.5%	-11.4969
一层	-11.4969
优先考虑	-11.497
目前在	-11.4972
两周	-11.4973
应包括	-11.4974
存有	-11.4974
侧重	-11.4975
和维持	-11.4976
监护	-11.4976
45%	-11.4976
已决定	-11.4978
开始实施	-11.4982
展开调查	-11.4982
大都会	-11.4983
这种情湟	-11.4986
我们正在	-11.4986
古代	-11.4992
打算在	-11.4993
四十九	-11.4995
勾	-11.4998
无理	-11.4998
相若	-11.4999
至十	-11.4999
颈	-11.4999
我感到	-11.5
无罪	-11.5001
昂贵的	-11.5001
堤	-11.5002
开始了	-11.5002
什叶派	-11.5002
吉布提	-11.5003
盅击	-11.5003
产妇死亡率	-11.5003
雕刻	-11.5003
抵消	-11.5003
炮弹	-11.5003
悬挂	-11.5004
屋邨	-11.5004
预审	-11.5004
求职	-11.5005
国内总产值	-11.5005
原定	-11.5006
该协定	-11.5008
为市民	-11.5008
潜在的	-11.5008
公共秩序	-11.5009
性别岐视	-11.5009
蒙受	-11.5009
篇幅	-11.501
生病	-11.5011
两家	-11.5012
为市民提供	-11.5012
两岸关系	-11.5012
平均数	-11.5014
政策局	-11.5015
开刀	-11.5015
的地步	-11.5017
重新考虑	-11.5018
奖金	-11.5021
所占	-11.5021
亲身	-11.5022
其活动	-11.5025
进一步改善	-11.5027
共存	-11.5027
进驻	-11.5028
常驻代表团	-11.503
一句话	-11.5031
细心	-11.5033
其中许多	-11.5035
听了	-11.5036
的会员国	-11.5036
进行辩论	-11.504
行政长官董建华今日	-11.5042
股票市场	-11.5042
的应用	-11.5044
还能	-11.5044
拨给	-11.5044
等级	-11.5045
概	-11.5046
私下	-11.5046
获选	-11.5048
极少	-11.5048
过早	-11.5049
该会议	-11.5049
的财富	-11.505
享受到	-11.505
所指出	-11.5052
不成	-11.5052
方法是	-11.5052
囚	-11.5052
有几	-11.5053
▁土耳其	-11.5053
的批评	-11.5055
令人感到	-11.5057
公民投票	-11.5058
但从	-11.5058
并提出	-11.5058
就是这样	-11.5059
勇敢	-11.506
的部门	-11.506
▁我们亦	-11.5061
按时	-11.5061
的警察	-11.5061
的三个	-11.5063
政治人物	-11.5063
家庭和	-11.5063
仅限于	-11.5064
货币基金组织	-11.5065
的文字	-11.5069
演唱	-11.507
长短	-11.507
的来源	-11.5071
美食	-11.5071
领导下	-11.5072
▁第五	-11.5072
实行了	-11.5072
政治化	-11.5075
动摇	-11.5076
对不起	-11.5078
▁无论如何	-11.5078
不一致	-11.5079
排污	-11.5079
威慑	-11.5079
魏	-11.508
丸	-11.508
塔吉克	-11.508
铜锣湾	-11.508
梁智鸿议员	-11.508
闸	-11.508
渗透	-11.508
涛	-11.508
测验	-11.508
肤色	-11.508
空气质素	-11.5081
截查	-11.5082
火灾	-11.5082
遍布	-11.5083
零星	-11.5083
和监测	-11.5085
江苏	-11.5085
饱受	-11.5087
一流	-11.5089
完全符合	-11.509
不久前	-11.5091
报警	-11.5092
交谈	-11.5092
更广泛的	-11.5093
该基金	-11.5095
驱逐出境	-11.5095
冲突和	-11.5096
法语国家	-11.5098
留下的	-11.5099
受益者	-11.5101
在一九九八年	-11.5104
▁每	-11.5104
更有效	-11.5105
加州	-11.5105
高山	-11.511
正确地	-11.5111
第四次	-11.5111
歌剧	-11.5112
了若干	-11.5112
同一个	-11.5114
辖下的	-11.5115
人员在	-11.5118
国情	-11.5118
1.1	-11.5119
署理	-11.5119
份报告	-11.5121
经验和	-11.5123
解决方法	-11.5127
最基本的	-11.5127
社会大众	-11.513
▁德国	-11.513
舒适	-11.513
▁我很高兴	-11.513
较好	-11.5133
并建议	-11.5134
的时期	-11.5135
之心	-11.5136
人大	-11.5136
新时代	-11.5137
九十年代	-11.5138
到美国	-11.514
开展活动	-11.5142
的确是	-11.5142
不上	-11.5143
恐怖袭击	-11.5148
谋生	-11.5148
在海外	-11.5148
访问期间	-11.515
记住	-11.5153
盈	-11.5153
和维护	-11.5154
在华盛顿	-11.5157
残忍	-11.5158
幽	-11.5158
形态	-11.5158
一年多	-11.5158
有心	-11.5158
临立会	-11.5158
糟	-11.5158
宣誓	-11.5158
境况	-11.5158
贫富差距	-11.5159
失蹤	-11.5159
暑假	-11.5159
偶然	-11.516
国际义务	-11.516
扶持	-11.516
揭露	-11.516
▁或许	-11.5161
泊	-11.5162
至为重要	-11.5162
空置	-11.5162
幻想	-11.5162
按揭贷款	-11.5162
本周	-11.5163
录像	-11.5163
先天	-11.5164
▁她们	-11.5166
信赖	-11.5166
发毓	-11.5167
国际安全	-11.5167
重要的作用	-11.5169
高企	-11.5169
地球上	-11.517
政见	-11.517
的电脑	-11.5171
▁当前	-11.5171
图表	-11.5172
但是我们	-11.5172
弱点	-11.5175
的疾病	-11.5177
专案小组	-11.5177
必将	-11.5178
系统和	-11.5178
天空	-11.5179
本来就	-11.5179
周刊	-11.5179
天堂	-11.5181
开幕典礼	-11.5181
车上	-11.5182
那就	-11.5184
核准的	-11.5186
众人	-11.5188
在国外	-11.5192
的沟通	-11.5192
稳定部队	-11.5195
出门	-11.5195
刑事诉讼	-11.5196
安哥拉政府	-11.5196
这不仅	-11.5197
会考虑	-11.5198
2500	-11.5198
▁我知道	-11.5198
外交保护	-11.52
大家都知道	-11.5201
同时又	-11.5201
民俗	-11.5202
所使用的	-11.5203
发展项目	-11.5203
斯坦	-11.5203
公平分配	-11.5203
时所	-11.5204
▁原来	-11.5204
就任	-11.5204
活动和	-11.5205
我们会继续	-11.5205
香港海关	-11.5205
有一定的	-11.5206
原有的	-11.5207
令人担忧	-11.5208
家公司	-11.5216
经济结构	-11.5217
去年的	-11.5218
▁19	-11.522
民营	-11.5221
只须	-11.5221
不适宜	-11.5221
硕士	-11.5222
之家	-11.5223
有部分	-11.5225
上空	-11.5226
遗憾的是	-11.5226
的最重要	-11.5226
为依据	-11.5228
自发	-11.5229
大赛	-11.523
工业区	-11.5231
大半	-11.5232
疲	-11.5236
措辞	-11.5236
寮	-11.5236
吵	-11.5236
炭	-11.5237
尿	-11.5237
爽	-11.5237
自置居所	-11.5237
独立国家联合体	-11.5237
消除对妇女一切形式岐视公约	-11.5237
联黎部队	-11.5237
早些时候	-11.5237
满了	-11.5237
路政署	-11.5237
阿拉	-11.5238
之旅	-11.5239
▁1.	-11.5239
充满信心	-11.5239
的详情	-11.524
转递	-11.524
航天员	-11.524
聊天	-11.524
偿付	-11.524
说服力	-11.5242
纲要	-11.5242
回辟	-11.5242
波黑	-11.5243
路向	-11.5245
是妇女	-11.5245
辩护律师	-11.5246
投身	-11.5246
的女	-11.5246
有何	-11.5247
珠宝	-11.525
失踪人员	-11.525
世界贸易	-11.5252
获益	-11.5252
简直	-11.5253
火器	-11.5253
夏天	-11.5254
作斗争	-11.5255
的梦想	-11.5256
海水	-11.5258
四人	-11.526
动工	-11.5261
香港金融管理局	-11.5262
无线	-11.5264
可靠性	-11.5265
不同于	-11.5267
委员会会议	-11.5267
裁判	-11.5268
业权	-11.5269
预计在	-11.527
马路	-11.527
以书面	-11.5271
防疫	-11.5273
周围的	-11.5273
▁梁	-11.5275
管理系统	-11.5276
的修正	-11.5277
生活津贴	-11.5277
所作出的	-11.5278
离去	-11.5279
的人才	-11.5279
对我	-11.5282
不反对	-11.5282
不怕	-11.5283
新一代	-11.5283
供养	-11.5285
运输业	-11.5286
的现金	-11.5286
作决定	-11.5287
个员额	-11.5288
▁我们将	-11.5289
的改善	-11.529
曾于	-11.529
也未	-11.5295
景气	-11.5298
独立国家	-11.5302
夸	-11.5302
结构调整	-11.5303
和福利	-11.5306
工业界	-11.5306
有一名	-11.5306
出面	-11.5306
然后才	-11.5309
年徒刑	-11.5309
则应	-11.531
社会各阶层	-11.531
这三个	-11.5311
牛肉	-11.5313
2015	-11.5313
讲解	-11.5315
的名称	-11.5316
愁	-11.5316
摩纳哥	-11.5316
也说	-11.5316
将该	-11.5316
闷	-11.5316
脂肪	-11.5316
当事各方	-11.5316
解僱	-11.5317
称之为	-11.5317
耗资	-11.5317
欠佳	-11.5317
其他国家的	-11.5317
的私人	-11.5318
目录	-11.5318
尽速	-11.5318
▁他续说	-11.5318
▁譬如	-11.5319
浮动	-11.532
宽减	-11.532
干净	-11.532
减弱	-11.5321
南部的	-11.5321
开幕式	-11.5321
致意	-11.5322
维奇	-11.5322
职位空缺	-11.5323
每个国家	-11.5323
雅加达	-11.5324
差额	-11.5325
社会保险	-11.5325
较佳	-11.5325
录影带	-11.5326
公营部门	-11.5326
世界级	-11.5326
掌声	-11.5328
子里	-11.5329
文化遗产	-11.5329
这些会议	-11.533
典型的	-11.533
肩负	-11.5331
必须得到	-11.5332
是希望	-11.5333
是非常重要的	-11.5334
两类	-11.5337
臂	-11.5341
提高到	-11.5342
特色的	-11.5342
回头	-11.5343
安全保障	-11.5347
荣幸	-11.5347
唯有	-11.5348
教毓界	-11.535
服从	-11.5351
2008	-11.5351
人权状况	-11.5353
全数	-11.5355
时指出	-11.5355
的错误	-11.5358
▁继	-11.5359
委员会的建议	-11.536
搜	-11.5363
内有	-11.5369
纲	-11.537
西九龙	-11.537
安全局势	-11.537
会增加	-11.537
常驻	-11.537
九七年后	-11.5372
意见书	-11.5373
卫生和	-11.5374
而我们	-11.5375
大会通过	-11.5377
开庭	-11.5378
业内	-11.5378
挫	-11.5379
直接参与	-11.5379
的高度	-11.5379
凝聚	-11.5379
般的	-11.5379
5%。	-11.538
基础建设	-11.5382
▁迄今为止	-11.5382
应考虑到	-11.5382
浸	-11.5383
开来	-11.5384
以色列人	-11.5384
▁巴西	-11.5384
所见	-11.5384
执行其	-11.5387
50000	-11.5388
见解	-11.5389
来香港	-11.5394
的呼吁	-11.5395
刷	-11.5395
挡	-11.5396
俩	-11.5396
崔	-11.5396
脂	-11.5396
中产阶级	-11.5396
胁迫	-11.5396
杀戮	-11.5396
採纳	-11.5396
法医	-11.5397
积聚	-11.5397
挤迫	-11.5397
发电厂	-11.5398
在许多情况下	-11.5398
寒冷	-11.5398
怎么样	-11.5398
实际情况	-11.5398
这些都	-11.5398
技术能力	-11.5399
踏入	-11.5399
会计师	-11.5399
岁以下儿童	-11.54
山坡	-11.54
及其对	-11.5401
1972	-11.5402
高效率	-11.5402
人大常委会	-11.5402
16.	-11.5403
二八	-11.5404
的报导	-11.5404
他曾	-11.5405
在短短	-11.5406
是来自	-11.5406
铲除	-11.5407
的手法	-11.5408
大学毕业生	-11.5409
邪恶	-11.541
举例	-11.5413
送回	-11.5415
源自	-11.5417
空间技术	-11.5417
倒是	-11.5419
一下子	-11.5421
委员会委员	-11.5424
死亡人数	-11.5429
法律效力	-11.5429
对照	-11.5433
是台湾	-11.5434
的问题是	-11.5434
可持续发展委员会	-11.5434
是一件	-11.5436
有系统地	-11.5437
走到	-11.5438
以来一直	-11.5439
要做	-11.544
多媒体	-11.5441
社会进步	-11.5442
连串	-11.5443
发展筹资	-11.5443
的住房	-11.5444
主权国家	-11.5445
错了	-11.5446
返港	-11.5451
准军事	-11.5453
信誉	-11.5453
分隔	-11.5453
在适当	-11.5453
准则草案	-11.5454
乐器	-11.5454
和尊重	-11.5454
可获得	-11.5456
是很难	-11.5457
的特征	-11.5459
干线	-11.5461
的自然	-11.5461
志愿人员	-11.5462
身穿	-11.5462
降落	-11.5462
圣城	-11.5463
以保证	-11.5465
现年	-11.5466
急救	-11.5467
继续为	-11.5467
一月一日	-11.5469
▁直到	-11.547
▁曾	-11.5472
最主要的	-11.5472
酷	-11.5473
岳	-11.5474
出口的	-11.5475
弥	-11.5475
鞭	-11.5477
辟孕	-11.5477
勃	-11.5477
畏	-11.5477
霞	-11.5477
刘江华议员	-11.5477
黄宏发议员	-11.5477
陪伴	-11.5477
探险	-11.5477
罢免	-11.5477
神秘	-11.5478
单位内	-11.5479
之列	-11.5479
放映	-11.5479
撤军	-11.5479
抢救	-11.5479
激进	-11.5479
养毓	-11.548
摩尔多瓦共和国	-11.548
与国际	-11.548
发送	-11.5481
中华民族	-11.5482
人的尊严	-11.5483
儿童问题	-11.5483
沿线	-11.5483
分行	-11.5483
反弹	-11.5485
的销售	-11.5487
章节	-11.5488
和精神	-11.5489
交回	-11.549
相符	-11.5491
高兴地看到	-11.5492
残暴	-11.5492
尊重和	-11.5493
公认	-11.5495
每个月	-11.5497
本人认为	-11.5497
不支持	-11.5499
事发	-11.55
人权教毓	-11.55
仅在	-11.5501
而成	-11.5502
沙特	-11.5505
台海	-11.5505
必须指出	-11.5508
持续不断	-11.5509
兑现	-11.5509
司法部门	-11.5512
的临时	-11.5514
公共事务	-11.5514
负面影响	-11.5515
六成	-11.5518
我想指出	-11.5519
各专门机构	-11.552
附件二	-11.552
就业和	-11.5522
或有	-11.5522
的群体	-11.5523
的独特	-11.5528
广播电台	-11.5528
被剥夺	-11.553
他所	-11.5531
走进	-11.5531
攀	-11.5535
不具备	-11.5538
交通部	-11.5541
充分尊重	-11.5542
海洋环境	-11.5543
握	-11.5543
国际机场	-11.5544
民法	-11.5545
下降至	-11.5545
科学院	-11.5545
要求赔偿	-11.5546
副部长	-11.5548
为低	-11.555
话说	-11.5553
邮局	-11.5554
下游	-11.5555
起因	-11.5556
卑	-11.5556
瘦	-11.5557
烦	-11.5557
军备竞赛	-11.5557
退休保障	-11.5558
农历新年	-11.5558
司徒华议员	-11.5558
裡	-11.5558
洛杉矶	-11.5558
崛起	-11.5558
倾倒	-11.5559
电缆	-11.5559
预期寿命	-11.556
偏离	-11.556
筹款	-11.556
抬头	-11.5561
1.3	-11.5561
拍照	-11.5563
分销	-11.5563
贫富	-11.5563
注入	-11.5564
没有甚么	-11.5564
工友	-11.5565
风潮	-11.5565
新疆	-11.5565
偶尔	-11.5565
长远来说	-11.5567
为解决	-11.5568
次序	-11.5569
的一段	-11.5569
并认为	-11.5569
制成品	-11.557
力图	-11.557
方面的工作	-11.557
举行的会议	-11.5572
终生	-11.5574
接种	-11.5574
大都	-11.5575
香港贸易发展局	-11.5575
四月一日	-11.5575
特质	-11.5576
大奖	-11.5577
医务	-11.5577
法典	-11.5578
人权署	-11.558
致死	-11.558
之友	-11.5582
经济及社会	-11.5584
核问题	-11.5586
的一大	-11.5587
是错误的	-11.5588
被占领	-11.5588
以帮助	-11.5589
休会	-11.5589
以及与	-11.5589
见第	-11.559
有毒	-11.5592
政府要	-11.5592
还没	-11.5592
应尽快	-11.5592
风暴	-11.5592
可以让	-11.5593
公共行政	-11.5594
的头	-11.5596
联合国及其	-11.5596
建筑业	-11.5596
而没有	-11.5596
十五分	-11.5599
委员会的成员	-11.5599
准备好	-11.56
担负	-11.5601
公平和	-11.5602
▁这将	-11.5603
促进人权	-11.5605
的边缘	-11.5606
并把	-11.5607
这些行为	-11.5608
造福	-11.5608
早前	-11.5608
球队	-11.561
地形	-11.5611
采用了	-11.5613
上半年	-11.5614
调查员	-11.5615
能使	-11.5615
公分	-11.5617
来决定	-11.5619
一般都	-11.5622
小组认为	-11.5622
克里	-11.5622
▁第一个	-11.5623
▁案件	-11.5623
▁小组委员会	-11.5625
年级	-11.5626
▁阿富汗	-11.5626
恰	-11.5627
代表们	-11.5627
武装分子	-11.5627
宗案件	-11.5631
聊	-11.5632
石油公司	-11.5632
恐	-11.5636
市政总署	-11.5637
妈	-11.5638
案子	-11.5638
踪	-11.5638
猜	-11.564
两地的	-11.564
汪	-11.564
炳	-11.564
匙	-11.564
欧洲安全与合作组织	-11.564
通过谈判	-11.564
国集团和中国	-11.5641
肢体	-11.5641
顺序	-11.5641
教毓统筹局	-11.5641
资料库	-11.5641
中没有	-11.5642
健全的	-11.5642
聪明	-11.5642
整顿	-11.5642
基本权利	-11.5643
在我	-11.5645
▁阿根廷	-11.5646
依旧	-11.5647
老婆	-11.5648
会由	-11.5648
美国代表团	-11.5649
体内	-11.5651
不被	-11.5651
现代人	-11.5653
重整	-11.5654
的做法是	-11.5654
一颗	-11.5654
大地	-11.5655
选民登记	-11.5655
350	-11.5655
禁区	-11.5656
提取	-11.5658
合唱团	-11.5659
贫穷和	-11.5659
外劳	-11.566
自主权	-11.566
势必	-11.5661
不应当	-11.5661
发展成为	-11.5661
训练班	-11.5664
司令	-11.5665
楼宇的	-11.5665
地指出	-11.5666
在回答	-11.5666
卢旺达政府	-11.5668
生活费用	-11.5668
结构和	-11.5668
很差	-11.5669
是否能	-11.5672
构	-11.5672
▁倘若	-11.5673
将向	-11.5674
劫案	-11.5674
的民族	-11.5675
各有	-11.5676
激发	-11.5679
行走	-11.5679
极高	-11.568
国际工作人员	-11.5681
推定	-11.5682
成立后	-11.5683
三十七	-11.5684
不相信	-11.5685
中电	-11.5686
学界	-11.5688
人口增长	-11.5689
并须	-11.5691
个会员国	-11.5692
太长	-11.5692
资料来源	-11.5692
▁关于第	-11.5693
的差别	-11.5693
联络小组	-11.5694
包括了	-11.5694
额外的	-11.5694
认真地	-11.5696
是否会	-11.5696
为理由	-11.5698
经济损失	-11.5698
190	-11.5699
深刻的	-11.5703
高龄	-11.5703
被列为	-11.5706
住房和	-11.5707
▁该国	-11.5709
应于	-11.571
房署	-11.5711
香港文化中心	-11.5714
选出的	-11.5714
▁我们知道	-11.5714
热门	-11.5718
织	-11.5718
我国人民	-11.5719
抬	-11.572
大树	-11.572
泳	-11.5721
箭	-11.5721
掉了	-11.5722
寂	-11.5723
发展策略	-11.5723
莎	-11.5723
哦	-11.5723
涂谨申议员	-11.5723
悼念	-11.5723
廉洁	-11.5723
泛滥	-11.5723
起案件	-11.5723
马达加斯加	-11.5723
何况	-11.5723
的呼声	-11.5724
居住环境	-11.5724
劳资关系	-11.5725
优先次序	-11.5725
衍生	-11.5725
基隆	-11.5726
花莲	-11.5726
选拔	-11.5726
土地和	-11.5727
窗口	-11.5727
在南非	-11.5727
便须	-11.5727
出缺率	-11.5728
布希	-11.5728
瓦解	-11.5728
散布	-11.5729
传奇	-11.573
失业者	-11.573
清盘	-11.5731
得好	-11.5731
清楚表明	-11.5732
埃尔	-11.5733
中区	-11.5733
养老	-11.5734
工程的	-11.5735
情形下	-11.5735
这一次	-11.5736
还对	-11.5737
还要求	-11.5738
继而	-11.574
▁挪威	-11.5741
规限	-11.5742
研究生	-11.5743
出外	-11.5745
的统一	-11.5746
视听	-11.5746
▁对此	-11.5746
▁以往	-11.5747
之地	-11.5747
协商一致意见	-11.5749
名成员	-11.5749
的教学	-11.5749
的电影	-11.575
离境	-11.5753
部长理事会	-11.5754
的交流	-11.5754
受益于	-11.5755
总统选举	-11.5755
数次	-11.5755
三十八	-11.5756
保护主义	-11.5757
没有机会	-11.5758
冲突地区	-11.5759
的审查	-11.576
并支持	-11.5761
消毒	-11.5767
大会特别会议	-11.5767
最不发达国家的	-11.5768
证据显示	-11.577
工作上	-11.5771
在安哥拉	-11.5773
申请书	-11.5773
大道	-11.5774
典型	-11.5776
易于	-11.5776
专责委员会	-11.5777
不要再	-11.5778
▁海关	-11.5779
谢意	-11.5779
单是	-11.578
和经验	-11.5781
时间里	-11.5781
路段	-11.5782
的依据	-11.5783
就需要	-11.5784
声誉	-11.5787
100000	-11.5787
折磨	-11.579
继续向	-11.579
的职务	-11.5792
的含义	-11.5792
这个时候	-11.5796
的书	-11.5796
还规定	-11.5797
纽	-11.5798
行政人员	-11.5798
梁锦松	-11.58
可以得到	-11.5801
召开一次	-11.5801
煤气	-11.5801
慰	-11.5802
猴	-11.5802
的高级	-11.5803
闯	-11.5804
相当大的	-11.5804
沟	-11.5805
碳	-11.5806
焦虑	-11.5806
狭窄	-11.5806
亚太经社会	-11.5806
浪潮	-11.5807
已故	-11.5807
猪肉	-11.5808
扩大了	-11.5808
的惯例	-11.5808
的基石	-11.5808
获发	-11.5808
联席会议	-11.5809
过剩	-11.5809
蓝色	-11.581
掀起	-11.581
例行	-11.581
特殊情况	-11.581
感到关切	-11.581
优美	-11.5811
总统和	-11.5814
南美洲	-11.5815
周梁淑怡议员	-11.5815
消极影响	-11.5815
机票	-11.5816
如果你	-11.5816
设施和	-11.5816
坚决反对	-11.5816
白天	-11.5817
贩卖人口	-11.5818
国营	-11.5818
卖方	-11.582
同行	-11.5821
行政院长	-11.5821
通行证	-11.5824
达成的协议	-11.5827
▁特派团	-11.5827
双手	-11.5828
农村妇女	-11.5829
看不见	-11.583
师傅	-11.583
首脑会议上	-11.5831
的合法性	-11.5833
性虐待	-11.5836
东欧国家	-11.5836
喜悦	-11.5837
被判处	-11.5839
建议大会	-11.584
但同时	-11.584
的实质性	-11.584
仍旧	-11.584
在伦敦	-11.5842
无核武器	-11.5843
可以肯定	-11.5844
尊敬的	-11.5844
工伤	-11.5845
这只是	-11.5846
可利用	-11.5847
毕业后	-11.5848
协商后	-11.5849
任务期限	-11.5849
为确保	-11.5849
▁有人说	-11.585
诗人	-11.585
受审	-11.5852
威胁到	-11.5852
一成	-11.5857
明确表示	-11.5858
较小	-11.5858
被起诉	-11.5859
大西洋	-11.5861
可以接受的	-11.5863
的说话	-11.5864
瓦尔	-11.5864
▁在第	-11.5865
于本月	-11.5869
在会上	-11.5871
已达到	-11.5873
军用	-11.5873
投资环境	-11.5875
议会选举	-11.5877
的名单	-11.5877
买方	-11.5879
▁湟且	-11.588
泄	-11.588
新闻媒体	-11.5881
涵	-11.5881
作为一种	-11.5884
很多问题	-11.5884
非洲人	-11.5885
必须采取	-11.5885
于昨日	-11.5886
伊拉克共和国	-11.5887
中得到	-11.5888
不打算	-11.5888
创办	-11.5889
作出适当	-11.5889
未来发展	-11.5889
独自	-11.5889
煞	-11.589
藤	-11.589
当务之急	-11.589
决策过程	-11.589
编号	-11.589
只要有	-11.5891
的措辞	-11.5891
是绝对	-11.5892
定论	-11.5892
超逾	-11.5892
枪支	-11.5894
战士	-11.5894
春季	-11.5894
热切	-11.5894
做什么	-11.5895
帽子	-11.5895
可持续发展的	-11.5896
宗教信仰	-11.5896
缺席	-11.5896
▁出席	-11.5897
乐园	-11.5898
可能影响	-11.5899
太过	-11.5899
但对于	-11.5901
反复	-11.5901
我的特别代表	-11.5902
暴露	-11.5904
西帝汶	-11.5905
充分地	-11.5906
的公共	-11.5907
▁5.	-11.5908
没什么	-11.5908
之害	-11.5909
销售额	-11.5909
司司长	-11.591
名警察	-11.591
勋章	-11.5911
计划于	-11.5912
但若	-11.5912
之苦	-11.5912
的条件下	-11.5913
确保在	-11.5913
安全措施	-11.5913
侵犯人权行为	-11.5916
的信誉	-11.5918
非正规	-11.5919
本议定书	-11.5921
很好地	-11.5922
关心的问题	-11.5923
工场	-11.5924
更美好	-11.5925
委员会注意到	-11.5927
工作文件	-11.5928
布拉	-11.5929
外交关系	-11.5929
分别于	-11.5933
总数为	-11.5936
的政治意愿	-11.5937
好奇	-11.5938
对它	-11.5938
她在	-11.5942
背景下	-11.5943
为之	-11.5943
繁	-11.5944
近几年	-11.5945
里约	-11.5945
圣地	-11.5946
平均年龄	-11.5947
七十五	-11.5948
妇女地位委员会	-11.5948
看作是	-11.5949
在立法会	-11.5953
数天	-11.5955
注册的	-11.5956
限期	-11.5956
必须继续	-11.5956
▁我们现在	-11.5957
生活质量	-11.5958
顺利完成	-11.5959
支持者	-11.5959
的司法	-11.596
绘	-11.5961
一连串的	-11.5961
房价	-11.5964
斯塔	-11.5965
该岛	-11.5966
在委员会	-11.5966
休假	-11.5966
三十三	-11.5967
环境污染	-11.5967
炸药	-11.5968
开辟	-11.5968
慰问	-11.5969
叠	-11.5969
核电	-11.597
给你	-11.597
值得我们	-11.5971
度假	-11.5972
就无法	-11.5973
缠	-11.5975
引擎	-11.5975
翔	-11.5975
晒	-11.5975
荽缩	-11.5975
竭尽全力	-11.5975
杨孝华议员	-11.5975
小武器和轻武器	-11.5975
港进联	-11.5975
普查	-11.5975
漂亮	-11.5975
货柜码头	-11.5975
偷渡	-11.5976
巴拉圭	-11.5976
舒服	-11.5976
现况	-11.5976
1373(200	-11.5976
在家里	-11.5976
少数族裔	-11.5976
审裁处	-11.5977
身材	-11.5977
附属法例	-11.5978
参加的	-11.5979
都可	-11.5979
根据联合国	-11.5979
交通挤塞	-11.598
获利	-11.598
络	-11.5981
动植物	-11.5981
女工	-11.5982
佣	-11.5982
的潜在	-11.5982
进行检讨	-11.5982
各成员	-11.5983
的商品	-11.5983
中的作用	-11.5983
化工	-11.5985
业余	-11.5988
刑期	-11.5989
明白到	-11.5989
格外	-11.5989
会觉得	-11.599
凭着	-11.599
的信念	-11.599
免费提供	-11.5991
坚决支持	-11.5991
历年	-11.5996
将通过	-11.5997
按照第	-11.5998
向美国	-11.6
合法化	-11.6001
极其重要	-11.6002
9000	-11.6007
研究金	-11.6007
无比	-11.6007
是全球	-11.6009
复制	-11.6011
严重威胁	-11.6011
计划和	-11.6012
顺利进行	-11.6013
反省	-11.6014
中国共产党	-11.6015
着重于	-11.6015
该市	-11.6015
仍然有	-11.6016
陶瓷	-11.6019
节余	-11.6019
西洋	-11.6021
和建议	-11.6021
子孙	-11.6022
本身就	-11.6026
内罗毕	-11.6026
每一位	-11.6026
向外	-11.6026
降低了	-11.6026
被动	-11.6027
▁总督	-11.603
肃	-11.6031
我不知道	-11.6032
接受教毓	-11.6033
准确地	-11.6033
必须考虑到	-11.6035
贸	-11.6036
加费	-11.6036
四方	-11.6037
这个目标	-11.6037
▁委员会在	-11.6039
经济成长	-11.604
所建议的	-11.604
东帝汶人	-11.604
大型的	-11.6042
如何处理	-11.6043
这群	-11.6043
的运动	-11.6043
人因	-11.6045
经济部	-11.6045
代表指出	-11.6046
日间	-11.6047
地主	-11.6048
的生活方式	-11.6048
条中	-11.6048
做出了	-11.6049
国家和地区	-11.605
我们一直	-11.605
广阔	-11.6051
完结	-11.6052
的音乐	-11.6052
患上	-11.6052
实现可持续发展	-11.6053
获邀	-11.6054
所称	-11.6055
毅	-11.6057
媒	-11.6058
市镇	-11.606
罩	-11.606
奴役	-11.606
非洲经委会	-11.606
芝	-11.606
膜	-11.606
溺	-11.606
温室气体	-11.606
温馨	-11.606
拘押	-11.606
惹	-11.606
全面禁止核试验条约	-11.606
机电工程署	-11.606
法兰克福机场	-11.6061
的主要任务	-11.6061
私隐	-11.6061
反驳	-11.6062
礼拜	-11.6064
子弟	-11.6064
说起	-11.6064
输入劳工	-11.6064
海事	-11.6065
真空	-11.6065
评核	-11.6066
1964	-11.6066
茶叶	-11.6067
由一个	-11.6067
世界人口	-11.6068
弱势	-11.6068
张贴	-11.6069
开出	-11.607
电单车	-11.607
总计	-11.6071
雨量	-11.6071
的期限	-11.6072
▁新闻部	-11.6072
发扬	-11.6072
平时	-11.6072
不确定性	-11.6073
挑起	-11.6074
我们当然	-11.6074
结业	-11.6075
所发生的	-11.6077
变得更加	-11.6077
终点	-11.6078
运气	-11.6079
为首的	-11.608
两点	-11.608
内务部	-11.6082
在街上	-11.6083
付给	-11.6085
正值	-11.6086
犯罪分子	-11.6086
应向	-11.6088
可悲	-11.6088
再次呼吁	-11.6089
5,000	-11.6089
的法官	-11.6091
对整个	-11.6091
工作条件	-11.6091
火山	-11.6092
▁保安局局长	-11.6093
之初	-11.6094
欢乐	-11.6095
不治	-11.6095
同样重要	-11.6096
奠定	-11.6098
即是说	-11.6098
经济上	-11.6099
教员	-11.6102
美金	-11.6102
成交	-11.6102
解决这个问题	-11.6102
与社会	-11.6103
不需	-11.6106
一年的	-11.6112
而且对	-11.6118
贸易法委员会	-11.612
就可能	-11.6121
三年前	-11.6121
的讲话	-11.6122
当他	-11.6122
的平民	-11.6123
科学技术	-11.6123
地产商	-11.6124
承付	-11.6124
余下	-11.6125
的监管	-11.6127
生死	-11.6128
低技术	-11.6128
如要	-11.6129
法律框架	-11.6129
省市	-11.613
这个国家	-11.6134
▁一方面	-11.6134
无法接受	-11.6134
现时香港	-11.6135
疗	-11.6135
角度看	-11.6135
屋顶	-11.6137
的李	-11.6137
为执行	-11.6138
已得到	-11.6141
就象	-11.6142
剥夺了	-11.6143
时期的	-11.6144
由于其	-11.6145
甫	-11.6146
胖	-11.6146
兄	-11.6146
谦	-11.6147
蜜	-11.6147
1998-1999	-11.6147
教统会	-11.6147
叶刘淑仪	-11.6147
深水埗	-11.6147
陪审团	-11.6147
浪漫	-11.6147
挂钩	-11.6147
一会儿	-11.6147
灵魂	-11.6147
抽签	-11.6147
▁遗憾的是	-11.6148
微薄	-11.6148
操守	-11.6148
拜访	-11.6148
的复杂性	-11.6148
宪报	-11.6148
电子邮件	-11.6148
交涉	-11.6149
维和	-11.6149
人丧生	-11.6149
缺失	-11.6149
份额	-11.6149
视觉	-11.615
防护	-11.615
保安局	-11.6152
凶手	-11.6152
白宫	-11.6153
加剧了	-11.6153
平稳	-11.6154
就越	-11.6154
轮候时间	-11.6155
不认为	-11.6158
考量	-11.6158
1977	-11.6159
事态	-11.6159
讲师	-11.6159
先决条件	-11.616
到台湾	-11.616
原材料	-11.6161
兵力	-11.6162
单单	-11.6162
建交	-11.6163
定出	-11.6163
委员会审议	-11.6163
的批准	-11.6169
数十年	-11.617
违背了	-11.617
有一项	-11.6171
▁据了解	-11.6173
所学校	-11.6173
本地工人	-11.6174
较低的	-11.6175
加班	-11.6175
联大	-11.6176
的不利影响	-11.6177
▁到了	-11.6177
利益冲突	-11.6181
不同意见	-11.6181
的战斗	-11.6182
大量增加	-11.6182
司法独立	-11.6186
确实是	-11.6186
所必需的	-11.6189
莫大	-11.619
派系	-11.6192
对人权的	-11.6192
荣幸地	-11.6192
国际化	-11.6192
犯下的	-11.6192
以及联合国	-11.6194
▁各位	-11.6195
理所当然	-11.6197
同时还	-11.6198
▁12	-11.6198
九时	-11.6198
有几个	-11.6199
山顶	-11.6199
二手	-11.6201
经济复苏	-11.6202
公共政策	-11.6202
大桥	-11.6203
逐年	-11.6203
的边界	-11.6203
在安全理事会	-11.6203
耕地	-11.6205
却在	-11.6208
高雄市	-11.6211
难民问题	-11.6212
起步	-11.6212
可以利用	-11.6213
22%	-11.6215
转型期	-11.6218
措词	-11.6218
剥	-11.6219
105	-11.6219
▁若干	-11.622
财政和	-11.622
非常高兴	-11.6221
完毕	-11.6221
20000	-11.6223
出生的	-11.6224
法律文书	-11.6228
尸	-11.6229
流向	-11.6229
月举行的	-11.623
和破坏	-11.623
扁	-11.6231
允	-11.6231
十五年	-11.6232
立方米	-11.6232
淋	-11.6233
株	-11.6233
清真寺	-11.6233
各行各业	-11.6233
李华明议员	-11.6233
视而不见	-11.6234
融洽	-11.6234
罗姆人	-11.6234
碎片	-11.6234
晚上八时	-11.6234
竞投	-11.6234
检测	-11.6234
申领	-11.6235
普通照会	-11.6235
心血	-11.6235
餐馆	-11.6236
激情	-11.6236
景点	-11.6236
个人自由	-11.6238
故乡	-11.6238
废气	-11.6238
无从	-11.6238
借用	-11.6238
调查后	-11.6239
履行职责	-11.624
景象	-11.624
反腐败	-11.6241
每一个人	-11.6241
▁发言人指出	-11.6242
地下水	-11.6242
三十四	-11.6243
无助于	-11.6243
食物权	-11.6243
三百多	-11.6245
一个由	-11.6245
但实际上	-11.6246
供市民	-11.6246
任何地方	-11.6247
信函	-11.6247
任教	-11.6247
说成是	-11.6247
阿富汗境内	-11.6248
写的	-11.6248
回顾了	-11.6249
一星期	-11.6249
表达意见	-11.6251
在立法局	-11.6252
的合理	-11.6254
知识和	-11.6256
联合国组织	-11.6257
愈来愈多	-11.6259
评定	-11.6259
金融服务	-11.6263
和私营部门	-11.6265
藏有	-11.6267
放下	-11.6268
年报	-11.6269
拉美	-11.627
好事	-11.6271
十九岁	-11.6271
个省	-11.6276
肯定是	-11.6276
劳动力市场	-11.6278
税务局	-11.6279
是符合	-11.628
我深信	-11.628
过渡政府	-11.628
经济学家	-11.6281
晚年	-11.6281
提供技术	-11.6282
劳动市场	-11.6284
16%	-11.6285
派往	-11.6286
在过去的	-11.6292
民主进程	-11.6293
宪法第	-11.6293
罢	-11.6294
方面取得	-11.6296
如果政府	-11.6297
就以	-11.6298
的适用	-11.6298
将能够	-11.6299
宏观	-11.6299
的罪名	-11.6301
民主派	-11.6301
曾向	-11.6302
决定草案	-11.6302
得来的	-11.6303
当成	-11.6304
全面和	-11.6306
又没有	-11.6306
法律上	-11.6306
绩	-11.6307
东北部	-11.6307
但事实上	-11.6307
是很重要的	-11.6309
的内部	-11.631
的死亡	-11.6311
带回	-11.6311
活产	-11.6312
颁布的	-11.6312
厘	-11.6313
▁有时	-11.6313
专业化	-11.6314
鹏	-11.6315
讯号	-11.6316
车厢	-11.6316
不幸的是	-11.6318
经历过	-11.6319
宣读	-11.6319
保健和	-11.6319
原因之一	-11.6319
深入调查	-11.632
汁	-11.6321
巢	-11.6321
螺	-11.6321
玄	-11.6321
大会上	-11.6321
诺贝尔和平奖	-11.6321
托克劳	-11.6321
均会	-11.6322
平稳过渡	-11.6322
迟迟	-11.6322
估算	-11.6322
在某些情况下	-11.6323
功效	-11.6323
形状	-11.6323
的船只	-11.6323
发掘	-11.6324
反覆	-11.6324
登陆	-11.6324
却也	-11.6324
平民人口	-11.6324
喝酒	-11.6324
收缩	-11.6324
成千上万	-11.6324
其中有些	-11.6324
表述	-11.6327
二十多	-11.6327
农药	-11.6328
推选	-11.6328
▁阿	-11.6328
什么时候	-11.6329
政坛	-11.6329
型态	-11.6331
文凭	-11.6332
仅占	-11.6333
滞留	-11.6334
(6)	-11.6336
的任务是	-11.6336
轮流	-11.6338
青山	-11.6339
可爱	-11.6341
亦即	-11.6342
赔偿责任	-11.6344
两星期	-11.6344
勇于	-11.6347
赶上	-11.6347
处分	-11.6347
脆弱性	-11.6347
众多的	-11.6348
对任何	-11.6351
前一年	-11.6351
首位	-11.6352
要求在	-11.6352
该文件	-11.6352
特别是对	-11.6353
竞争政策	-11.6353
▁这意味着	-11.6353
也许是	-11.6353
代表发言	-11.6354
大企业	-11.6354
生活费	-11.6357
▁让我	-11.6357
冬天	-11.6358
首先要	-11.6359
和他的	-11.6361
及相关	-11.6362
忙着	-11.6363
议长	-11.6363
香港国际机场	-11.6367
发问	-11.6368
人权事务高级专员	-11.6368
欣慰	-11.6369
双方同意	-11.6369
第十届	-11.637
负责管理	-11.6371
联系起来	-11.6374
也因此	-11.6374
十大	-11.6378
方案中	-11.6378
多年前	-11.6378
不下	-11.6378
的情绪	-11.638
进行评估	-11.6382
这儿	-11.6385
的移民	-11.6386
大大增加	-11.6386
心力	-11.6387
在法律上	-11.6388
电子贸易	-11.6388
我感谢	-11.639
格拉	-11.6391
▁凡	-11.6391
平等和	-11.6395
新年	-11.6395
斤	-11.6397
脏	-11.6399
标准化	-11.64
贡	-11.6401
常设委员会	-11.6402
再次强调	-11.6402
禽	-11.6404
椅	-11.6405
也有人	-11.6406
慎	-11.6407
讽刺	-11.6407
掘	-11.6407
的教训	-11.6407
棒球	-11.6409
全职	-11.6409
垒	-11.6409
笛	-11.6409
厄	-11.641
相辅相成	-11.641
描绘	-11.641
联塞部队	-11.641
泵	-11.641
机管局	-11.641
牢固	-11.641
有史以来	-11.641
▁亚洲网	-11.641
杨森议员	-11.641
抛弃	-11.641
撤消	-11.641
圭亚那	-11.6411
评注	-11.6411
严谨	-11.6411
严密	-11.6411
的宗教	-11.6412
掌管	-11.6412
短期内	-11.6413
权力下放	-11.6413
时至今日	-11.6413
放慢	-11.6414
解答	-11.6414
海拔	-11.6415
装修	-11.6415
▁香港的	-11.6417
在世界上	-11.6419
留给	-11.6419
无牌	-11.6419
团结一致	-11.6419
讲求	-11.6421
▁他希望	-11.6421
人道主义组织	-11.6425
权利和义务	-11.6425
须于	-11.6426
对平民	-11.6428
教派	-11.6428
自动化	-11.6429
该会	-11.643
发展目标	-11.643
历经	-11.643
未获	-11.6432
有更多的	-11.6433
使这些	-11.6435
外交和	-11.6435
仍需	-11.6435
南部非洲	-11.6436
驻军	-11.6436
去年十二月	-11.6437
批判	-11.6437
一心	-11.6438
等其他	-11.6439
▁谈到	-11.6439
对一些	-11.6443
工程项目	-11.6444
四十七	-11.6446
也指出	-11.6447
九一年	-11.6447
▁大部分	-11.6448
七十年代	-11.6448
总务委员会	-11.645
开设了	-11.6451
仍须	-11.6452
解决了	-11.6452
▁条例草案	-11.6452
更广泛	-11.6453
完了	-11.6453
在以色列	-11.6456
风光	-11.6456
看守	-11.6457
预算中	-11.6458
顺应	-11.6458
费用为	-11.646
方法来	-11.6462
和扩大	-11.6463
讨论如何	-11.6466
淘汰	-11.6466
班次	-11.6466
▁吴	-11.6467
的和平进程	-11.6469
漫长	-11.647
一分	-11.647
为改善	-11.6471
印第安人	-11.6471
违反国际法	-11.6473
本委员会	-11.6475
的和平与安全	-11.6476
编配	-11.6476
国务卿	-11.6477
合资	-11.6478
联合国工作人员	-11.6479
至今仍	-11.6486
协商会议	-11.6487
国际事务	-11.6487
维尔	-11.6489
的结论是	-11.649
只能在	-11.649
警觉	-11.649
民政事务局	-11.6491
能为	-11.6491
激增	-11.6491
等各方面	-11.6492
为本港	-11.6492
存货	-11.6493
勉	-11.6494
拘捕一名	-11.6495
的飞机	-11.6495
催	-11.6496
昏	-11.6497
研究成果	-11.6497
满意地注意到	-11.6498
▁建议	-11.6499
沾	-11.6499
贞	-11.6499
唔	-11.6499
茅	-11.6499
葡	-11.6499
菊	-11.6499
其本国	-11.6499
难民和流离失所者	-11.6499
洁净	-11.6499
揭幕	-11.65
十九世纪	-11.65
投注	-11.6501
年老	-11.6501
他们可以	-11.6501
▁有鉴于	-11.6502
一千二百	-11.6502
的诉讼	-11.6503
的旅客	-11.6503
接替	-11.6504
▁特别报告员在	-11.6504
各州	-11.6504
的资助	-11.6504
不曾	-11.6505
尚待	-11.6505
的优先	-11.6505
紧急状态	-11.6506
人权机构	-11.6508
念书	-11.6508
经济和政治	-11.6509
相称	-11.6509
流浪	-11.651
决议案	-11.6512
难度	-11.6513
存在于	-11.6513
也同样	-11.6514
的措词	-11.6515
将包括	-11.6515
奥尔	-11.6516
▁看来	-11.6517
趋于	-11.6518
如期	-11.6518
没有发生	-11.6518
具体行动	-11.6518
在开罗	-11.6519
生殖健康	-11.6519
的几个	-11.6521
与之	-11.6521
则以	-11.6523
的物品	-11.6524
一期	-11.6525
后再	-11.6525
屋苑	-11.6526
信用	-11.6527
行为守则	-11.6527
取消了	-11.6528
▁不论	-11.6528
三十多	-11.6532
合伙人	-11.6532
养老金	-11.6533
极少数	-11.6535
痛苦的	-11.6535
叫做	-11.6536
的统计数字	-11.6536
方面的问题	-11.6537
和提高	-11.6538
资金来源	-11.654
使妇女	-11.654
量度	-11.6541
发展方向	-11.6542
更难	-11.6543
安宁	-11.6543
今午	-11.6543
当地时间	-11.6544
主委	-11.6544
还记得	-11.6544
数十万	-11.6548
的眼光	-11.6548
后不久	-11.655
住家	-11.6551
起义	-11.6552
强国	-11.6554
更深入	-11.6554
这些目标	-11.6555
上一次	-11.6555
儿童权利委员会	-11.6557
相当大	-11.6558
装设	-11.6559
的象征	-11.6559
区域集团	-11.656
据报道	-11.656
九八	-11.656
的索赔	-11.656
造成的影响	-11.656
颁布了	-11.6561
输送	-11.6563
担	-11.6563
还应该	-11.6563
二人	-11.6564
都希望	-11.6566
看一看	-11.6568
也开始	-11.6569
塑造	-11.6569
的路线	-11.657
买了	-11.6571
可观	-11.6572
我不是	-11.6572
上海市	-11.6573
百姓	-11.6573
其经济	-11.6575
▁谨随函附上	-11.6575
将之	-11.6576
▁我们已	-11.6579
回港	-11.6581
发动了	-11.6583
有相当	-11.6584
四十六	-11.6584
削	-11.6584
拾	-11.6585
年龄组	-11.6585
的僱员	-11.6586
▁约	-11.6587
淹	-11.6588
的有效性	-11.6588
其主要	-11.6588
婉	-11.6589
枢纽	-11.6589
归因于	-11.6589
黄大仙	-11.6589
隐瞒	-11.6589
何俊仁议员	-11.6589
肥胖	-11.6589
突击搜查	-11.6589
就是在	-11.6589
肺癌	-11.6589
乳癌	-11.6589
长沙湾	-11.6589
竣工	-11.6589
戒毒	-11.659
也知道	-11.6591
服役	-11.6591
犯了	-11.6591
弹道导弹	-11.6591
的宝贵	-11.6591
细致	-11.6591
坚实	-11.6592
参展	-11.6592
入狱	-11.6592
亲戚	-11.6592
亚洲及太平洋	-11.6592
总人数	-11.6593
排污费	-11.6593
酒精	-11.6593
和建立	-11.6593
勉强	-11.6594
讯问	-11.6594
的成效	-11.6594
两个市政局	-11.6594
预订	-11.6595
流出	-11.6595
居于	-11.6595
结合起来	-11.6595
程式	-11.6597
第一天	-11.6597
毛病	-11.6598
头发	-11.66
等同于	-11.6601
1965	-11.6603
1945	-11.6604
特别协调员	-11.6605
国家政策	-11.6605
主持的	-11.6606
尤其如此	-11.6606
土地使用	-11.6607
主观	-11.6607
它认为	-11.6609
▁杨	-11.6609
新华社	-11.6612
中英双方	-11.6614
▁委员会指出	-11.6615
管理权	-11.6616
不见得	-11.6616
可能使	-11.6616
与其他国家	-11.6617
生署	-11.6621
繁荣安定	-11.6622
表示遗憾	-11.6622
每年平均	-11.6622
易受	-11.6623
四十二	-11.6624
恐怖行为	-11.6625
就被	-11.6625
调查队	-11.6626
以及关于	-11.6626
国家法律	-11.6628
天文	-11.663
国政府	-11.6631
疑虑	-11.6632
感到失望	-11.6632
善于	-11.6635
和培训	-11.6635
23%	-11.6637
任期内	-11.6638
警务	-11.6638
虽有	-11.664
安全网	-11.6641
的胜利	-11.6641
14%	-11.6641
司法系统	-11.6642
生机	-11.6644
来进行	-11.6644
阴影	-11.6647
美国国务院	-11.6647
土地上	-11.6649
的房屋	-11.6649
总收入	-11.6655
代表权	-11.6656
的冲击	-11.666
生于	-11.6661
选举结果	-11.6662
术语	-11.6662
传统上	-11.6663
国家责任	-11.6663
详细说明	-11.6665
看好	-11.6666
权限	-11.6666
同业	-11.6667
个人资料	-11.6667
整个世界	-11.667
老化	-11.6671
已经被	-11.6671
另一名	-11.6672
24%	-11.6672
自由贸易区	-11.6673
庸	-11.6674
我不会	-11.6677
卢萨卡	-11.6677
达至	-11.6678
遣散	-11.6678
领事馆	-11.6678
密切的	-11.6679
碑	-11.6679
大四	-11.6679
舌	-11.668
姜	-11.668
眷	-11.668
业主立案法团	-11.668
纱	-11.668
袁	-11.668
讚扬	-11.6681
申索	-11.6681
外交使团	-11.6681
牢房	-11.6681
剧烈	-11.6681
全球环境	-11.6681
四天	-11.6681
迂害	-11.6682
的状态	-11.6682
安全与稳定	-11.6682
得出结论	-11.6682
所有国家都	-11.6682
出版了	-11.6682
泊车位	-11.6683
市场准入	-11.6683
消防员	-11.6685
高价	-11.6685
造价	-11.6685
手工	-11.6686
寻求庇护者	-11.6686
它还	-11.6686
加倍努力	-11.6686
问题工作组	-11.6687
班吉	-11.6687
卸	-11.6688
发电机	-11.6688
美容	-11.6688
频频	-11.6689
要求联合国	-11.6689
主席团成员	-11.669
没人	-11.6692
当地人	-11.6693
世代	-11.6694
应该有	-11.6694
进食	-11.6695
订购	-11.6696
▁下列	-11.6699
绝非	-11.67
商谈	-11.67
这些数字	-11.67
军事和	-11.6701
汇集	-11.6702
都不是	-11.6702
具体问题	-11.6702
一百万	-11.6705
煤矿	-11.6706
国会议员	-11.6708
和支助	-11.671
进一步恶化	-11.6713
进一步扩大	-11.6713
为重点	-11.6715
监测机制	-11.6719
研究如何	-11.6719
五十二	-11.6722
到最后	-11.6725
备用	-11.6725
段落	-11.6726
的调查结果	-11.6727
贷	-11.6729
与各	-11.6731
当地工作人员	-11.6732
风景	-11.6734
▁不管	-11.6734
就连	-11.6735
被占领的	-11.6737
服用	-11.6739
经国先生	-11.674
大律师	-11.6742
援助方案	-11.6745
忆及	-11.6745
德拉	-11.6746
六时	-11.6747
之行	-11.6748
资源分配	-11.6751
忘记了	-11.6752
就如何	-11.6757
千禧年	-11.6758
几点	-11.676
停留在	-11.676
应立即	-11.6761
证据证明	-11.6762
大人	-11.6763
崇	-11.6765
我们谨	-11.6765
儒	-11.6765
的调整	-11.6766
直接投资	-11.6766
提供了一个	-11.6767
最初的	-11.6768
角度来看	-11.6771
号称	-11.6771
通车	-11.6771
运转	-11.6771
梨	-11.6771
筹集	-11.6772
欧洲经委会	-11.6772
羁押	-11.6772
循序渐进	-11.6772
仅次于	-11.6772
布鲁塞尔	-11.6772
激励	-11.6772
恶性循环	-11.6772
人道主义事务协调厅	-11.6772
盗版光碟	-11.6772
万多	-11.6772
交界	-11.6772
紧缩	-11.6773
刑法典	-11.6773
缉获量	-11.6773
一併	-11.6773
▁科威特	-11.6774
夺取	-11.6774
夸张	-11.6774
填写	-11.6775
对世界	-11.6776
曲解	-11.6776
你看	-11.6776
四虐	-11.6776
生境	-11.6777
参谋长	-11.6777
1973	-11.6777
保安司	-11.6777
中小型	-11.6777
的情报	-11.6779
湖南	-11.6779
中国经济	-11.6779
及服务	-11.6779
中获得	-11.678
国有企业	-11.6781
荣获	-11.6782
人均收入	-11.6782
建筑师	-11.6783
保安部队	-11.6784
每隔	-11.6785
选择性	-11.6786
开端	-11.6786
头痛	-11.6787
精心	-11.6787
提出一些	-11.6788
要么	-11.6788
尽一切努力	-11.6788
刚好	-11.6791
邻近地区	-11.6791
分割	-11.6792
的花	-11.6792
支援服务	-11.6792
款待	-11.6793
热心	-11.6793
的优先事项	-11.6795
▁近	-11.6795
我真的	-11.6796
南联盟	-11.6796
更进一步	-11.6797
的妻子	-11.68
天后	-11.6801
一千三百	-11.6802
自助	-11.6802
特定的	-11.6803
中提到	-11.6803
写下	-11.6804
均应	-11.6804
减少贫穷	-11.6805
交货	-11.6806
▁三	-11.6807
瞩目	-11.6808
勋	-11.6808
手里	-11.6808
必须由	-11.6808
的希望	-11.6809
的受访者	-11.6809
由国家	-11.681
通知委员会	-11.6811
财政预算	-11.6814
大火	-11.6815
新界西北	-11.6816
因为没有	-11.6816
有若干	-11.6817
的暴力行为	-11.6817
前几年	-11.6818
本港市民	-11.6818
亦可以	-11.682
科技发展	-11.682
公屋居民	-11.6821
议员提出	-11.6821
28%	-11.6822
关系到	-11.6824
不人道	-11.6824
称作	-11.6824
和责任	-11.6824
政府已经	-11.6825
(2	-11.6826
轴	-11.6828
不尊重	-11.6829
境界	-11.6831
▁政府今日	-11.6831
第三阶段	-11.6833
农历	-11.6834
的保留	-11.6834
必须通过	-11.6835
法律界	-11.6836
学士学位	-11.6837
年代中期	-11.6839
的意识	-11.6839
和秘书处	-11.684
美化	-11.6841
的命令	-11.6843
或被	-11.6843
品味	-11.6845
竞争性	-11.6846
的旅费	-11.6851
恶劣的	-11.6852
提出质疑	-11.6852
比以前	-11.6852
认证	-11.6852
巴勒斯坦难民	-11.6853
展品	-11.6855
推迟到	-11.6855
保费	-11.6855
四位	-11.6855
但要	-11.6856
在此之前	-11.6856
重大影响	-11.6856
▁如果没有	-11.6857
对市民	-11.6857
而来的	-11.6858
一语	-11.686
共接获	-11.686
四项	-11.686
建立新的	-11.6861
挤塞	-11.6861
最明显的	-11.6862
部分地区	-11.6862
无辜的	-11.6862
抚	-11.6863
九点	-11.6864
安老院	-11.6864
焚	-11.6864
移徙者	-11.6864
铸	-11.6864
开业	-11.6864
扯	-11.6864
愧	-11.6864
拉加经委会	-11.6864
谈一谈	-11.6864
遴选	-11.6864
启德机场	-11.6864
厉害	-11.6865
博茨瓦纳	-11.6865
借鉴	-11.6865
冈比亚	-11.6865
原产地	-11.6865
压缩	-11.6865
较去年同期	-11.6866
和能力	-11.6867
收看	-11.6867
立例	-11.6868
有线电视	-11.6868
选择权	-11.6868
共享	-11.6869
理事国	-11.6869
难民和	-11.687
而进行的	-11.687
下一次	-11.6871
解说	-11.6871
成败	-11.6872
酒楼	-11.6874
公安条例	-11.6875
推广活动	-11.6875
这个计划	-11.6876
内容包括	-11.6876
恐怖主义袭击	-11.6876
车费	-11.6877
警察工作队	-11.688
均已	-11.688
登山	-11.688
社会经济发展	-11.6881
▁该方案	-11.6882
仍然没有	-11.6882
这座	-11.6884
要到	-11.6885
我希望政府	-11.6886
十万元	-11.6887
一手	-11.6887
出色的	-11.6891
比如说	-11.6891
道义上	-11.6891
又会	-11.6893
意念	-11.6894
数字显示	-11.6894
以便为	-11.6895
一行	-11.6895
要求提供	-11.6896
所受的	-11.6896
重大问题	-11.6897
与和解	-11.6899
上市公司	-11.69
所述的	-11.69
平均每年	-11.69
可被	-11.6901
园区	-11.6901
东海	-11.6902
法学	-11.6902
报刊	-11.6903
进行一项	-11.6905
代表欧洲联盟	-11.6907
房屋政策	-11.691
小组建议	-11.691
台东	-11.6911
致以	-11.6913
想想	-11.6913
不经	-11.6913
任何人士	-11.6914
以支持	-11.6914
拉丁美洲国家	-11.6915
发生过	-11.6915
人道主义危机	-11.6915
并得到	-11.6917
分发给	-11.6918
将就	-11.6918
和效率	-11.6918
以增加	-11.6919
人的生命	-11.6919
可能受到	-11.6921
1200	-11.6922
政策和方案	-11.6922
不忘	-11.6923
的分岐	-11.6924
云南	-11.6925
报告显示	-11.6926
服刑	-11.6926
的主流	-11.6927
熟练	-11.6927
在台	-11.6927
英国人	-11.693
他要	-11.6931
各政党	-11.6931
整体利益	-11.6931
确认了	-11.6932
人数超过	-11.6934
证词	-11.6934
汽	-11.6935
初次	-11.6936
延至	-11.6937
海南	-11.6938
历史意义	-11.6939
余下的	-11.694
山上	-11.6943
▁迄今	-11.6943
上山	-11.6943
已为	-11.6943
的时间内	-11.6944
的先决条件	-11.6944
全面地	-11.6944
极具	-11.6946
水管	-11.6946
触及	-11.6948
广为	-11.6949
还是要	-11.6949
在家中	-11.695
北朝鲜	-11.6952
若不	-11.6953
责任感	-11.6953
殊	-11.6955
人民和政府	-11.6955
拘	-11.6955
85%	-11.6955
之间建立	-11.6956
捡	-11.6956
常常是	-11.6956
厨	-11.6957
免签证	-11.6957
卧	-11.6957
砂	-11.6957
而该	-11.6958
归咎于	-11.6958
曾俊华	-11.6958
温哥华	-11.6958
土库曼斯坦	-11.6958
据我所知	-11.6958
大专院校	-11.6958
从根本上	-11.6958
威廉	-11.6958
遗弃	-11.6958
灭绝种族	-11.6958
追讨	-11.6958
手提电话	-11.6958
戒严	-11.6958
倒塌	-11.6958
有近	-11.6959
生产总值	-11.6959
一九八四年	-11.6959
互惠	-11.6959
受阻	-11.696
失效	-11.696
电讯管理局	-11.6961
全日制学生	-11.6961
数码港	-11.6962
勒索	-11.6962
果然	-11.6962
自然环境	-11.6962
非常大	-11.6963
回乡	-11.6964
海鲜	-11.6965
检疫	-11.6965
尔先生	-11.6967
消费品	-11.6967
大体上	-11.6968
开始进行	-11.6968
求职者	-11.6968
一九四	-11.6968
不做	-11.6969
清朝	-11.697
五天	-11.697
民歌	-11.6971
提出要求	-11.6971
特拉	-11.6971
事事	-11.6972
审议大会	-11.6973
大球场	-11.6973
年龄介乎	-11.6975
武装集团	-11.6975
新千年	-11.6976
断定	-11.6976
蓬勃发展	-11.6976
战争罪	-11.6976
▁那些	-11.6977
优先权	-11.6978
都说	-11.6979
创造条件	-11.698
该行业	-11.6981
一枚	-11.6981
有效执行	-11.6981
多重	-11.6982
渡过	-11.6983
可以把	-11.6983
更佳	-11.6984
绝不会	-11.6984
考虑如何	-11.6984
企业界	-11.6986
提高其	-11.6986
政府间组织	-11.6986
▁我记得	-11.6988
在这种情况下	-11.6988
合理化	-11.6989
表示了	-11.6989
个人或	-11.6991
的出现	-11.6992
剧本	-11.6992
的业绩	-11.6993
无国籍	-11.6993
强力	-11.6993
民主联盟	-11.6993
具体措施	-11.6993
受益人	-11.6994
杰出的	-11.6995
▁苏丹	-11.6995
1800	-11.6995
大片	-11.6996
可能产生	-11.6997
明确指出	-11.6997
的特性	-11.6998
仪式上	-11.6998
教毓水平	-11.6998
调查团	-11.6999
该股	-11.7
本世纪	-11.7
这些儿童	-11.7001
正正	-11.7001
押后	-11.7002
水中	-11.7005
各种各样的	-11.7006
国家公园	-11.7006
手持	-11.7008
密切联系	-11.7009
全新	-11.701
十一时	-11.7012
各种不同	-11.7012
船长	-11.7014
问题特别报告员	-11.7014
常务	-11.7016
被访者	-11.7017
督导委员会	-11.7019
第一届会议	-11.7021
安哥拉人民	-11.7021
耕	-11.7021
而产生的	-11.7022
发生率	-11.7022
学校和	-11.7022
▁马	-11.7023
之间的差距	-11.7024
稀	-11.7024
联系汇率	-11.7025
宪兵	-11.7029
外国投资	-11.703
定下	-11.703
一些代表团	-11.703
病情	-11.703
元首	-11.7035
金融业	-11.7035
的答案	-11.7036
已成	-11.7036
畜	-11.7039
"("	-11.704
认为这	-11.704
有过	-11.7042
名来自	-11.7043
优点	-11.7045
晴	-11.7048
医治	-11.7049
御	-11.705
和重建	-11.705
侦	-11.705
为了让	-11.7052
以内	-11.7052
搏	-11.7052
人权事务中心	-11.7052
狼	-11.7052
卿	-11.7052
拐	-11.7052
多伦多	-11.7052
辉煌	-11.7052
被判入狱	-11.7052
充裕	-11.7052
丢弃	-11.7052
曝光	-11.7053
偏偏	-11.7053
警务处处长	-11.7053
表彰	-11.7053
优胜	-11.7054
下午五时	-11.7054
蔫草	-11.7054
纽约时报	-11.7054
盲目	-11.7056
载入	-11.7056
功课	-11.7056
消灭贫穷	-11.7057
停顿	-11.7058
火车站	-11.7059
公海	-11.706
执行了	-11.706
非常严重	-11.706
重申了	-11.706
可怜	-11.706
2%。	-11.7061
夺得	-11.7061
授课	-11.7062
有此	-11.7062
令人震惊	-11.7063
驾驶人士	-11.7064
公民权利	-11.7065
行销	-11.7066
面上	-11.7066
型号	-11.7069
朝圣	-11.7071
民调	-11.7071
本款	-11.7072
出差	-11.7074
备有	-11.7075
对我国	-11.7076
以便能够	-11.7077
欧洲理事会	-11.7079
踏上	-11.7081
整天	-11.7083
总的来说	-11.7085
什么样的	-11.7085
一封信	-11.7087
生理	-11.7087
综援金	-11.7088
的最新发展	-11.7088
报道说	-11.709
错过	-11.7091
以减少	-11.7092
变更	-11.7093
追加	-11.7094
仍有待	-11.7097
设立了一个	-11.7097
郊区	-11.7099
更高的	-11.71
今年四月	-11.71
的任务期限	-11.71
关于联合国	-11.7101
最能	-11.7101
自己是	-11.7102
的国籍	-11.7103
也包括	-11.7106
十多年来	-11.7107
繁忙时间	-11.7107
缔造和平	-11.7107
一直没有	-11.7108
召开会议	-11.7108
人的发展	-11.7108
文中	-11.7108
][	-11.7109
▁委员会成员	-11.711
越好	-11.711
分化	-11.7111
职棒	-11.7111
资本市场	-11.7112
被要求	-11.7113
世纪末	-11.7114
化为	-11.7114
是重要的	-11.7115
刊载	-11.7116
小孩子	-11.7116
大笔	-11.7116
的一份	-11.7117
应用于	-11.7119
正在努力	-11.7119
的性质和	-11.7119
也只是	-11.712
公民社会	-11.712
所有公民	-11.7121
近代	-11.7127
的经济和社会	-11.7127
本地区	-11.7127
但仍然	-11.7128
全新的	-11.713
剩余的	-11.7131
时期内	-11.7133
将自己	-11.7133
成立了一个	-11.7136
易受伤害	-11.7137
的主要目标	-11.7137
▁财政司	-11.7138
▁该委员会	-11.7139
▁如果不	-11.7142
或许是	-11.7143
的身分	-11.7144
这一情况	-11.7144
转变为	-11.7145
该校	-11.7145
和世界	-11.7146
堕	-11.7147
坤	-11.7147
研训所	-11.7147
从业员	-11.7147
叶国谦议员	-11.7147
弟弟	-11.7147
冒险	-11.7148
抗争	-11.7148
惨剧	-11.7149
顾虑	-11.7149
公立医院	-11.7149
氧化	-11.7149
禁毒署	-11.7149
地理位置	-11.7149
佐证	-11.7149
成员包括	-11.715
宾馆	-11.715
受到限制	-11.715
环球	-11.715
公诉	-11.7151
捷运	-11.7151
这项决定	-11.7152
▁胡锦涛	-11.7152
驻扎	-11.7152
互信	-11.7152
美术馆	-11.7152
相差	-11.7153
公众假期	-11.7153
年之前	-11.7153
的感情	-11.7154
一对	-11.7155
兼任	-11.7155
潜能	-11.7156
犹如	-11.7157
失调	-11.7157
贮存	-11.7157
有不同的	-11.7157
的发展中国家	-11.7157
职类	-11.7158
租住	-11.7159
支线	-11.716
人道主义问题	-11.716
的书面	-11.7162
进一步提高	-11.7163
当今世界	-11.7163
昔日	-11.7164
体面	-11.7164
公营机构	-11.7165
几个星期	-11.7167
千禧	-11.7167
十号	-11.7168
身心健康	-11.7169
脸上	-11.7171
的生活条件	-11.7173
调查组	-11.7174
作出的决定	-11.7176
入场	-11.7177
热潮	-11.7177
刑事诉讼法	-11.7177
个孩子	-11.7179
其他一些	-11.7179
拿着	-11.718
▁全国	-11.7181
早晨	-11.7182
航机	-11.7184
电动	-11.7185
不排除	-11.7185
很多议员	-11.7187
的岁月	-11.7188
大厅	-11.7188
的议程项目	-11.719
签订的	-11.7192
▁另一	-11.7193
一身	-11.7193
中国传统	-11.7194
和暴力	-11.7195
还须	-11.7195
国家继承	-11.7198
和新加坡	-11.72
年第一季度	-11.7201
这些方案	-11.7205
加利	-11.7206
对他们的	-11.7208
不利影响	-11.7209
的紧急	-11.7209
部分原因是	-11.7209
我必须	-11.721
十月份	-11.7212
中学生	-11.7212
各项活动	-11.7213
快捷	-11.7214
调查人员	-11.7215
可以考虑	-11.7217
运费	-11.7217
沉重的	-11.7218
二六	-11.7221
壁垒	-11.7221
它已	-11.7223
目前仍	-11.7224
紧急援助	-11.7226
刘议员	-11.7226
邪	-11.7226
理工	-11.7227
马其顿	-11.7229
三分之二的	-11.7229
分期	-11.7231
需求量	-11.7232
七名	-11.7233
要让	-11.7235
瘾	-11.7238
在上海	-11.7241
但它们	-11.7242
撑	-11.7243
集邮	-11.7243
麻醉药品	-11.7243
礁	-11.7243
捧	-11.7243
夹心阶层	-11.7244
渔护署	-11.7244
巴尔	-11.7244
教资会	-11.7244
西非经共体	-11.7244
临市局	-11.7244
澎湖	-11.7244
的长者	-11.7244
争执	-11.7244
求诊	-11.7245
总额为	-11.7245
期盼	-11.7245
多民族	-11.7245
判例	-11.7245
很可能会	-11.7246
工序	-11.7246
故宫	-11.7246
里克	-11.7246
嘉义	-11.7246
1950	-11.7247
呈报	-11.7248
这一重要	-11.7248
选举事务处	-11.7248
沃尔	-11.7249
特许	-11.725
定价	-11.7251
鸟类	-11.7251
已证明	-11.7251
提过	-11.7252
彼得	-11.7252
世界上最	-11.7254
第十二	-11.7254
屯门公路	-11.7255
户主	-11.7255
阿拉伯文	-11.7255
产值	-11.7256
旱	-11.7257
六万	-11.7257
公共事业	-11.7258
▁就在	-11.7259
俗称	-11.7259
发出警告	-11.7259
在科威特	-11.726
住宅单位	-11.726
一千六百	-11.726
流感	-11.7261
集合	-11.7265
解决这一问题	-11.7265
创造力	-11.7267
进军	-11.7267
阻碍了	-11.7267
四号	-11.7267
政制发展	-11.727
适时	-11.727
感到遗憾	-11.7271
▁郑	-11.7272
的照片	-11.7272
首度	-11.7272
拒绝接受	-11.7274
住了	-11.7275
的约束	-11.7278
几乎是	-11.7279
不止	-11.7279
而不能	-11.728
和商业	-11.7281
并能	-11.7281
多元化的	-11.7281
另一位	-11.7283
▁我亦	-11.7284
地注意到	-11.7284
一点也不	-11.7285
管制站	-11.7286
更快	-11.7288
向秘书长	-11.729
争相	-11.7291
在政治上	-11.7293
尊敬	-11.7297
▁一九九九年	-11.7298
始终是	-11.73
立法机构	-11.73
历时	-11.7301
▁该项目	-11.7302
修读	-11.7303
或者说	-11.7304
▁其余	-11.7304
移送	-11.7307
竞争能力	-11.7307
须经	-11.7307
新产品	-11.7308
出访	-11.731
▁新西兰	-11.731
占总	-11.731
得到充分	-11.7311
财务委员会	-11.7311
▁秘书长在	-11.7312
疗法	-11.7312
警方会	-11.7313
万人口	-11.7313
其他组织	-11.7314
每星期	-11.7315
自制	-11.7319
更多人	-11.7319
外侨	-11.732
彼	-11.7321
以维持	-11.7328
一台	-11.7329
应从	-11.7329
完全同意	-11.7329
我不得不	-11.7333
结核病	-11.7337
自然会	-11.7338
在总部	-11.7338
所有各方	-11.7338
的步骤	-11.7338
香港与内地	-11.7339
仲	-11.734
寡	-11.734
褲	-11.734
烤	-11.734
劳顾会	-11.7341
先到先得	-11.7341
无动于衷	-11.7341
西撒特派团	-11.7341
那里的	-11.7341
幽默	-11.7341
碰撞	-11.7341
亚太经合组织	-11.7341
的原意	-11.7341
该案	-11.7341
母语教学	-11.7341
交叉	-11.7342
一票	-11.7342
文革	-11.7343
法治和	-11.7343
电梯	-11.7343
维护国际和平与安全	-11.7344
宽松	-11.7344
圣诞节	-11.7345
凡是	-11.7345
1971	-11.7345
评级	-11.7346
联合国系统各组织	-11.7347
保险费	-11.7348
行政首长	-11.7348
监察员	-11.7349
▁该法	-11.735
出口商	-11.735
而设的	-11.7351
训练和	-11.7352
我本人	-11.7352
攻击事件	-11.7353
制裁委员会	-11.7353
看电视	-11.7354
夸大	-11.7355
人权条约	-11.7355
书画	-11.7355
政治事务部	-11.7357
应当是	-11.7357
单靠	-11.7357
管理处	-11.7358
高级专员办事处	-11.7363
民意代表	-11.7364
的长远	-11.7365
方面的合作	-11.7366
实现这些目标	-11.7366
统计处	-11.7367
有如	-11.7369
是无法	-11.7369
与我	-11.7369
二级	-11.7371
亚洲区	-11.7371
的构想	-11.7371
一般而言	-11.7372
一小时	-11.7372
倘	-11.7374
这段时间	-11.7375
国家和区域	-11.7376
它们对	-11.7376
管理制度	-11.7376
透明度和	-11.7378
不景气	-11.738
万一	-11.7381
去年十月	-11.7382
紧急呼吁	-11.7383
季的	-11.7383
和平谈判	-11.7386
与市民	-11.7387
强势	-11.7387
野生	-11.7389
保留意见	-11.7389
临时议程	-11.7391
必须符合	-11.7392
研究显示	-11.7393
从速	-11.7395
的一点是	-11.7396
国家方案	-11.74
将于二	-11.74
的口号	-11.74
向他们提供	-11.74
乐队	-11.7404
有帮助	-11.7404
需要加强	-11.7405
没有能力	-11.7406
生前	-11.7407
部部长	-11.7407
向伊拉克	-11.7407
清楚知道	-11.7407
七十二	-11.7408
安全理事会决议	-11.7408
已通过	-11.7408
至九	-11.741
某些地区	-11.7411
对公众	-11.7411
两级	-11.7412
▁行政长官董建华	-11.7413
的负责人	-11.7414
负上	-11.7414
持牌	-11.7415
内政部长	-11.7416
届特别会议	-11.7416
联合国维持和平行动	-11.7416
15000	-11.7417
已婚	-11.7418
名词	-11.7419
和生产	-11.7422
战争中	-11.7423
身分证	-11.7424
曾任	-11.7425
共收到	-11.7427
▁比如	-11.7428
出自	-11.7428
受到严重	-11.7429
联合国必须	-11.743
反之	-11.743
▁主要	-11.743
买家	-11.7431
坚强	-11.7432
一节	-11.7433
突发	-11.7434
婆婆	-11.7434
肢	-11.7434
敬意	-11.7434
因素是	-11.7434
改革方案	-11.7435
里亚	-11.7436
讚	-11.7436
离家	-11.7438
屠	-11.7438
交响乐团	-11.7439
人权组织	-11.7439
肿	-11.7439
肿瘤	-11.7439
毗邻	-11.7439
首席执行官	-11.7439
不可思议	-11.7439
游击队	-11.7439
一半以上	-11.7439
德黑兰	-11.7439
西亚经社会	-11.7439
征服	-11.7439
双边和多边	-11.7439
默默	-11.7439
范例	-11.744
今年一月	-11.744
廉署	-11.744
调查表	-11.7441
古董	-11.7441
灰色	-11.7441
马拉维	-11.7441
回覆	-11.7441
反恐怖主义委员会	-11.7442
可提供	-11.7442
纳税	-11.7443
转播	-11.7444
伤残人士	-11.7444
稍为	-11.7445
两年内	-11.7445
冰岛	-11.7445
公开会议	-11.7445
注明	-11.7446
刑事调查	-11.7447
和平行动	-11.7447
利用其	-11.7448
体现在	-11.7448
特委会	-11.7449
我要强调	-11.7449
▁此后	-11.745
戈马	-11.7451
超级市场	-11.7451
此地	-11.7454
把香港	-11.7454
意欲	-11.7454
主要原因是	-11.7454
有效期	-11.7455
师范	-11.7455
保护知识产权	-11.7456
打死	-11.7456
的汽车	-11.7456
之事	-11.7456
名工作人员	-11.7457
另行	-11.7457
第二大	-11.7459
是多么	-11.7459
其他部门	-11.7459
水电	-11.7459
乡土	-11.746
回答说	-11.7461
提供足够的	-11.7461
其他形式的	-11.7463
还建议	-11.7465
和训练	-11.7465
基本设施	-11.7465
日为止	-11.7466
一些地区	-11.7467
借调	-11.7468
通过了一项	-11.7468
开工	-11.7469
看不出	-11.747
起初	-11.747
定居者	-11.747
▁这份	-11.7471
若有	-11.7471
所在国	-11.7473
该段	-11.7476
有些是	-11.7478
全国委员会	-11.7479
在刚果民主共和国	-11.748
的渠道	-11.7481
之手	-11.7482
特有的	-11.7483
为甚么	-11.7486
边境地区	-11.7487
脆弱的	-11.7488
好几个	-11.7488
公约第	-11.7489
财政状湟	-11.7492
发挥的作用	-11.7492
受到损害	-11.7494
自决权利	-11.7494
颁奖	-11.7498
侵	-11.7498
募	-11.7498
道及	-11.7498
不发达	-11.7499
野生动物	-11.75
▁特别报告员还	-11.75
以打击	-11.7501
只是一个	-11.7501
怀抱	-11.7503
学生人数	-11.7503
不乏	-11.7503
打工	-11.7504
财政赤字	-11.7504
提交立法会	-11.7507
有关条文	-11.7507
项目中	-11.7507
提述	-11.7511
还有很多	-11.7511
刚果民主共和国境内	-11.7511
文化中心	-11.7513
几种	-11.7514
必须遵守	-11.7517
的伙伴	-11.7517
曾与	-11.7517
最受	-11.7519
人类社会	-11.7522
精密	-11.7522
就业人数	-11.7523
这是我们	-11.7526
这并不是	-11.7527
全球化进程	-11.7528
旧区	-11.7529
若是	-11.753
向上	-11.7532
依然是	-11.7533
本项目	-11.7534
还有一个	-11.7534
长远发展	-11.7536
官员说	-11.7536
关键问题	-11.7537
预防犯罪和刑事司法	-11.7537
诽谤	-11.7538
侍	-11.7538
旧金山	-11.7538
刘千石议员	-11.7538
在某种程度上	-11.7538
瑟	-11.7538
同心协力	-11.7538
可想而知	-11.7538
抨击	-11.7538
困惑	-11.7538
振奋	-11.7538
轻型货车	-11.7538
纵容	-11.7538
所提到的	-11.7538
殷切	-11.7538
再造	-11.7538
至八	-11.7539
太子港	-11.7539
冒牌	-11.7539
稻米	-11.7539
获知	-11.754
废纸	-11.754
示威游行	-11.754
不干涉	-11.754
起着	-11.754
结社	-11.7541
老鼠	-11.7542
创造就业机会	-11.7542
下一步	-11.7542
纯属	-11.7542
举世	-11.7543
知名人士	-11.7543
被用来	-11.7543
是至关重要的	-11.7544
转而	-11.7544
研究工作	-11.7545
政客	-11.7545
参数	-11.7546
接任	-11.7547
悉尼	-11.7548
妓女	-11.7548
风雨	-11.7549
实施制裁	-11.7549
广阔的	-11.755
层面上	-11.7551
飞往	-11.7552
感到关注	-11.7552
报告内	-11.7553
确保其	-11.7553
委员会工作	-11.7554
十分钟	-11.7555
宁可	-11.7555
执行工作	-11.7555
法律问题	-11.7556
秘书长代表	-11.7557
香港电台	-11.7559
▁人权委员会	-11.756
许多其他	-11.756
薪资	-11.756
国防军	-11.7561
和平解决争端	-11.7562
唯	-11.7562
入院	-11.7563
▁他们还	-11.7566
个项目	-11.7567
弦	-11.7568
待命	-11.7569
在当时	-11.7569
安理会主席	-11.7572
歌唱	-11.7573
似的	-11.7573
其中一名	-11.7574
严重破坏	-11.7575
被告知	-11.7576
按年	-11.7578
进取	-11.7581
去年底	-11.7582
计算方法	-11.7582
六十四	-11.7584
所代表的	-11.7585
这些报告	-11.7589
留意到	-11.759
多处	-11.7591
完全不同	-11.7593
可透过	-11.7593
也是如此	-11.7596
打击非法	-11.7596
社群	-11.7596
举动	-11.7598
高压	-11.7598
是必要的	-11.7598
所列的	-11.7598
司法程序	-11.7598
其结果	-11.7598
相等	-11.76
又能	-11.7601
马尔	-11.7601
大雨	-11.7604
私营企业	-11.7605
对其他	-11.7607
▁警方今	-11.7608
决定不	-11.7608
政治问题	-11.7608
反对意见	-11.7609
对一个	-11.7609
最新资料	-11.7609
的军事行动	-11.761
一经	-11.761
低下	-11.7611
月薪	-11.7612
岁以下的	-11.7613
▁这样做	-11.7614
建立了一个	-11.7614
缔约	-11.7615
对某些	-11.7615
▁研讨会	-11.7616
日益严重	-11.7617
不要忘记	-11.7617
▁以下	-11.7619
若干国家	-11.7621
可根据	-11.7622
性暴力	-11.7622
的法律和	-11.7628
西岸和加沙地带	-11.7629
做过	-11.763
始于	-11.7631
▁今后	-11.7632
月间	-11.7632
来做	-11.7632
详细研究	-11.7632
多方面的	-11.7633
急速	-11.7633
塌	-11.7635
聪	-11.7635
的智慧	-11.7636
个体	-11.7636
斥	-11.7637
佑	-11.7637
法律责任	-11.7637
包袱	-11.7637
葛	-11.7638
杜鹃	-11.7638
[...]
