<unk>	0
<s>	0
</s>	0
▁the	-2.65378
,	-3.23947
▁of	-3.28075
.	-3.4756
▁to	-3.66717
▁and	-3.72636
▁in	-3.88275
s	-3.969
▁a	-4.24737
▁that	-4.60547
▁for	-4.71434
-	-4.77915
▁is	-4.87507
▁on	-4.98137
▁be	-5.09835
▁	-5.10951
▁"	-5.17055
▁as	-5.20972
▁by	-5.259
▁with	-5.29754
▁it	-5.32501
▁are	-5.52658
▁have	-5.55247
▁was	-5.55991
ing	-5.56304
▁at	-5.5925
▁this	-5.60503
▁not	-5.63332
▁has	-5.67416
ed	-5.6993
▁will	-5.72072
▁from	-5.76631
'	-5.7747
▁i	-5.88749
▁an	-5.89632
▁which	-5.89933
▁or	-5.93111
▁their	-5.93881
▁we	-5.94685
d	-5.96428
▁(	-5.97877
▁been	-6.02668
▁government	-6.11589
▁all	-6.17236
▁its	-6.17999
▁kong	-6.19677
▁hong	-6.204
▁they	-6.20758
▁also	-6.21876
▁had	-6.23196
▁were	-6.2442
▁he	-6.25822
▁would	-6.26417
▁people	-6.26439
▁united	-6.28223
ly	-6.40192
▁there	-6.40253
)	-6.42159
▁should	-6.4243
▁but	-6.48583
▁more	-6.5143
▁international	-6.53156
▁other	-6.55008
▁his	-6.59164
▁can	-6.60464
▁one	-6.61023
;	-6.62121
▁nations	-6.62712
▁such	-6.63544
t	-6.63936
▁so	-6.64489
▁who	-6.64988
▁new	-6.67657
▁development	-6.67955
▁states	-6.70405
▁time	-6.70869
▁no	-6.71661
▁our	-6.72015
▁mr	-6.73274
▁out	-6.74716
▁these	-6.76286
▁council	-6.77012
▁if	-6.78256
▁only	-6.80851
▁some	-6.80897
▁public	-6.81166
▁up	-6.82583
▁year	-6.82741
▁1	-6.83296
▁countries	-6.84118
▁years	-6.85604
:	-6.87588
▁over	-6.89667
▁when	-6.90844
c	-6.90869
▁under	-6.91882
n	-6.9205
▁may	-6.92195
▁than	-6.93168
▁said	-6.93337
e	-6.93489
▁about	-6.95101
▁committee	-6.95874
y	-6.96066
▁into	-6.96427
▁made	-6.98508
▁per	-6.99204
▁any	-7.00161
▁those	-7.01258
▁members	-7.02297
▁work	-7.03005
▁world	-7.04459
▁rights	-7.05097
▁many	-7.05443
▁between	-7.05528
▁two	-7.06698
▁well	-7.07009
▁after	-7.07645
▁law	-7.0774
▁them	-7.09443
▁security	-7.1078
▁economic	-7.10823
▁number	-7.11305
▁do	-7.13147
er	-7.14026
▁china	-7.15702
▁human	-7.16192
▁state	-7.17253
▁national	-7.17516
▁secretary	-7.21029
▁special	-7.21141
▁most	-7.23922
▁very	-7.24235
▁'	-7.24548
▁general	-7.26162
▁support	-7.26182
al	-7.2629
▁however	-7.2682
▁during	-7.30138
▁women	-7.30554
▁us	-7.30686
▁system	-7.30741
▁chinese	-7.31032
es	-7.31388
▁take	-7.31402
▁president	-7.3151
▁2	-7.33249
▁$	-7.33337
▁information	-7.33338
▁could	-7.33555
▁cent	-7.34445
▁even	-7.35181
g	-7.35191
▁country	-7.35197
▁through	-7.35304
▁re	-7.35362
▁must	-7.355
▁3	-7.36113
▁department	-7.36432
▁now	-7.36706
▁community	-7.38617
▁being	-7.38802
r	-7.38829
in	-7.40884
▁you	-7.41677
▁since	-7.43002
▁services	-7.43233
▁make	-7.43398
▁social	-7.43428
▁my	-7.43557
▁order	-7.44018
a	-7.44414
▁high	-7.44439
▁report	-7.44503
▁because	-7.44654
▁against	-7.4511
▁taiwan	-7.46421
▁like	-7.46447
▁un	-7.47144
o	-7.4867
▁political	-7.4896
▁first	-7.49263
▁peace	-7.49546
▁use	-7.5022
▁police	-7.50681
i	-7.51512
▁while	-7.51566
▁need	-7.51823
▁today	-7.52012
▁what	-7.52407
▁group	-7.52768
▁children	-7.53274
m	-7.53374
▁long	-7.54147
▁situation	-7.54403
▁part	-7.55143
▁republic	-7.55622
▁financial	-7.55758
b	-7.5648
▁same	-7.57495
▁fact	-7.57858
▁activities	-7.58989
▁right	-7.59418
▁both	-7.59437
▁still	-7.59627
▁including	-7.59908
▁education	-7.60367
re	-7.60559
▁her	-7.60618
▁last	-7.6091
▁commission	-7.61177
▁non	-7.61236
▁before	-7.61489
▁view	-7.61577
ers	-7.61969
▁end	-7.62219
▁she	-7.62783
▁process	-7.64531
▁trade	-7.64626
▁de	-7.65786
▁period	-7.65853
▁where	-7.6622
▁office	-7.66243
).	-7.67255
▁programme	-7.67627
▁policy	-7.67941
▁service	-7.68364
▁market	-7.69619
k	-7.70143
▁further	-7.7061
▁health	-7.7087
▁way	-7.7187
general	-7.72211
▁important	-7.72994
▁just	-7.73762
▁10	-7.73862
▁efforts	-7.76008
▁meeting	-7.76077
),	-7.76534
▁areas	-7.76634
▁4	-7.76702
▁place	-7.77488
▁party	-7.77979
▁resources	-7.78146
▁provide	-7.78161
▁local	-7.78237
▁present	-7.78484
▁increase	-7.78728
▁assembly	-7.79614
▁total	-7.79646
▁held	-7.79753
▁case	-7.80431
▁among	-7.80665
▁5	-7.81791
▁day	-7.81985
▁working	-7.82579
▁region	-7.8267
▁taken	-7.82813
▁foreign	-7.82977
▁future	-7.83194
▁within	-7.83296
▁parties	-7.83399
▁respect	-7.83647
▁past	-7.8365
th	-7.83691
en	-7.84025
▁three	-7.84161
▁measures	-7.84185
▁level	-7.84918
▁set	-7.8504
▁member	-7.85398
▁own	-7.85484
▁area	-7.86521
▁given	-7.86575
▁life	-7.86643
▁cooperation	-7.86952
▁conference	-7.87314
▁each	-7.87709
▁continue	-7.87873
▁result	-7.88668
p	-7.89347
▁possible	-7.89456
an	-7.89487
▁persons	-7.89711
▁me	-7.9016
▁court	-7.91347
▁organization	-7.92573
▁issue	-7.93035
or	-7.93087
▁shall	-7.93293
u	-7.93503
▁particular	-7.93775
▁6	-7.95025
▁then	-7.95185
it	-7.95192
ation	-7.95381
▁organizations	-7.95827
▁how	-7.95839
▁good	-7.95953
▁rate	-7.95979
▁staff	-7.9602
▁co	-7.96043
▁therefore	-7.9618
▁mainland	-7.96287
▁assistance	-7.96403
▁water	-7.96736
ion	-7.9684
▁business	-7.97045
▁question	-7.97279
▁whether	-7.974
▁much	-7.97928
▁c	-7.97969
▁population	-7.98094
w	-7.98382
▁provided	-7.99351
▁become	-7.99361
▁school	-7.99586
▁problem	-7.99901
▁am	-7.99947
▁action	-8.01856
▁already	-8.02048
▁various	-8.02156
▁article	-8.022
▁force	-8.02202
▁implementation	-8.02261
h	-8.02484
▁concerned	-8.02564
f	-8.02691
▁ensure	-8.02951
le	-8.03133
ment	-8.03452
▁see	-8.03701
▁large	-8.0386
▁great	-8.03963
▁society	-8.04194
▁central	-8.0438
▁put	-8.04384
▁issues	-8.04575
ic	-8.04661
▁war	-8.0467
▁used	-8.04847
▁legal	-8.04959
▁cases	-8.05385
▁help	-8.05489
▁industry	-8.05838
▁problems	-8.06831
▁sector	-8.07036
▁land	-8.07375
▁major	-8.07398
▁go	-8.07409
▁hope	-8.07456
▁different	-8.07559
▁according	-8.07642
▁s	-8.07794
▁without	-8.07917
▁military	-8.07919
▁20	-8.07975
▁management	-8.07984
▁executive	-8.08106
▁affairs	-8.08134
▁did	-8.08167
to	-8.08211
on	-8.08434
▁economy	-8.08446
able	-8.08554
▁civil	-8.08672
▁nuclear	-8.08706
▁basis	-8.08894
▁training	-8.08983
▁protection	-8.0912
▁full	-8.09123
▁regard	-8.09174
▁think	-8.09802
▁small	-8.10051
▁convention	-8.10839
▁developing	-8.1085
▁democratic	-8.1117
ity	-8.11443
▁control	-8.11892
▁come	-8.11992
▁session	-8.12128
li	-8.12297
▁example	-8.12532
▁found	-8.13088
▁south	-8.13293
l	-8.13647
▁19	-8.13692
▁8	-8.14436
▁administration	-8.14437
ur	-8.14467
▁review	-8.1458
▁able	-8.14617
▁point	-8.14647
▁another	-8.15018
▁representative	-8.15105
▁far	-8.15158
▁every	-8.15233
▁environment	-8.15537
▁east	-8.15604
▁necessary	-8.1569
▁him	-8.17092
▁resolution	-8.1714
▁home	-8.17507
▁person	-8.17672
▁7	-8.17773
▁private	-8.18409
▁power	-8.18638
▁agreement	-8.18711
▁does	-8.18738
▁course	-8.19669
▁role	-8.19684
▁family	-8.20046
▁back	-8.20538
▁recent	-8.20991
▁addition	-8.21046
▁15	-8.21221
▁e	-8.21415
▁act	-8.21861
▁few	-8.22262
▁12	-8.22589
▁following	-8.22848
▁down	-8.22855
▁give	-8.22862
▁regional	-8.24721
▁hand	-8.2506
▁relevant	-8.25126
▁road	-8.25341
▁means	-8.25426
▁decision	-8.25549
▁basic	-8.2639
▁upon	-8.26513
▁housing	-8.26998
▁matter	-8.27101
▁africa	-8.274
▁authorities	-8.2782
▁30	-8.28022
▁t	-8.28206
▁cannot	-8.28214
il	-8.28217
▁p	-8.28226
▁growth	-8.2871
▁chief	-8.29293
ta	-8.29357
ar	-8.30075
▁although	-8.3015
▁current	-8.30498
▁say	-8.30672
▁technology	-8.30882
▁man	-8.30885
▁established	-8.31047
▁project	-8.31236
▁might	-8.31451
▁inter	-8.32092
▁particularly	-8.32529
000	-8.32984
▁next	-8.33022
st	-8.33254
▁believe	-8.33363
▁age	-8.3349
▁several	-8.33509
▁account	-8.33652
▁bring	-8.33704
▁serious	-8.33876
▁less	-8.34385
▁global	-8.34716
▁director	-8.35039
▁thus	-8.35114
ive	-8.35312
▁months	-8.35485
▁yet	-8.35495
▁available	-8.3583
▁11	-8.3589
▁terms	-8.36058
▁food	-8.36064
▁concern	-8.36255
ro	-8.36275
▁know	-8.36415
▁ma	-8.36421
▁draft	-8.36431
▁days	-8.3658
▁board	-8.36719
▁open	-8.36735
▁o	-8.36757
▁authority	-8.36867
▁clear	-8.36964
▁delegation	-8.36981
▁mission	-8.37057
▁centre	-8.37232
▁iraq	-8.37384
▁conditions	-8.3743
▁9	-8.37642
▁students	-8.37696
▁conflict	-8.37708
▁says	-8.37806
3	-8.37809
▁legislative	-8.37847
▁cost	-8.37899
▁care	-8.38071
▁groups	-8.3813
▁labour	-8.38202
▁programmes	-8.38265
2	-8.38463
▁fund	-8.3878
▁city	-8.38806
▁pay	-8.38927
▁required	-8.39028
ll	-8.39116
▁attention	-8.39456
▁progress	-8.39591
▁workers	-8.39862
▁better	-8.40508
▁interest	-8.4062
na	-8.40759
ma	-8.40985
▁li	-8.41103
lo	-8.41261
▁proposed	-8.41585
▁too	-8.41594
▁certain	-8.41985
ness	-8.42126
▁together	-8.42451
▁whole	-8.4258
▁once	-8.42597
▁early	-8.42684
▁plan	-8.4269
▁chairman	-8.42863
▁needs	-8.43418
ri	-8.43675
ul	-8.4401
ting	-8.44209
ate	-8.44372
▁access	-8.44445
▁weapons	-8.44727
▁having	-8.44752
▁post	-8.4476
▁establishment	-8.45009
▁university	-8.45014
▁making	-8.45171
▁old	-8.45362
▁received	-8.45548
▁again	-8.4568
▁due	-8.45879
▁minister	-8.45883
▁main	-8.4621
▁increased	-8.46537
▁young	-8.46583
▁forces	-8.46655
▁investment	-8.467
▁taking	-8.46878
▁get	-8.46958
ated	-8.4701
at	-8.47105
▁officers	-8.47211
us	-8.47212
ve	-8.47239
▁above	-8.47253
▁operation	-8.47271
▁include	-8.47348
▁return	-8.47473
▁environmental	-8.47536
▁subject	-8.47629
▁value	-8.47634
▁based	-8.47903
▁often	-8.48017
▁criminal	-8.48035
▁research	-8.48625
▁representatives	-8.48876
un	-8.48917
▁company	-8.49047
up	-8.49093
▁justice	-8.49103
▁expressed	-8.49341
▁18	-8.49411
▁amount	-8.49502
▁effective	-8.49702
1	-8.49809
▁wish	-8.499
▁budget	-8.49952
la	-8.49953
▁importance	-8.50097
▁air	-8.5015
▁find	-8.50164
▁f	-8.50282
▁child	-8.50326
▁free	-8.50423
▁men	-8.50541
▁quality	-8.50574
▁september	-8.506
▁living	-8.50646
▁european	-8.50931
as	-8.51276
▁projects	-8.51517
▁light	-8.51944
7	-8.5199
se	-8.5209
▁june	-8.52282
▁lack	-8.52488
▁d	-8.52844
▁look	-8.529
▁african	-8.52932
x	-8.52974
ch	-8.53021
▁effect	-8.53086
▁dis	-8.53115
▁companies	-8.53301
ra	-8.53406
▁13	-8.53726
▁address	-8.53889
▁institutions	-8.53912
▁appropriate	-8.54054
ce	-8.54079
▁around	-8.5416
▁building	-8.54272
ck	-8.54454
▁impact	-8.54631
▁position	-8.54723
▁operations	-8.54744
▁spokesman	-8.54787
▁50	-8.54987
rs	-8.55036
▁especially	-8.55114
▁considered	-8.55115
▁continued	-8.55226
▁best	-8.55671
▁japan	-8.55707
▁medical	-8.55789
▁july	-8.55814
▁responsibility	-8.55975
▁always	-8.56028
▁consider	-8.56111
▁paragraph	-8.56161
▁asia	-8.56169
year	-8.562
▁related	-8.56276
▁four	-8.56348
▁accordance	-8.56617
est	-8.56647
▁change	-8.56651
▁district	-8.573
▁property	-8.57344
▁former	-8.57416
▁towards	-8.57561
▁here	-8.57659
▁took	-8.57857
▁developed	-8.58055
▁common	-8.5818
▁production	-8.58273
▁bank	-8.5829
▁difficult	-8.58313
▁administrative	-8.58505
▁14	-8.5855
▁transport	-8.58743
▁pre	-8.58801
et	-8.5891
▁involved	-8.59132
ist	-8.59153
▁noted	-8.59266
▁media	-8.59297
▁provisions	-8.59396
▁cultural	-8.59463
▁north	-8.5948
▁adopted	-8.59534
ies	-8.59798
▁capital	-8.59892
▁visit	-8.60001
▁experience	-8.60027
▁existing	-8.60028
▁real	-8.60068
▁exchange	-8.60216
▁capacity	-8.60528
te	-8.60538
▁forward	-8.60688
▁humanitarian	-8.60848
▁october	-8.60876
▁g	-8.60988
▁themselves	-8.60988
▁money	-8.6124
▁scheme	-8.613
v	-8.61499
▁officials	-8.6202
▁reports	-8.62053
▁self	-8.62157
▁anti	-8.62246
▁five	-8.62258
▁ho	-8.62349
co	-8.6243
▁reform	-8.62596
▁promote	-8.62597
▁approach	-8.62782
▁allow	-8.6294
▁construction	-8.62966
▁policies	-8.6302
▁territory	-8.6302
▁union	-8.632
▁meet	-8.63218
▁field	-8.63275
▁rule	-8.63326
▁march	-8.634
term	-8.63539
▁study	-8.63613
▁provision	-8.63921
▁culture	-8.63994
▁21	-8.64188
▁short	-8.64419
▁december	-8.64561
▁fully	-8.64681
▁sea	-8.65185
▁views	-8.65253
▁schools	-8.65434
▁space	-8.65481
▁secretariat	-8.65648
▁additional	-8.6569
▁interests	-8.65718
is	-8.65772
▁half	-8.65795
▁ministry	-8.65854
▁want	-8.65881
▁crime	-8.66205
el	-8.66246
▁form	-8.66418
ent	-8.66538
▁face	-8.66642
▁dr	-8.67147
▁technical	-8.67361
▁your	-8.67447
▁status	-8.6748
▁carried	-8.67569
▁safety	-8.67844
▁low	-8.68143
ling	-8.68322
▁demand	-8.68359
▁november	-8.68432
▁consideration	-8.68475
▁later	-8.68542
▁ago	-8.68577
▁madam	-8.68649
▁domestic	-8.6883
▁bill	-8.68969
▁along	-8.69196
▁16	-8.69218
▁sub	-8.69324
sh	-8.69424
ary	-8.69988
▁off	-8.69993
▁let	-8.70003
▁employment	-8.70008
▁least	-8.70048
▁january	-8.70088
▁armed	-8.70115
▁specific	-8.70221
▁response	-8.7023
▁reported	-8.70247
▁principles	-8.70327
▁soon	-8.70527
▁systems	-8.70603
▁principle	-8.71025
▁election	-8.7111
▁relations	-8.71391
▁legislation	-8.71556
▁25	-8.71711
▁con	-8.71782
the	-8.71992
▁improve	-8.72114
age	-8.72138
▁greater	-8.72147
▁recently	-8.72581
▁individual	-8.72646
de	-8.7266
▁opportunity	-8.72964
▁participation	-8.7309
▁costs	-8.73272
ia	-8.73477
▁data	-8.73513
▁declaration	-8.73945
▁comprehensive	-8.74008
▁results	-8.74025
▁times	-8.74028
▁nature	-8.74169
▁planning	-8.7434
id	-8.74534
▁done	-8.74536
▁april	-8.75088
▁direct	-8.751
▁america	-8.75163
▁history	-8.75244
4	-8.75338
▁close	-8.75521
▁middle	-8.75612
▁purpose	-8.75783
▁reason	-8.75792
▁performance	-8.75843
▁practice	-8.7603
▁others	-8.76188
▁poverty	-8.76293
▁called	-8.76537
▁responsible	-8.76685
▁strong	-8.769
▁lead	-8.77039
▁ha	-8.77141
▁death	-8.77146
pa	-8.77192
▁live	-8.77293
▁expected	-8.77299
ism	-8.77359
ating	-8.77426
▁until	-8.7744
9	-8.7761
▁stage	-8.77787
▁higher	-8.77802
▁never	-8.77808
▁meetings	-8.77874
▁itself	-8.77905
▁pro	-8.78041
▁month	-8.78128
$	-8.78137
▁17	-8.78183
▁income	-8.78229
▁personnel	-8.78259
▁rapporteur	-8.78412
▁natural	-8.785
▁conducted	-8.78568
▁line	-8.78584
▁exercise	-8.78648
ti	-8.78709
▁little	-8.79103
▁joint	-8.79452
▁limited	-8.79649
▁changes	-8.79854
▁rules	-8.79939
▁average	-8.79941
▁1994	-8.80352
▁official	-8.80429
▁currently	-8.80449
▁freedom	-8.80504
▁play	-8.80654
▁date	-8.80754
▁1996	-8.80803
▁levels	-8.8089
ted	-8.80907
▁governments	-8.81079
▁hard	-8.8113
▁statement	-8.81318
▁2000	-8.81407
▁rather	-8.81543
ad	-8.81633
▁really	-8.817
▁treatment	-8.81779
▁brought	-8.8185
▁request	-8.822
vi	-8.82286
ous	-8.82417
▁traffic	-8.82569
ng	-8.82665
▁products	-8.82891
▁indeed	-8.8293
▁significant	-8.82931
ne	-8.83109
▁turn	-8.83273
▁term	-8.83403
▁facilities	-8.83585
▁stated	-8.83879
▁debate	-8.83902
▁left	-8.83905
▁chen	-8.83914
▁agreed	-8.84069
▁bodies	-8.84324
▁develop	-8.84589
▁show	-8.84607
▁tax	-8.84792
▁hospital	-8.84894
tic	-8.84903
▁competition	-8.84961
▁outside	-8.84976
z	-8.84978
▁deal	-8.84997
▁august	-8.85097
▁affected	-8.85125
▁violence	-8.85209
▁treaty	-8.85266
▁side	-8.85306
ci	-8.8531
▁bureau	-8.85332
▁press	-8.85607
▁poor	-8.85831
▁--	-8.85902
▁cause	-8.8594
▁final	-8.86046
▁families	-8.86139
▁24	-8.86226
▁association	-8.86527
▁section	-8.86575
▁proposal	-8.86628
▁decided	-8.86801
less	-8.86917
▁territories	-8.87041
▁hours	-8.87121
▁majority	-8.87144
▁call	-8.87796
old	-8.87852
▁conduct	-8.88011
▁six	-8.88103
▁car	-8.88164
▁application	-8.88224
▁going	-8.88231
▁deputy	-8.88282
mi	-8.88388
▁lot	-8.88526
▁island	-8.88578
▁works	-8.88717
▁added	-8.88727
▁words	-8.88764
▁commercial	-8.88908
ha	-8.88933
▁permanent	-8.88953
▁concerning	-8.89181
▁agencies	-8.89315
▁personal	-8.89404
ant	-8.89415
▁framework	-8.89501
▁equipment	-8.89576
▁context	-8.89723
▁mo	-8.89759
▁opportunities	-8.89761
▁po	-8.8977
▁vote	-8.89939
ol	-8.90024
▁ex	-8.90033
▁panel	-8.9007
man	-8.90114
▁promotion	-8.90321
8	-8.90517
me	-8.90578
▁lo	-8.91024
▁price	-8.91258
6	-8.91306
▁k	-8.91343
▁positive	-8.91375
▁committed	-8.91418
ry	-8.91547
ally	-8.91766
▁acts	-8.91785
▁elections	-8.91874
▁points	-8.91965
▁travel	-8.91966
▁residents	-8.92011
▁came	-8.92015
▁head	-8.92095
▁follow	-8.92411
▁understand	-8.92481
▁west	-8.92554
▁remain	-8.92563
▁overall	-8.92697
▁palestinian	-8.92717
governmental	-8.92738
▁providing	-8.92748
▁seen	-8.92865
▁industrial	-8.93358
▁refugees	-8.93788
▁prevention	-8.93822
▁primary	-8.93829
am	-8.93856
▁why	-8.93949
di	-8.93965
▁western	-8.94057
▁ba	-8.94059
▁urban	-8.94256
▁issued	-8.94364
▁american	-8.94398
▁survey	-8.94482
▁agenda	-8.9449
▁establish	-8.94508
▁included	-8.9458
▁export	-8.94591
▁commitment	-8.9476
▁opinion	-8.94833
▁move	-8.95005
▁supply	-8.95117
▁regarding	-8.95188
▁unit	-8.95237
▁democracy	-8.95256
▁ordinance	-8.95313
ized	-8.95373
▁standards	-8.95441
▁motion	-8.9552
▁understanding	-8.95641
▁achieve	-8.95701
▁lower	-8.95745
▁division	-8.96183
▁europe	-8.96188
▁ca	-8.96242
▁drug	-8.96251
▁mandate	-8.96307
▁though	-8.9631
▁elderly	-8.96382
▁connection	-8.96668
ver	-8.96781
▁note	-8.96819
▁relationship	-8.96944
▁fire	-8.9696
▁independent	-8.97101
▁effort	-8.97126
▁increasing	-8.97155
▁1995	-8.97218
▁focus	-8.97234
▁citizens	-8.97257
▁enable	-8.97286
▁prices	-8.97308
▁led	-8.97309
▁benefit	-8.97342
▁korea	-8.9753
▁list	-8.97596
▁met	-8.97847
▁investigation	-8.97871
▁clearly	-8.97887
ge	-8.9798
▁team	-8.98033
▁step	-8.98255
ke	-8.98565
▁cross	-8.98704
▁feel	-8.98708
▁evidence	-8.98718
▁bo	-8.98749
▁key	-8.98946
▁sha	-8.99018
pe	-8.99046
▁40	-8.99288
▁manner	-8.99308
▁employees	-8.9932
▁goods	-8.9933
ty	-8.99526
▁prevent	-8.99588
▁victims	-8.99662
▁century	-8.99684
▁reduction	-8.99742
▁rates	-8.99745
▁oil	-8.99791
▁requirements	-8.99797
▁places	-8.99832
▁leaders	-8.99874
im	-8.99937
▁beijing	-9.0003
▁reached	-9.0008
▁recommendations	-9.00111
▁mind	-9.00114
▁things	-9.00278
▁annual	-9.00569
ian	-9.0059
▁share	-9.00639
▁israel	-9.00684
0000000	-9.00746
▁actually	-9.00749
▁away	-9.00974
▁body	-9.00988
▁enterprises	-9.01248
▁1998	-9.01322
▁serve	-9.01333
▁w	-9.01482
▁professional	-9.01519
▁funds	-9.01646
▁caused	-9.01822
▁quarter	-9.01853
▁appeal	-9.02171
▁potential	-9.02369
▁maintain	-9.02375
▁experts	-9.02487
▁success	-9.02504
▁express	-9.02647
line	-9.02655
▁crisis	-9.02792
▁1997	-9.02912
▁kind	-9.0294
▁risk	-9.02982
▁arms	-9.03044
ence	-9.03074
▁using	-9.03142
▁throughout	-9.0317
▁institute	-9.03176
▁energy	-9.03303
ful	-9.03484
▁israeli	-9.0351
▁keep	-9.03522
▁monitoring	-9.03528
be	-9.03544
▁moreover	-9.03591
▁lu	-9.03634
▁completed	-9.03684
▁second	-9.03705
▁kingdom	-9.03731
▁stability	-9.03865
▁estimated	-9.03921
▁parents	-9.04109
▁pa	-9.04163
▁overseas	-9.04418
▁whose	-9.04472
▁23	-9.04498
▁illegal	-9.04504
led	-9.0466
ter	-9.04669
▁arrangements	-9.0467
▁february	-9.04691
▁lee	-9.04704
▁airport	-9.04901
mo	-9.0499
▁se	-9.05112
ial	-9.05197
▁28	-9.05245
▁longer	-9.05248
▁circumstances	-9.05372
▁actions	-9.05393
ca	-9.05659
▁rise	-9.05688
▁run	-9.05717
▁negotiations	-9.05721
▁task	-9.06017
▁senior	-9.06027
▁despite	-9.06071
▁earlier	-9.06114
▁standard	-9.06443
▁tung	-9.06459
▁avoid	-9.06598
▁internal	-9.0661
▁russian	-9.06678
▁japanese	-9.0669
▁start	-9.06779
▁tribunal	-9.06863
▁proposals	-9.06927
▁reduce	-9.07009
▁either	-9.07084
▁relating	-9.07217
▁pressure	-9.07224
▁encourage	-9.07333
▁la	-9.07433
and	-9.07486
ts	-9.07769
▁knowledge	-9.08064
▁1999	-9.08066
cy	-9.08116
ho	-9.08299
▁honourable	-9.084
▁charter	-9.08435
▁ra	-9.08463
▁leave	-9.08464
▁behalf	-9.08512
ize	-9.08607
▁job	-9.08864
ance	-9.0888
▁terrorism	-9.08929
▁provides	-9.09023
▁commissioner	-9.09072
▁house	-9.09092
▁compared	-9.09169
▁nor	-9.09401
▁dialogue	-9.09415
▁discussion	-9.09439
▁ground	-9.09934
▁requested	-9.09987
▁spirit	-9.10006
▁beginning	-9.10058
▁agency	-9.10067
▁similar	-9.10206
▁mentioned	-9.10236
▁quite	-9.10329
he	-9.1038
les	-9.10481
▁laws	-9.10498
▁sectors	-9.10576
▁traditional	-9.10669
min	-9.10696
▁asked	-9.10838
▁st	-9.11004
▁carry	-9.1107
▁procedures	-9.11158
▁hold	-9.11194
▁matters	-9.11249
▁participate	-9.11317
▁difficulties	-9.11323
▁movement	-9.11327
▁lives	-9.11367
▁almost	-9.1143
▁design	-9.11537
▁youth	-9.11599
▁arab	-9.11673
▁strengthen	-9.11714
▁22	-9.11769
▁previous	-9.12101
▁finally	-9.12154
▁announced	-9.12168
▁pointed	-9.12168
▁opening	-9.12188
▁di	-9.1236
iv	-9.12379
▁federal	-9.12593
▁receive	-9.12763
▁single	-9.12876
▁reasons	-9.12888
▁offices	-9.13033
po	-9.13037
▁amendment	-9.13058
▁sustainable	-9.134
▁essential	-9.13463
▁100	-9.1351
▁statistics	-9.13581
▁reference	-9.13728
▁incident	-9.13762
ization	-9.13801
▁went	-9.13863
▁26	-9.14025
▁1993	-9.14063
▁2001	-9.14121
▁art	-9.1419
▁federation	-9.14293
▁disarmament	-9.14483
▁contributions	-9.14548
▁known	-9.14576
▁welfare	-9.14579
▁taipei	-9.14674
um	-9.14734
way	-9.14916
▁hu	-9.15013
go	-9.15062
▁material	-9.15365
▁markets	-9.15426
0000	-9.1544
▁station	-9.15505
▁create	-9.15532
▁facilitate	-9.15635
▁street	-9.15774
▁questions	-9.1603
▁range	-9.16066
▁implement	-9.16097
▁objective	-9.16262
mon	-9.16305
▁industries	-9.16361
▁british	-9.16418
▁submitted	-9.16471
▁enhance	-9.16515
▁31	-9.16585
▁civilian	-9.16834
▁morning	-9.16897
▁needed	-9.16913
▁asian	-9.17168
▁departments	-9.17181
ton	-9.17524
▁seek	-9.17531
▁document	-9.17564
5	-9.17611
▁paid	-9.17651
▁achieved	-9.17848
▁implemented	-9.1807
▁week	-9.18135
▁vehicles	-9.18413
▁assist	-9.18414
▁benefits	-9.18473
▁river	-9.18528
▁contribution	-9.18654
▁transfer	-9.18713
▁extent	-9.18771
▁ten	-9.18786
▁red	-9.18823
▁informed	-9.19053
▁fundamental	-9.1912
▁confidence	-9.19148
▁1990	-9.19217
▁improvement	-9.19371
▁abuse	-9.19386
op	-9.1945
▁peaceful	-9.19454
▁b	-9.19624
▁indicated	-9.19726
▁plans	-9.19759
▁regime	-9.19876
ping	-9.20003
▁parts	-9.20173
▁instance	-9.20176
▁60	-9.20256
▁science	-9.20276
▁thought	-9.20351
▁enjoy	-9.20418
▁m	-9.20419
▁doing	-9.20459
▁crimes	-9.20531
▁finance	-9.2058
▁regular	-9.20618
▁wan	-9.20619
▁ethnic	-9.20677
▁successful	-9.20683
▁customs	-9.20788
▁table	-9.20838
▁priority	-9.20907
▁ever	-9.20929
red	-9.21008
▁compensation	-9.21037
▁event	-9.21147
ac	-9.21159
▁base	-9.2117
▁27	-9.21173
▁rural	-9.21194
da	-9.21203
no	-9.21232
▁peoples	-9.21306
▁name	-9.21439
▁don	-9.21606
▁al	-9.2162
▁complete	-9.21695
▁mi	-9.2172
▁discrimination	-9.21761
▁events	-9.21768
▁entire	-9.21844
▁sense	-9.21866
▁near	-9.21962
▁build	-9.2204
▁coming	-9.22054
▁teachers	-9.22109
▁forum	-9.22144
▁wide	-9.22238
▁sar	-9.22278
▁prepared	-9.22337
▁organized	-9.22405
▁advisory	-9.23155
▁enough	-9.23199
▁loss	-9.23232
▁language	-9.23331
▁campaign	-9.23512
ni	-9.23529
▁author	-9.23585
▁immediately	-9.23625
▁consultation	-9.23653
▁allowed	-9.23757
▁strategy	-9.23774
▁000	-9.23799
▁raised	-9.24092
▁agree	-9.2433
▁apply	-9.24341
▁network	-9.24399
00	-9.24546
▁paper	-9.2457
▁leading	-9.24593
▁mass	-9.2465
ish	-9.24655
▁site	-9.24691
▁duty	-9.24835
▁procedure	-9.24873
▁round	-9.25289
▁furthermore	-9.25303
▁directly	-9.25363
▁en	-9.25461
▁effects	-9.2572
▁contract	-9.25769
▁something	-9.25784
▁chi	-9.25799
▁protect	-9.25866
▁sides	-9.25892
0	-9.2592
▁reach	-9.2598
▁factors	-9.26081
▁conflicts	-9.26089
▁text	-9.26101
▁settlement	-9.26192
▁assessment	-9.26224
▁english	-9.26264
▁forms	-9.2634
▁equal	-9.26499
▁instead	-9.26587
▁remains	-9.26709
mb	-9.26889
▁front	-9.26956
▁taiwanese	-9.26985
▁trial	-9.27008
ring	-9.2703
if	-9.27031
▁degree	-9.27118
▁maintenance	-9.27127
▁active	-9.27299
▁news	-9.2731
▁behind	-9.27398
▁entitled	-9.27561
▁accept	-9.27785
▁governor	-9.27842
▁code	-9.27914
▁wu	-9.28002
▁fair	-9.28044
▁prime	-9.28106
▁chan	-9.28151
▁phase	-9.28216
▁record	-9.28344
▁u	-9.28355
▁yugoslavia	-9.28386
per	-9.28409
▁le	-9.28457
▁debt	-9.28523
ang	-9.28816
▁r	-9.28881
▁unemployment	-9.28937
▁park	-9.28974
▁su	-9.29028
ner	-9.29091
▁sent	-9.29116
▁ro	-9.2921
cu	-9.2922
▁zone	-9.29237
▁infrastructure	-9.29371
for	-9.29442
ut	-9.29534
▁mechanism	-9.2968
▁strengthening	-9.29771
▁waste	-9.29808
▁na	-9.29814
▁solution	-9.29853
▁late	-9.30018
▁computer	-9.30037
▁began	-9.30044
▁heart	-9.30196
▁individuals	-9.3021
▁credit	-9.30302
▁agreements	-9.30322
▁answer	-9.30372
▁sanctions	-9.30484
▁mrs	-9.30571
▁ad	-9.30672
▁enforcement	-9.3074
▁communication	-9.30761
▁expenditure	-9.30823
▁series	-9.30883
▁regulations	-9.30937
▁items	-9.3096
▁materials	-9.30967
▁became	-9.31046
▁aspects	-9.31107
sa	-9.31196
▁welcome	-9.31197
▁statements	-9.31232
▁province	-9.31338
▁deep	-9.3134
ir	-9.31366
▁affect	-9.31462
▁nothing	-9.3156
ns	-9.31617
ning	-9.31635
▁afghanistan	-9.31667
▁studies	-9.31667
▁v	-9.31717
▁york	-9.31723
▁mainly	-9.31772
▁daily	-9.3178
▁referred	-9.31899
▁growing	-9.32044
▁promoting	-9.32121
▁claim	-9.32129
ba	-9.32214
▁require	-9.3223
▁coordination	-9.32299
▁simply	-9.32406
▁generally	-9.32452
▁analysis	-9.32463
▁mother	-9.32496
▁contribute	-9.32668
▁kosovo	-9.32691
▁units	-9.32712
▁stay	-9.32814
▁iraqi	-9.32976
▁headquarters	-9.32978
▁balance	-9.33071
▁published	-9.33184
▁aware	-9.33244
▁multi	-9.33375
▁physical	-9.33669
▁regions	-9.33757
▁concept	-9.33777
▁attacks	-9.33926
und	-9.33926
▁doubt	-9.33958
▁adoption	-9.3399
tion	-9.34174
▁h	-9.34258
▁room	-9.34278
▁fall	-9.34439
os	-9.34448
time	-9.34458
▁ways	-9.34517
▁defence	-9.3452
▁external	-9.3454
▁practical	-9.34598
ious	-9.34733
▁payment	-9.34742
▁big	-9.34764
▁certainly	-9.34898
▁million	-9.34916
▁approved	-9.34993
ors	-9.35358
▁modern	-9.35407
▁woman	-9.35545
▁timor	-9.35595
▁structure	-9.35631
▁sufficient	-9.35771
der	-9.35811
▁el	-9.35811
▁concerns	-9.35876
▁participants	-9.35895
▁exhibition	-9.35913
▁1997,	-9.35917
▁started	-9.3593
▁continuing	-9.36008
▁tai	-9.36018
▁nation	-9.36082
▁congo	-9.36146
▁initiative	-9.36167
▁model	-9.36195
▁mid	-9.36211
▁officer	-9.3636
▁challenges	-9.36387
▁elected	-9.36463
▁speak	-9.36509
▁love	-9.36513
con	-9.36561
▁vice	-9.3666
▁host	-9.36725
▁delegations	-9.36736
▁respectively	-9.36814
▁notes	-9.36909
▁wang	-9.36936
▁decisions	-9.37342
om	-9.37395
▁direction	-9.37547
▁heavy	-9.37618
▁charges	-9.37761
▁join	-9.37828
▁letter	-9.37881
▁yuan	-9.37894
▁constitution	-9.37905
▁border	-9.37925
▁honour	-9.3795
ap	-9.38167
▁supported	-9.38194
▁aids	-9.38249
▁indigenous	-9.38281
▁activity	-9.38347
su	-9.38588
▁medium	-9.38645
▁29	-9.38679
▁rest	-9.38682
▁introduced	-9.38703
▁summit	-9.38706
▁presented	-9.38834
▁search	-9.38888
▁fight	-9.38918
▁cut	-9.38995
▁likely	-9.39044
▁true	-9.39071
▁conclusion	-9.39173
▁secondary	-9.39217
▁applications	-9.3929
▁ask	-9.39319
▁buildings	-9.39392
▁emergency	-9.39438
▁documents	-9.39477
▁trust	-9.39499
▁music	-9.39515
▁independence	-9.3952
ee	-9.39577
ong	-9.396
▁reduced	-9.39602
▁1992	-9.39631
▁electronic	-9.39683
▁rich	-9.39814
▁discussions	-9.39992
ities	-9.40244
▁original	-9.40248
▁cover	-9.40266
▁speaking	-9.40291
▁recognized	-9.40298
▁television	-9.40298
▁test	-9.4054
▁terrorist	-9.40607
▁agricultural	-9.40608
▁source	-9.40608
▁perhaps	-9.4067
▁steps	-9.40835
▁gu	-9.40923
▁continues	-9.40924
▁stock	-9.40937
tri	-9.41136
▁threat	-9.4114
▁obligations	-9.41461
▁2000,	-9.41465
▁ta	-9.41484
▁lin	-9.41532
▁te	-9.41647
▁1999,	-9.41718
▁objectives	-9.41744
ru	-9.41752
▁chang	-9.41783
▁southern	-9.41917
▁purchase	-9.42105
▁internet	-9.42111
▁add	-9.4223
men	-9.42244
▁hk	-9.42269
em	-9.42296
ow	-9.42355
▁attack	-9.42439
▁intention	-9.42441
▁immigration	-9.42546
▁night	-9.42551
▁funding	-9.42607
chi	-9.42614
▁wong	-9.42623
▁arrested	-9.4266
▁told	-9.42671
▁created	-9.42693
▁choice	-9.4274
▁broad	-9.42747
▁consultations	-9.42772
rr	-9.42818
▁enter	-9.42866
▁functions	-9.42888
▁foundation	-9.42897
▁raise	-9.42938
▁notice	-9.42952
va	-9.42966
▁seven	-9.43012
▁ceremony	-9.43053
▁universal	-9.43053
▁passed	-9.43078
▁saying	-9.43209
based	-9.43218
▁scene	-9.43244
pp	-9.43268
▁damage	-9.43441
▁class	-9.43573
▁assets	-9.43594
▁speed	-9.43626
q	-9.43639
▁centres	-9.43937
▁consensus	-9.43945
▁giving	-9.43946
tra	-9.43986
▁army	-9.44031
▁measure	-9.44278
▁offer	-9.44323
▁fine	-9.44337
▁eastern	-9.44381
▁shown	-9.4444
▁lost	-9.44505
ical	-9.44541
▁suggested	-9.44631
▁elements	-9.44662
▁northern	-9.44717
▁peacekeeping	-9.44742
▁2001,	-9.4476
▁everyone	-9.44797
▁communities	-9.44846
▁undertaken	-9.4497
▁unable	-9.45133
▁purposes	-9.45186
▁provisional	-9.45233
▁figures	-9.45269
making	-9.45427
▁2002	-9.45452
▁tell	-9.45474
▁stop	-9.45568
▁setting	-9.45733
▁addressed	-9.45739
▁economies	-9.4582
▁presence	-9.45951
▁beyond	-9.46016
▁aid	-9.46034
▁stand	-9.46148
▁cities	-9.46184
):	-9.46213
▁bus	-9.46334
▁holding	-9.46357
▁ability	-9.46367
▁largest	-9.46389
▁item	-9.46422
▁protocol	-9.46475
▁idea	-9.46616
▁signed	-9.46675
▁judicial	-9.46684
▁shows	-9.46761
▁thank	-9.46794
ot	-9.46813
▁extremely	-9.46875
▁educational	-9.46883
▁contact	-9.4693
▁violations	-9.46931
▁film	-9.46934
ep	-9.47008
▁bar	-9.47046
▁across	-9.47332
pi	-9.47353
▁center	-9.47385
▁seems	-9.47407
▁aimed	-9.4759
▁green	-9.47598
▁port	-9.47599
▁practices	-9.47604
mp	-9.47736
▁town	-9.47787
▁vi	-9.47836
▁submit	-9.47848
du	-9.47876
ign	-9.47948
▁annex	-9.48198
izing	-9.4828
land	-9.48286
▁examination	-9.48331
▁speech	-9.48464
▁negative	-9.48465
▁india	-9.48517
▁nevertheless	-9.48532
▁failure	-9.48535
▁friends	-9.48597
ite	-9.48616
▁mis	-9.48651
▁sun	-9.48724
▁chung	-9.48813
▁1998,	-9.49
▁resolutions	-9.49108
▁whom	-9.49178
▁buy	-9.49195
▁attitude	-9.49272
▁operating	-9.4942
▁stressed	-9.49422
▁occurred	-9.4948
▁amp	-9.49578
▁scope	-9.49678
▁exports	-9.49715
▁placed	-9.49724
▁charge	-9.49755
▁appointed	-9.49784
▁railway	-9.49819
▁normal	-9.49853
▁cheng	-9.49914
▁favour	-9.49919
▁gave	-9.49968
▁felt	-9.50021
▁distribution	-9.50086
▁sir	-9.50156
▁talks	-9.50238
wa	-9.50281
▁agriculture	-9.5029
▁banks	-9.50293
▁adequate	-9.5033
▁leadership	-9.50431
▁employers	-9.50553
▁gender	-9.50564
▁insurance	-9.50701
▁target	-9.50779
▁ni	-9.50829
▁condition	-9.50895
▁1991	-9.50914
▁prior	-9.50937
fa	-9.5106
▁scale	-9.5122
ging	-9.51412
▁ja	-9.51426
fe	-9.51467
bo	-9.51659
▁followed	-9.51711
▁70	-9.51712
▁sure	-9.5173
▁principal	-9.51803
▁safe	-9.51807
▁medicine	-9.51892
hi	-9.51972
▁claims	-9.52044
▁link	-9.52066
▁returned	-9.52122
▁applied	-9.5215
▁entry	-9.5222
▁burden	-9.52222
▁pm	-9.52306
▁articles	-9.52355
▁moment	-9.52408
▁produce	-9.52504
▁drugs	-9.5255
▁mutual	-9.52612
▁import	-9.52773
lu	-9.52783
▁aim	-9.52788
▁read	-9.52839
▁apart	-9.53026
▁actual	-9.53033
▁da	-9.5306
ao	-9.5312
▁sources	-9.53198
▁himself	-9.53207
▁operational	-9.53207
gr	-9.5323
▁below	-9.53247
▁net	-9.53269
▁sound	-9.53355
▁miss	-9.53469
▁occupation	-9.53496
ists	-9.53523
▁begin	-9.53544
▁france	-9.53644
▁volume	-9.53691
▁heads	-9.53712
ag	-9.53737
▁highest	-9.53845
▁looking	-9.53882
▁transition	-9.53916
▁attempt	-9.54007
▁investigations	-9.54039
▁closely	-9.54052
▁trend	-9.54074
com	-9.54105
hu	-9.54175
▁draw	-9.54211
▁village	-9.54227
▁spread	-9.54471
▁goal	-9.54477
▁l	-9.5451
▁remained	-9.54517
que	-9.54538
ard	-9.54546
▁top	-9.54704
▁complex	-9.54797
pl	-9.5482
▁nt	-9.54935
▁thing	-9.54995
▁sale	-9.55055
▁book	-9.55094
▁critical	-9.5514
▁otherwise	-9.55185
▁dollars	-9.55227
▁canada	-9.55285
▁sales	-9.55292
▁improved	-9.55333
responsibilities	-9.554
▁yu	-9.5542
ex	-9.55456
▁released	-9.55474
▁che	-9.55627
▁fear	-9.55719
▁chamber	-9.5576
▁got	-9.55778
called	-9.55813
▁vehicle	-9.55851
▁girls	-9.55865
▁preparation	-9.55928
▁chance	-9.55939
▁monitor	-9.55957
▁reasonable	-9.56117
see	-9.56438
▁initiatives	-9.56508
▁globalization	-9.56519
▁father	-9.56561
▁professor	-9.56628
▁accepted	-9.56636
ber	-9.56649
▁adopt	-9.56822
rd	-9.56935
▁influence	-9.56993
▁fa	-9.56998
▁lau	-9.57014
▁du	-9.57022
▁san	-9.57037
▁discuss	-9.57042
▁useful	-9.57072
fi	-9.5722
ak	-9.57271
▁sexual	-9.57285
af	-9.57318
▁pi	-9.57387
▁female	-9.57431
pt	-9.57594
▁plant	-9.57696
▁skills	-9.57711
▁tourism	-9.57736
▁prison	-9.57748
▁mean	-9.57755
▁check	-9.57819
▁heard	-9.57893
▁efficiency	-9.57946
▁destruction	-9.58093
tr	-9.58154
▁forced	-9.58155
day	-9.58196
ps	-9.58216
do	-9.58225
▁resulting	-9.58311
building	-9.58431
▁religious	-9.58463
▁launched	-9.58475
qu	-9.5851
level	-9.58523
▁financing	-9.5858
▁approval	-9.58611
▁guidelines	-9.58685
▁won	-9.58782
che	-9.5881
▁substantial	-9.58817
▁constitutional	-9.58851
out	-9.58874
▁killed	-9.58941
▁(19	-9.58964
▁sum	-9.59134
▁contained	-9.59142
▁eight	-9.59156
▁involving	-9.59206
ise	-9.5922
▁fi	-9.59343
▁nearly	-9.59371
▁hoped	-9.59397
▁invited	-9.59412
▁ge	-9.59448
▁resulted	-9.59461
▁ti	-9.59537
ster	-9.59599
▁2000.	-9.59625
▁highly	-9.59723
▁partnership	-9.59732
▁expert	-9.59735
bi	-9.5975
▁rapid	-9.59789
▁estate	-9.59842
▁developments	-9.59996
▁popular	-9.60001
▁decide	-9.60004
▁diplomatic	-9.60032
▁written	-9.60062
▁com	-9.60098
▁methods	-9.60144
▁powers	-9.6018
▁scientific	-9.60256
▁civilians	-9.60333
▁considerable	-9.60343
▁imposed	-9.60372
▁clean	-9.604
▁jobs	-9.60527
▁pass	-9.6053
▁candidates	-9.60534
▁relief	-9.60565
▁academic	-9.60709
▁figure	-9.60744
▁creation	-9.60801
▁pacific	-9.60816
▁patients	-9.60954
▁moved	-9.61044
▁limit	-9.61066
▁troops	-9.61118
of	-9.61127
▁arts	-9.61208
oc	-9.6122
▁communications	-9.61323
▁failed	-9.61341
▁ru	-9.61379
▁emphasis	-9.61469
▁decline	-9.61523
▁sovereignty	-9.61551
ably	-9.61567
ten	-9.61569
▁improving	-9.61622
▁approximately	-9.61655
▁reflect	-9.61662
▁2003	-9.61725
▁strength	-9.61812
▁ensuring	-9.61852
▁prosecutor	-9.61852
▁yesterday	-9.61852
▁calls	-9.61903
▁instruments	-9.61985
▁bear	-9.61997
▁immediate	-9.6207
▁appear	-9.6211
▁posts	-9.62144
▁initial	-9.62148
▁ju	-9.62154
▁...	-9.62353
▁possibility	-9.62466
▁gas	-9.6249
gu	-9.6252
▁proceedings	-9.62601
▁owners	-9.62706
▁suffering	-9.62737
▁increasingly	-9.62784
▁black	-9.62852
▁bad	-9.62855
ga	-9.62902
comp	-9.62911
▁determined	-9.62912
ear	-9.62921
▁sites	-9.62976
▁teaching	-9.62977
▁jurisdiction	-9.63007
▁manufacturing	-9.63007
ine	-9.63113
off	-9.63118
▁appointment	-9.63174
▁islamic	-9.6324
▁imp	-9.63365
pro	-9.63392
▁consequences	-9.63461
▁colleagues	-9.63468
▁occasion	-9.63495
▁offence	-9.63517
▁takes	-9.63563
▁corruption	-9.63629
▁disease	-9.63643
let	-9.63662
▁try	-9.63669
▁white	-9.63719
▁attend	-9.63765
▁ga	-9.63929
▁sometimes	-9.64022
▁type	-9.64096
▁floor	-9.64098
▁counter	-9.64153
▁mu	-9.64477
▁trading	-9.6457
▁inside	-9.64591
▁offered	-9.64754
▁membership	-9.64759
▁birth	-9.64799
▁radio	-9.64999
ec	-9.65026
▁makes	-9.65105
▁outcome	-9.65122
▁kowloon	-9.65201
▁congress	-9.65204
▁tea	-9.65236
▁registered	-9.6526
▁obtain	-9.6528
▁iran	-9.65313
▁z	-9.65355
▁hands	-9.65458
▁located	-9.65598
av	-9.65822
▁ms	-9.65924
▁fu	-9.65969
▁dealing	-9.65976
▁premises	-9.6598
related	-9.6603
▁separate	-9.66071
▁registration	-9.66076
▁alone	-9.66085
▁produced	-9.66125
▁reporting	-9.66186
▁learn	-9.66193
▁origin	-9.66242
▁designed	-9.66328
cc	-9.66336
ung	-9.66414
▁effectively	-9.66446
▁engaged	-9.66551
▁er	-9.66594
ev	-9.66615
bu	-9.66628
▁equality	-9.66685
▁actively	-9.66721
▁product	-9.6681
▁besides	-9.66889
▁detailed	-9.6697
▁80	-9.67004
▁cold	-9.67112
▁kuwait	-9.67217
▁master	-9.67227
▁discussed	-9.67246
▁sp	-9.67273
▁carrying	-9.67303
od	-9.67342
▁generation	-9.67372
▁fees	-9.67381
▁ambassador	-9.67443
▁proportion	-9.67443
▁1997.	-9.67445
▁content	-9.67454
▁extend	-9.6746
ven	-9.67461
▁violation	-9.67531
▁mark	-9.6755
▁covered	-9.67555
▁remaining	-9.67597
ions	-9.67635
▁rent	-9.67726
qui	-9.67745
▁relatively	-9.67758
▁acting	-9.67777
▁hall	-9.67922
▁n	-9.6797
▁believed	-9.67999
▁expression	-9.68022
ction	-9.68068
nt	-9.68122
▁complaints	-9.68166
▁fuel	-9.68202
▁sign	-9.68305
▁intended	-9.68341
▁decade	-9.68363
▁built	-9.68502
▁festival	-9.68502
lt	-9.68551
▁municipal	-9.68576
▁strategic	-9.68584
▁owing	-9.68587
▁opened	-9.68594
▁missions	-9.68605
ability	-9.68695
▁pakistan	-9.68748
▁relation	-9.68771
▁mechanisms	-9.68784
▁shui	-9.68879
▁wishes	-9.68887
▁servants	-9.68966
pr	-9.69005
▁dollar	-9.69029
side	-9.69063
▁amendments	-9.69117
▁size	-9.69137
▁cheung	-9.69249
by	-9.69261
▁resource	-9.69279
▁guarantee	-9.69283
▁comments	-9.69294
▁integration	-9.69324
▁homes	-9.69395
ab	-9.69411
▁goals	-9.69424
▁awareness	-9.69521
▁proper	-9.69522
▁french	-9.69572
lin	-9.69601
ka	-9.69643
▁latin	-9.69664
▁ban	-9.69763
▁challenge	-9.6987
▁voice	-9.69907
▁combat	-9.69935
king	-9.69981
ah	-9.69984
▁count	-9.7002
▁aircraft	-9.7007
▁details	-9.70153
▁release	-9.70234
▁dance	-9.7029
▁aged	-9.70456
▁talk	-9.70508
▁message	-9.7057
tu	-9.70641
▁australia	-9.70685
-19	-9.70806
▁hiv	-9.70979
▁encouraged	-9.71045
▁recognize	-9.71242
▁resolve	-9.71326
▁victim	-9.71404
▁types	-9.71496
▁described	-9.71549
▁leung	-9.71588
▁2001.	-9.71601
ou	-9.71676
▁partners	-9.71766
▁trafficking	-9.71797
▁becoming	-9.71817
▁character	-9.71822
▁break	-9.71913
ft	-9.71929
▁tin	-9.71954
operation	-9.72037
▁latest	-9.72047
▁closed	-9.72153
▁reply	-9.7217
▁shanghai	-9.72171
▁cuba	-9.72188
▁trying	-9.7225
▁museum	-9.72256
au	-9.72269
over	-9.72305
▁standing	-9.72344
▁wo	-9.72346
▁values	-9.72372
▁displaced	-9.72511
▁recommended	-9.72572
▁fish	-9.72617
▁bilateral	-9.72767
▁advantage	-9.72881
▁weak	-9.72896
▁comment	-9.72918
ants	-9.72927
▁completion	-9.72938
▁simple	-9.73025
▁era	-9.73258
▁opposition	-9.73281
▁duties	-9.73285
▁establishing	-9.73345
▁para	-9.73356
ped	-9.73391
lar	-9.73415
▁flow	-9.73459
ations	-9.73482
▁1999.	-9.73569
▁200	-9.73648
ff	-9.73679
▁judges	-9.73806
scale	-9.73887
▁faced	-9.74016
▁numerous	-9.74057
▁visitors	-9.74086
▁bi	-9.74142
▁incidents	-9.74245
▁seriously	-9.74294
▁train	-9.74323
▁award	-9.74411
▁recorded	-9.74494
ming	-9.74553
▁pollution	-9.74577
ative	-9.74677
▁moral	-9.74685
▁ill	-9.74705
▁changed	-9.74724
▁gross	-9.74752
▁sentence	-9.74868
ie	-9.74987
▁minimum	-9.75013
▁gradually	-9.75071
▁identified	-9.75101
▁weeks	-9.75131
▁inflation	-9.75189
▁undp	-9.75189
▁slow	-9.75215
nd	-9.75229
▁perform	-9.75288
▁arrest	-9.75382
▁evaluation	-9.75453
▁tu	-9.75507
▁korean	-9.75567
▁formal	-9.75589
▁judge	-9.75762
▁causes	-9.75772
▁fields	-9.75783
▁historical	-9.7579
▁revenue	-9.758
▁extended	-9.75812
ified	-9.7589
▁stations	-9.75948
▁geneva	-9.75979
▁ministers	-9.76071
▁sc	-9.76093
▁br	-9.76126
▁learning	-9.76223
vo	-9.76357
▁implementing	-9.76408
▁huang	-9.76443
gen	-9.76486
▁covenant	-9.76599
▁extensive	-9.76599
▁courts	-9.76679
▁contrary	-9.76687
▁penalty	-9.76782
▁completely	-9.76796
▁thousands	-9.76822
▁hi	-9.76831
ral	-9.76847
▁entered	-9.76887
ill	-9.76981
ai	-9.77028
▁image	-9.7715
▁qu	-9.77289
▁earth	-9.77312
▁advance	-9.77322
▁collective	-9.77414
▁recovery	-9.77444
▁expect	-9.77475
▁wrong	-9.77571
▁wealth	-9.77581
▁urged	-9.77622
j	-9.77643
▁easy	-9.7767
50	-9.77683
▁saw	-9.77684
▁accident	-9.77789
so	-9.77816
▁tsang	-9.7785
▁mine	-9.77885
▁prosperity	-9.77939
▁fo	-9.78016
ient	-9.78179
▁appreciation	-9.78211
▁parliament	-9.78283
10	-9.783
▁introduction	-9.783
▁regards	-9.78352
▁cons	-9.7846
▁lay	-9.78526
▁wife	-9.78752
▁consumer	-9.78814
▁mar	-9.78884
▁detention	-9.78934
▁singapore	-9.78934
▁reality	-9.79032
▁determine	-9.79046
▁loans	-9.79065
tro	-9.79194
▁sierra	-9.79298
▁injured	-9.79347
▁courses	-9.79371
▁leone	-9.79488
▁ch	-9.79576
▁marine	-9.79578
▁reforms	-9.79588
▁1998.	-9.79589
▁requirement	-9.79593
▁absence	-9.79663
▁existence	-9.79673
▁respond	-9.79682
▁yi	-9.79687
▁flats	-9.79775
act	-9.79821
▁includes	-9.79917
▁inform	-9.79996
▁program	-9.80011
▁worked	-9.80045
▁britain	-9.80122
▁claimant	-9.80134
▁alternative	-9.80214
▁licence	-9.80214
▁believes	-9.80219
▁unless	-9.80269
▁strategies	-9.80306
▁foot	-9.80317
▁ship	-9.8037
art	-9.80538
▁strongly	-9.80586
▁requests	-9.80605
);	-9.80728
▁mention	-9.80747
▁attract	-9.80777
▁latter	-9.80779
tter	-9.80835
▁determination	-9.80911
▁regulation	-9.80939
▁facing	-9.80955
▁kept	-9.80956
▁ii	-9.80967
ned	-9.81005
▁wage	-9.81092
ward	-9.81102
▁recognition	-9.81139
rt	-9.81159
▁welcomed	-9.81181
▁diseases	-9.81215
▁35	-9.81332
▁planned	-9.81349
▁technologies	-9.81511
▁outstanding	-9.81551
▁decrease	-9.81632
▁occupied	-9.81654
▁door	-9.81667
▁comes	-9.81809
▁worth	-9.81983
ell	-9.82038
▁involvement	-9.82095
▁urgent	-9.821
▁islands	-9.82123
▁integrated	-9.82142
▁turned	-9.82214
▁expansion	-9.82354
▁prosecution	-9.82354
▁namely	-9.82374
▁nationality	-9.824
▁sex	-9.82456
▁instrument	-9.82472
▁disaster	-9.82475
▁granted	-9.8252
▁afternoon	-9.82542
ship	-9.82683
▁died	-9.82684
cr	-9.82796
▁invest	-9.82834
▁blood	-9.82919
▁manpower	-9.82927
▁rwanda	-9.8296
▁anniversary	-9.83014
▁perspective	-9.83014
▁satellite	-9.83014
res	-9.83098
▁multilateral	-9.83109
▁sought	-9.83109
▁writing	-9.83203
▁(1)	-9.83208
▁collection	-9.83241
lan	-9.83335
▁advanced	-9.83375
97	-9.83484
▁gap	-9.83564
▁method	-9.83624
▁introduce	-9.83647
si	-9.83666
▁effectiveness	-9.83668
her	-9.8367
▁college	-9.83679
▁wind	-9.83685
▁advice	-9.83774
▁liu	-9.83781
▁suffered	-9.83876
▁path	-9.83879
weapon	-9.83931
▁inspection	-9.83938
▁preparatory	-9.84061
▁increases	-9.84098
▁bl	-9.84143
ip	-9.84211
▁firm	-9.84236
▁hit	-9.84261
xi	-9.84502
▁users	-9.84543
▁marriage	-9.84732
▁temple	-9.84829
▁served	-9.84832
▁seeking	-9.85032
▁trip	-9.85045
▁grave	-9.85062
▁permit	-9.85183
▁situations	-9.85206
▁county	-9.85224
▁percentage	-9.85228
▁ready	-9.85343
▁fighting	-9.85433
▁reflected	-9.85442
▁student	-9.85489
▁technological	-9.85506
▁requires	-9.8559
▁desire	-9.85607
▁depend	-9.85612
▁sports	-9.8569
▁millennium	-9.857
▁businesses	-9.85754
▁etc	-9.85873
▁soldiers	-9.86059
▁efficient	-9.86082
▁sw	-9.86128
▁2002,	-9.86134
▁concluded	-9.86137
▁audit	-9.86179
▁wanted	-9.86249
▁torture	-9.86286
▁gr	-9.86338
▁maximum	-9.86385
▁goes	-9.86395
▁ahead	-9.86428
▁indonesia	-9.8646
▁definition	-9.86481
▁picture	-9.86481
▁temporary	-9.86481
▁90	-9.86493
▁liberal	-9.86568
▁warm	-9.86593
▁showed	-9.86615
▁interested	-9.86632
▁seem	-9.86748
▁scheduled	-9.86769
▁impossible	-9.86775
▁revealed	-9.86869
▁integrity	-9.86874
ph	-9.86902
▁huge	-9.86914
▁illicit	-9.8707
▁im	-9.87149
▁maintained	-9.87254
ea	-9.87277
▁gra	-9.87291
▁arrangement	-9.87294
▁chemical	-9.87565
▁extra	-9.87595
▁passengers	-9.87698
▁gain	-9.87843
▁bosnia	-9.87847
▁protest	-9.87871
▁disputes	-9.87924
▁gone	-9.88006
▁yang	-9.88034
▁germany	-9.88105
▁leader	-9.88122
▁waiting	-9.88143
▁dangerous	-9.88175
▁arrived	-9.88189
▁son	-9.88293
▁propose	-9.88308
▁getting	-9.8835
▁unique	-9.8836
▁delay	-9.88396
▁ne	-9.8862
▁thinking	-9.88627
▁offences	-9.88646
▁fail	-9.88681
▁concrete	-9.8876
▁quickly	-9.88832
▁proceed	-9.8886
▁zealand	-9.89062
▁severe	-9.89101
▁usually	-9.89123
fer	-9.89125
▁confirmed	-9.89143
▁probably	-9.89162
▁star	-9.89165
serv	-9.8923
▁pe	-9.89242
▁extension	-9.89263
ny	-9.89284
▁web	-9.89306
▁ocean	-9.89364
rc	-9.89434
cl	-9.8947
▁boat	-9.89535
▁explained	-9.89572
▁gold	-9.89603
▁rehabilitation	-9.89671
eg	-9.89761
▁aggression	-9.89768
▁allowance	-9.89808
▁records	-9.89829
▁profit	-9.89874
free	-9.89879
▁hence	-9.89993
▁story	-9.89998
▁minutes	-9.90016
▁elimination	-9.90072
▁taxi	-9.901
▁expenses	-9.90125
▁sa	-9.90145
▁corporation	-9.90146
▁supplies	-9.90174
▁spent	-9.90195
▁urge	-9.90196
▁accused	-9.90319
▁delivery	-9.90345
▁hearing	-9.90401
▁participating	-9.90581
▁thereby	-9.90591
▁criteria	-9.90684
▁everything	-9.90684
▁mun	-9.90768
▁walk	-9.90787
▁attended	-9.90812
▁assistant	-9.90816
▁commitments	-9.90817
▁participated	-9.90832
▁ongoing	-9.90882
▁drawn	-9.9103
▁interpretation	-9.91039
▁visited	-9.91091
▁45	-9.91103
▁games	-9.91109
▁word	-9.91121
▁race	-9.91145
▁associated	-9.91216
▁1,	-9.9125
ology	-9.91296
ze	-9.91311
▁operators	-9.91386
▁shi	-9.91422
▁creating	-9.91615
▁restrictions	-9.91689
▁stress	-9.91724
ure	-9.91757
▁accounts	-9.91888
▁2002.	-9.91889
▁voluntary	-9.91918
▁positions	-9.92068
▁correct	-9.92228
▁cancer	-9.92341
lor	-9.92506
▁afford	-9.9254
▁consumption	-9.9254
▁dead	-9.9257
▁investors	-9.92655
▁refugee	-9.92681
▁mountain	-9.92704
▁represented	-9.92738
▁grow	-9.92773
end	-9.92793
▁respective	-9.92876
uc	-9.9295
30	-9.93
▁evening	-9.9303
▁variety	-9.93062
▁male	-9.93126
ying	-9.93189
ger	-9.93194
▁angola	-9.93225
▁ku	-9.93247
ef	-9.93249
▁obtained	-9.93292
▁obligation	-9.933
▁meaning	-9.93305
▁launch	-9.93398
▁older	-9.93408
▁starting	-9.93464
▁willing	-9.93483
▁tra	-9.935
▁undertake	-9.93596
▁branch	-9.93625
▁block	-9.93691
▁books	-9.93882
▁factor	-9.93888
▁substantive	-9.93903
▁retail	-9.93903
▁operate	-9.93917
bb	-9.93941
▁cash	-9.93967
▁identify	-9.9405
20	-9.94095
▁hoc	-9.94199
▁danger	-9.9442
▁greatest	-9.94453
▁(2)	-9.94543
▁lam	-9.94572
▁wait	-9.94633
▁institutional	-9.94657
▁fan	-9.94681
▁recommends	-9.94705
our	-9.94711
▁achieving	-9.94751
▁electoral	-9.94751
▁greatly	-9.94797
▁secure	-9.94818
▁drop	-9.94894
▁watch	-9.94903
▁prepare	-9.95032
▁ka	-9.95055
▁bridge	-9.95074
▁spring	-9.95083
▁guide	-9.95128
ja	-9.95148
▁function	-9.95165
▁anything	-9.9518
▁interview	-9.95274
▁certificate	-9.95284
▁allocation	-9.95285
▁pension	-9.95286
ible	-9.95287
▁hopes	-9.95323
▁struggle	-9.95392
▁happy	-9.95499
▁numbers	-9.95587
▁moving	-9.95606
ron	-9.95629
▁alia	-9.95836
▁selected	-9.95874
▁pu	-9.95888
▁bu	-9.95972
▁observed	-9.9599
▁represent	-9.96087
▁va	-9.96186
▁grounds	-9.96216
▁cast	-9.96249
▁abroad	-9.96252
▁husband	-9.96252
▁square	-9.96252
▁adjustment	-9.96357
▁appreciate	-9.9636
▁imprisonment	-9.9636
ification	-9.96378
▁explain	-9.96446
▁sudan	-9.96466
▁residential	-9.96477
we	-9.96497
▁nine	-9.96509
▁suffer	-9.96514
▁compliance	-9.96668
▁jointly	-9.96676
▁happen	-9.96679
▁encouraging	-9.96685
▁maintaining	-9.96685
▁sta	-9.96817
▁tv	-9.96847
▁display	-9.96896
▁caribbean	-9.96903
▁identity	-9.96903
▁exist	-9.96992
▁differences	-9.97046
▁assess	-9.97087
▁stable	-9.97121
hua	-9.97163
▁charged	-9.97197
mm	-9.97224
wi	-9.97281
▁theme	-9.97378
hai	-9.97391
▁core	-9.97512
▁successfully	-9.97702
▁contracts	-9.97724
▁rice	-9.97801
▁des	-9.97806
▁firms	-9.97821
▁save	-9.9783
▁recommendation	-9.97913
▁neither	-9.97996
ud	-9.9805
▁fulfil	-9.98062
mor	-9.98125
▁lose	-9.98133
▁subsequently	-9.9814
▁intend	-9.98142
▁chapter	-9.98327
mer	-9.9833
▁chu	-9.98396
ji	-9.98542
▁ming	-9.98593
▁decades	-9.98627
▁reading	-9.98708
▁communist	-9.9888
▁leaving	-9.9888
▁wall	-9.98914
▁contributed	-9.98924
▁except	-9.99001
▁deployment	-9.99112
▁track	-9.99122
▁dealt	-9.99288
▁background	-9.99324
▁transparency	-9.99324
▁ideas	-9.99351
▁harm	-9.99422
▁300	-9.99499
▁choose	-9.99547
▁painting	-9.99588
▁($	-9.99619
▁bur	-9.99629
▁tomorrow	-9.99659
▁dispute	-9.99702
▁alleged	-9.99718
▁laid	-9.99753
▁suitable	-9.99907
▁tang	-9.99909
▁commerce	-9.99915
▁ce	-9.99938
▁unity	-9.99956
▁killing	-10.0007
▁cha	-10.0011
▁remember	-10.0013
point	-10.0017
▁length	-10.0022
▁burundi	-10.0022
▁achievements	-10.003
▁seats	-10.0035
▁kinds	-10.004
yu	-10.004
▁significantly	-10.0042
▁pr	-10.0046
ries	-10.0047
▁spend	-10.0052
▁experienced	-10.0057
▁changing	-10.0058
▁deeply	-10.0066
▁object	-10.0067
▁forth	-10.0075
pu	-10.0075
shan	-10.008
mu	-10.008
▁observers	-10.0081
▁poll	-10.0082
▁shu	-10.0097
▁brief	-10.0098
▁monthly	-10.0101
▁warning	-10.0119
▁eyes	-10.012
hk	-10.012
▁defend	-10.0123
▁weather	-10.0124
▁cooperate	-10.0125
▁refer	-10.0135
▁sl	-10.0137
tin	-10.0138
▁difference	-10.0155
hy	-10.016
▁package	-10.0172
▁played	-10.0178
▁transportation	-10.0184
▁considering	-10.0195
▁presentation	-10.0198
▁employed	-10.0202
han	-10.0202
▁guangdong	-10.0203
▁claimed	-10.0213
▁yuen	-10.0213
▁legislature	-10.0215
▁arise	-10.0216
▁tried	-10.0218
ide	-10.0223
98	-10.0224
▁secondly	-10.0225
▁findings	-10.0226
▁alliance	-10.0226
▁marked	-10.0228
son	-10.0231
▁constitute	-10.0234
▁provincial	-10.0238
▁card	-10.0243
▁informal	-10.0251
ko	-10.0255
▁worse	-10.0261
▁representing	-10.0267
▁easily	-10.0272
ied	-10.0278
▁representation	-10.0281
▁losses	-10.0287
▁roc	-10.029
▁mexico	-10.0295
▁opera	-10.0298
▁fra	-10.0306
▁enormous	-10.0307
▁pleased	-10.0313
▁climate	-10.0319
▁counsel	-10.0328
▁enquiries	-10.033
▁reconciliation	-10.033
zhou	-10.034
▁reducing	-10.0342
▁accordingly	-10.0343
use	-10.0344
▁pan	-10.0348
▁revised	-10.0359
▁index	-10.0366
▁keeping	-10.0366
▁breach	-10.037
▁pursuan	-10.0377
▁j	-10.0377
▁supporting	-10.0399
▁flu	-10.0406
▁attached	-10.041
nc	-10.0411
▁bomb	-10.0412
ory	-10.0412
▁wages	-10.0412
▁retirement	-10.0413
rate	-10.0423
▁born	-10.0431
one	-10.0434
▁forecast	-10.0435
▁reportedly	-10.044
▁fixed	-10.0443
▁sustained	-10.0443
▁style	-10.0443
▁brazil	-10.0447
▁audience	-10.0447
▁appears	-10.0449
▁visits	-10.0455
east	-10.0456
▁adapt	-10.0459
▁emphasized	-10.0459
ey	-10.046
▁feeling	-10.0464
▁minority	-10.0473
▁declared	-10.0495
▁hotel	-10.0496
▁territorial	-10.0506
▁legitimate	-10.0529
▁livelihood	-10.0529
▁achievement	-10.053
▁electricity	-10.0531
▁processes	-10.0533
▁teacher	-10.0537
▁vast	-10.0544
▁widely	-10.0555
▁focused	-10.0556
▁roads	-10.0556
▁cr	-10.0565
ugh	-10.0568
▁percent	-10.0572
vis	-10.0572
ya	-10.0574
▁naturally	-10.0576
▁ordinary	-10.0577
▁meanwhile	-10.0589
nan	-10.0591
▁governing	-10.0597
▁teams	-10.0598
▁sell	-10.061
istic	-10.0613
▁pick	-10.0616
▁linked	-10.0622
▁song	-10.0634
▁eventually	-10.064
▁hear	-10.0649
▁institution	-10.0652
▁anyone	-10.0658
▁originally	-10.0658
▁pace	-10.0666
▁grant	-10.067
▁fresh	-10.0672
ble	-10.0678
▁reserve	-10.0684
ler	-10.0689
ren	-10.0693
▁consistent	-10.0693
▁transit	-10.0695
port	-10.0696
▁someone	-10.0696
▁category	-10.0696
▁rain	-10.0698
▁colonial	-10.0708
▁commend	-10.0708
▁ruling	-10.0711
▁wai	-10.0712
▁dynasty	-10.072
ised	-10.0724
▁indicate	-10.0739
▁ko	-10.0739
▁previously	-10.0751
▁thailand	-10.0757
▁fell	-10.076
▁safeguard	-10.0768
▁solve	-10.0768
▁super	-10.0769
▁register	-10.0772
▁tasks	-10.0772
▁xi	-10.0774
ric	-10.0778
▁governance	-10.0781
ki	-10.0789
▁submission	-10.0794
val	-10.0796
▁societies	-10.0805
▁demands	-10.0813
▁500	-10.0818
▁shared	-10.0821
▁ideal	-10.0826
▁container	-10.083
ban	-10.0836
▁merely	-10.0837
▁tour	-10.0842
▁prize	-10.0848
▁votes	-10.0853
▁sharp	-10.0854
lic	-10.0856
▁unfortunately	-10.086
▁tend	-10.0861
▁demonstrate	-10.0878
▁store	-10.0882
▁handling	-10.0889
▁currency	-10.0891
▁36	-10.0895
cent	-10.0899
▁season	-10.0905
▁deposit	-10.0915
▁opinions	-10.0918
▁rely	-10.0922
▁estimates	-10.0923
▁bound	-10.0932
▁helping	-10.0935
▁statute	-10.0952
▁represents	-10.0955
▁defined	-10.0955
wide	-10.0956
▁profits	-10.0956
▁vital	-10.0962
▁secret	-10.0962
▁conf	-10.0966
▁enhanced	-10.0967
▁recall	-10.0968
▁hour	-10.0968
▁listen	-10.0976
▁intellectual	-10.0977
▁revolution	-10.0977
▁learned	-10.0979
▁quot	-10.0986
▁ratio	-10.0987
▁1980	-10.0997
load	-10.1
▁arrival	-10.1002
▁racial	-10.1002
▁lands	-10.1007
▁receiving	-10.1014
▁religion	-10.1014
▁rental	-10.1025
▁emphasize	-10.1026
▁third	-10.1032
fu	-10.1034
eng	-10.1039
igh	-10.1041
▁0	-10.1049
▁trees	-10.105
▁seminar	-10.1053
▁suggest	-10.1053
▁running	-10.1054
rg	-10.1057
▁prisoners	-10.1072
▁voting	-10.1078
▁realize	-10.1081
▁deficit	-10.1089
▁ver	-10.1096
▁payments	-10.1112
▁lines	-10.1127
▁thanks	-10.113
▁processing	-10.1155
▁ya	-10.116
▁subsequent	-10.116
▁fiscal	-10.1164
▁residence	-10.1164
sp	-10.1168
▁risks	-10.1171
▁farm	-10.1172
▁vulnerable	-10.1177
▁disabled	-10.1177
95	-10.1179
ld	-10.119
▁earn	-10.1193
ig	-10.1194
▁expand	-10.1194
ular	-10.1194
▁double	-10.1202
▁vision	-10.1205
▁putting	-10.1207
▁32	-10.1207
▁interim	-10.1209
▁considers	-10.1218
▁zones	-10.1221
▁ec	-10.1236
80	-10.1238
▁lebanon	-10.124
▁supervision	-10.124
▁causing	-10.124
▁names	-10.1252
▁politics	-10.1253
▁peak	-10.1254
lam	-10.1265
▁intelligence	-10.1265
▁photograph	-10.1266
▁fruit	-10.1272
▁ah	-10.1278
▁murder	-10.1278
▁fishing	-10.1284
▁ching	-10.1285
ug	-10.1293
▁freedoms	-10.1296
▁liberia	-10.1304
▁wonder	-10.1305
▁suspected	-10.1306
proliferation	-10.1307
▁consumers	-10.131
▁preliminary	-10.1316
▁improvements	-10.1317
▁command	-10.1321
▁send	-10.1324
▁household	-10.1326
▁customers	-10.1327
▁begun	-10.133
▁serving	-10.1342
▁universities	-10.1355
▁spot	-10.1356
▁specifically	-10.136
▁tests	-10.1365
▁specialized	-10.1366
rry	-10.1367
▁carefully	-10.1368
15	-10.1376
▁regret	-10.138
▁telephone	-10.1381
▁preserve	-10.1381
▁sold	-10.1382
▁involve	-10.1399
▁photo	-10.1406
▁consent	-10.1409
ple	-10.1415
▁examples	-10.1415
200	-10.142
▁punishment	-10.1422
▁unilateral	-10.1432
▁houses	-10.1433
▁genuine	-10.1445
▁malaysia	-10.1445
▁worry	-10.1446
▁hung	-10.1446
▁competitive	-10.1462
▁joined	-10.1465
▁enhancing	-10.1471
▁appeared	-10.1475
za	-10.1476
▁schedule	-10.1485
▁grand	-10.1487
▁playing	-10.1487
▁russia	-10.1487
▁remind	-10.149
▁categories	-10.1498
▁occasions	-10.1507
▁labor	-10.151
▁monetary	-10.151
▁selection	-10.1516
▁engage	-10.1521
▁bay	-10.1524
▁treaties	-10.1525
▁raising	-10.1525
▁tradition	-10.1528
▁cargo	-10.1553
99	-10.1555
arian	-10.156
▁occur	-10.1561
air	-10.1561
▁wa	-10.1565
▁shan	-10.1569
▁cease	-10.1576
▁han	-10.1584
▁tr	-10.1587
▁frequently	-10.1588
▁savings	-10.1589
▁gives	-10.1593
tal	-10.1596
▁bearing	-10.16
▁engineering	-10.1602
▁wave	-10.1605
▁55	-10.1608
but	-10.1609
▁chee	-10.1626
▁flat	-10.163
▁profession	-10.1631
▁intervention	-10.1639
▁hospitals	-10.164
▁dream	-10.1642
▁demonstrated	-10.1642
▁helped	-10.165
▁execution	-10.1655
▁geographical	-10.1655
▁afraid	-10.1668
▁collaboration	-10.1668
▁timely	-10.167
▁investments	-10.1683
▁treated	-10.1683
▁farmers	-10.1687
▁shortage	-10.1689
▁endeavour	-10.1708
▁neighbouring	-10.1708
▁eat	-10.1709
determination	-10.1714
▁undertaking	-10.1721
▁convey	-10.1721
▁select	-10.1725
▁fast	-10.174
▁tender	-10.1741
▁impression	-10.1748
▁valuable	-10.1748
▁33	-10.1749
▁discovered	-10.1758
owned	-10.1759
▁crucial	-10.1761
▁tenants	-10.1763
▁touch	-10.1765
▁withdrawal	-10.1766
▁allocated	-10.1769
▁fit	-10.1774
▁whereas	-10.1774
▁ukraine	-10.1775
▁healthy	-10.1775
▁unhcr	-10.1783
ham	-10.1786
▁necessarily	-10.1788
▁deliver	-10.1799
▁broadcast	-10.1804
▁excessive	-10.1816
▁location	-10.1817
▁formed	-10.1823
40	-10.1831
den	-10.1841
ther	-10.1844
▁bit	-10.1844
▁root	-10.1847
▁ob	-10.1847
ration	-10.1849
table	-10.1853
log	-10.1854
▁belief	-10.1855
▁banking	-10.1856
▁workshop	-10.1859
▁comply	-10.1869
▁examine	-10.1878
▁match	-10.1883
▁2,	-10.1885
▁transactions	-10.1887
▁washington	-10.1896
▁summer	-10.1897
▁software	-10.1909
▁solidarity	-10.1909
▁repair	-10.191
▁solutions	-10.1914
▁emb	-10.1921
▁larger	-10.1922
ms	-10.1931
▁guidance	-10.1937
▁schemes	-10.1948
▁ri	-10.1953
▁coverage	-10.1954
tan	-10.1954
▁organs	-10.1956
▁organised	-10.1971
▁remarks	-10.1981
▁explanation	-10.1991
ov	-10.1995
▁authorized	-10.1999
chung	-10.2
▁regarded	-10.2003
▁eu	-10.2005
▁reconstruction	-10.2005
▁shift	-10.2006
▁rapidly	-10.2008
▁route	-10.2011
▁sessions	-10.202
zi	-10.2021
▁manager	-10.2021
▁signing	-10.2027
▁resort	-10.2032
▁innocent	-10.2032
▁welcomes	-10.2044
▁career	-10.2045
▁atmosphere	-10.2046
▁harbour	-10.2046
▁truth	-10.2046
▁sort	-10.2057
▁egypt	-10.2059
▁strike	-10.206
▁arising	-10.2061
▁pursue	-10.2062
▁unicef	-10.2068
▁meant	-10.207
▁exceed	-10.2071
▁famous	-10.2074
▁protected	-10.2077
▁presidential	-10.2081
▁bush	-10.2085
▁herzegovina	-10.2088
▁guard	-10.2088
▁god	-10.2092
▁exception	-10.2101
▁applicable	-10.2101
▁foster	-10.2102
eh	-10.2104
▁option	-10.2104
▁structures	-10.2108
▁conviction	-10.2115
▁platform	-10.2115
▁ph	-10.2116
▁hksar	-10.2117
▁cu	-10.2119
▁win	-10.2122
▁professionals	-10.2129
▁salary	-10.213
▁phone	-10.2131
being	-10.2135
▁spending	-10.2135
▁addressing	-10.2137
bound	-10.2138
▁tension	-10.214
going	-10.2143
▁didn	-10.2145
▁king	-10.2145
▁34	-10.2146
▁insist	-10.2151
▁engine	-10.2157
▁briefing	-10.2162
▁passenger	-10.2166
lit	-10.2172
▁installation	-10.2176
fl	-10.2176
▁ng	-10.2177
ever	-10.2178
▁loan	-10.2178
▁enterprise	-10.2186
▁publication	-10.2186
▁entirely	-10.2188
500	-10.2205
▁managed	-10.2207
▁ji	-10.2208
▁bills	-10.2241
▁properly	-10.2241
▁billion	-10.2252
▁38	-10.2254
▁inadequate	-10.2255
▁turkey	-10.2255
▁title	-10.2255
▁shop	-10.226
▁threats	-10.2266
▁metres	-10.2271
▁limits	-10.2274
▁remote	-10.2283
▁seized	-10.2287
tur	-10.2291
set	-10.2296
▁kok	-10.2298
▁unemployed	-10.2298
dy	-10.2319
▁jo	-10.2319
▁resolved	-10.2325
▁overcome	-10.2325
▁observer	-10.2329
▁amounts	-10.2331
hong	-10.2332
▁subjected	-10.2333
shi	-10.2334
▁ancient	-10.234
▁committees	-10.2345
▁refuse	-10.2346
▁interpret	-10.2346
▁imports	-10.2347
▁minorities	-10.2354
▁48	-10.2363
▁eligible	-10.2368
▁palestine	-10.2368
▁unctad	-10.2368
▁investigate	-10.2368
▁topic	-10.2377
▁1000	-10.2379
▁broadcasting	-10.238
▁chiang	-10.2385
▁version	-10.2397
▁prove	-10.2403
ku	-10.2405
▁worldwide	-10.2406
▁sino	-10.241
pc	-10.2411
▁suit	-10.2418
▁devoted	-10.242
▁drivers	-10.2422
▁daughter	-10.2425
▁succeed	-10.2425
pre	-10.2425
▁guinea	-10.2425
▁hot	-10.2426
▁tons	-10.2428
▁37	-10.243
▁households	-10.2432
▁tourist	-10.2435
▁minor	-10.2435
▁unita	-10.2436
▁continuous	-10.2437
▁piece	-10.2438
▁tunnel	-10.2439
▁directed	-10.2444
▁streets	-10.2455
keeping	-10.2459
▁accounting	-10.2465
▁reunification	-10.2468
▁admitted	-10.2469
▁1989	-10.2469
▁largely	-10.2474
▁districts	-10.2474
light	-10.2482
ris	-10.2484
all	-10.2493
▁coordinator	-10.2497
▁ownership	-10.2497
▁exploitation	-10.2499
▁strengthened	-10.2499
▁shortly	-10.2507
▁denied	-10.2511
▁invite	-10.2515
▁accidents	-10.2521
▁camp	-10.2525
work	-10.2536
▁definitely	-10.2543
▁cap	-10.2544
▁relate	-10.2544
▁primarily	-10.2554
▁video	-10.2555
▁injuries	-10.2555
▁doctors	-10.2556
▁returning	-10.2562
▁output	-10.2569
▁languages	-10.2592
▁performed	-10.2595
▁happened	-10.2599
▁sad	-10.2599
▁je	-10.2604
▁page	-10.2606
▁fare	-10.2608
▁structural	-10.2612
lecommunications	-10.2615
▁reiterate	-10.2616
▁objection	-10.2618
▁conducting	-10.2618
▁fee	-10.262
▁brother	-10.2627
▁expanded	-10.2636
tive	-10.2641
▁resident	-10.2645
▁hsu	-10.2648
bian	-10.2649
▁missing	-10.265
▁donor	-10.2656
▁ki	-10.2657
az	-10.2662
▁push	-10.2662
long	-10.267
▁ethiopia	-10.2671
▁corporations	-10.2675
▁drawing	-10.2676
▁indicators	-10.2678
▁securities	-10.2686
▁totally	-10.2692
▁detained	-10.2693
▁continent	-10.2693
hand	-10.27
▁afghan	-10.27
▁excellent	-10.27
▁rescue	-10.2715
▁prospects	-10.2718
▁allegedly	-10.2722
▁drive	-10.2723
▁species	-10.273
▁croatia	-10.2734
▁finding	-10.2735
▁conservation	-10.2744
▁truly	-10.2744
▁weight	-10.2745
▁hang	-10.275
▁conferences	-10.2751
▁obvious	-10.2757
▁affirm	-10.2759
▁sin	-10.2762
▁familiar	-10.2774
▁narrow	-10.2774
▁competitiveness	-10.2777
▁autonomy	-10.2789
▁whatever	-10.2795
▁delivered	-10.2796
▁specified	-10.2804
economic	-10.2817
night	-10.2818
▁club	-10.2819
▁criticism	-10.2819
▁recruitment	-10.282
▁suggestions	-10.2821
▁associations	-10.2822
▁accountability	-10.2823
▁progressive	-10.2834
ei	-10.2835
▁chau	-10.2843
▁cyprus	-10.2848
▁eye	-10.2854
▁undermine	-10.2857
▁rising	-10.2865
▁tri	-10.2876
▁restructuring	-10.2878
▁applicants	-10.2881
▁socio	-10.2885
▁lasting	-10.2891
▁colombia	-10.2893
▁amended	-10.2895
▁commit	-10.2901
▁implications	-10.2904
▁garden	-10.2908
▁villages	-10.291
▁allegations	-10.2918
▁belong	-10.2919
▁ourselves	-10.2923
▁channels	-10.2928
▁preventive	-10.2932
▁appeals	-10.2936
▁gaza	-10.2939
▁admission	-10.2939
▁listed	-10.2942
ium	-10.2943
▁reviewed	-10.2951
house	-10.2953
▁judiciary	-10.2953
tuesday	-10.2968
▁distributed	-10.2975
▁proved	-10.298
▁trouble	-10.2983
▁micro	-10.2984
▁newly	-10.2989
▁mines	-10.2989
▁behaviour	-10.2999
▁mobile	-10.2999
▁surface	-10.2999
▁taliban	-10.2999
▁settlements	-10.3007
▁sit	-10.3013
68	-10.302
fr	-10.302
▁tuen	-10.3021
▁phenomenon	-10.3029
ties	-10.3051
▁turning	-10.3058
▁extreme	-10.3058
▁netherlands	-10.3059
▁clause	-10.306
▁procurement	-10.306
▁hundreds	-10.3061
▁mode	-10.3064
▁44	-10.3066
▁rose	-10.3068
▁actors	-10.3069
▁wing	-10.307
▁forest	-10.3081
▁lies	-10.3093
▁acceptable	-10.3098
▁explore	-10.3105
▁capable	-10.3109
▁drafting	-10.3111
▁game	-10.3114
▁element	-10.3118
▁saudi	-10.312
script	-10.3122
▁ip	-10.313
▁collect	-10.3133
▁flag	-10.3135
▁interior	-10.3136
mark	-10.3144
press	-10.3147
month	-10.3151
▁census	-10.3151
▁doctor	-10.3155
gi	-10.3157
▁destroyed	-10.3159
▁facts	-10.3161
▁couple	-10.3162
▁reaching	-10.3162
▁spare	-10.3163
▁invitation	-10.3167
▁1988	-10.3169
state	-10.3171
▁flood	-10.3175
▁humanity	-10.3175
▁kam	-10.3176
▁pilot	-10.3182
▁equally	-10.3183
▁transferred	-10.3185
ib	-10.3188
▁belonging	-10.319
▁plants	-10.3191
▁comparison	-10.3197
▁classes	-10.3198
▁nu	-10.32
▁mental	-10.3211
▁identification	-10.3213
▁expertise	-10.3215
▁53	-10.3217
▁consequently	-10.3217
96	-10.3222
▁fe	-10.3224
▁detail	-10.3226
▁turkish	-10.3228
▁ballot	-10.3229
win	-10.3234
▁contain	-10.3234
law	-10.3236
▁provinces	-10.3241
▁mortality	-10.3244
▁premier	-10.3244
▁movements	-10.3245
gan	-10.3245
▁agents	-10.3252
▁broke	-10.3255
hui	-10.3255
io	-10.3257
▁bid	-10.3259
▁receipt	-10.3259
▁priorities	-10.3261
▁chosen	-10.3263
60	-10.3264
ier	-10.3267
mission	-10.3279
▁initiated	-10.328
▁affecting	-10.3286
▁disposal	-10.329
▁wto	-10.3302
▁sy	-10.3318
▁supreme	-10.3322
▁dropped	-10.3323
▁aims	-10.333
▁flows	-10.3332
▁links	-10.3333
▁trans	-10.3333
▁manufacture	-10.3335
▁confident	-10.3336
▁liaison	-10.3337
▁rebel	-10.3341
ice	-10.3342
▁signs	-10.3344
▁rail	-10.3345
atory	-10.3348
▁deaths	-10.3356
▁leg	-10.3357
▁cambodia	-10.3369
▁treat	-10.3369
▁75	-10.3369
▁complaint	-10.338
▁looked	-10.3382
▁leisure	-10.3384
▁reaffirm	-10.3398
▁catch	-10.3412
yi	-10.3415
▁strict	-10.3415
▁fisheries	-10.3416
▁ping	-10.3417
▁dog	-10.342
▁refused	-10.342
▁difficulty	-10.3422
▁convinced	-10.3423
like	-10.3429
▁bra	-10.3431
▁none	-10.3443
▁vienna	-10.3448
▁strip	-10.3448
▁norms	-10.3465
ker	-10.3466
▁organize	-10.3471
▁calling	-10.3485
▁closer	-10.3494
▁dignity	-10.3495
▁equitable	-10.3495
▁candidate	-10.35
▁publicity	-10.3502
▁corporate	-10.3511
▁consult	-10.3519
▁screen	-10.3527
▁ball	-10.3533
▁possess	-10.3538
▁decreased	-10.3538
▁visa	-10.3549
▁eliminate	-10.355
▁characteristics	-10.3551
▁businessmen	-10.3552
▁feelings	-10.356
pol	-10.3563
▁corresponding	-10.3565
titut	-10.3577
▁powerful	-10.358
cra	-10.3589
▁expectations	-10.3592
▁employer	-10.3605
▁observe	-10.3606
▁smooth	-10.3607
▁comprise	-10.3607
▁(3)	-10.3608
▁speakers	-10.3609
▁mountains	-10.3614
▁threaten	-10.3617
11	-10.3621
▁driving	-10.3623
ture	-10.3625
▁unions	-10.3627
▁satisfaction	-10.3639
ching	-10.3639
▁1995.	-10.3645
▁chin	-10.3645
war	-10.3649
▁battle	-10.3656
aries	-10.366
▁innovation	-10.3672
▁preparing	-10.3672
▁acceptance	-10.3675
▁describe	-10.3679
▁feature	-10.3682
▁punish	-10.3685
▁advocate	-10.3688
▁shenzhen	-10.3688
▁inhabitants	-10.3688
▁protecting	-10.369
▁offering	-10.369
matic	-10.3695
▁girl	-10.3697
▁merit	-10.3705
▁urges	-10.3708
▁rational	-10.3721
▁tree	-10.3723
▁map	-10.3724
▁lake	-10.3729
▁400	-10.3734
▁accompanied	-10.3737
▁folk	-10.3737
▁shelter	-10.3737
▁opposed	-10.3742
ched	-10.3745
▁attach	-10.3751
▁widespread	-10.3753
▁manifest	-10.3753
▁ireland	-10.3753
▁movie	-10.3753
▁contacts	-10.3755
▁impose	-10.3761
▁functional	-10.3767
▁targets	-10.377
▁networks	-10.3772
▁obstacles	-10.3781
▁organ	-10.3782
▁relatives	-10.3783
cap	-10.3787
▁obviously	-10.3788
▁transitional	-10.3788
▁flight	-10.3799
90	-10.3812
▁indian	-10.3812
▁channel	-10.3813
▁hsi	-10.3818
ath	-10.3818
▁defense	-10.3819
▁analyse	-10.3819
▁consultative	-10.3819
▁54	-10.3827
▁visiting	-10.383
▁whenever	-10.3831
ese	-10.384
▁signature	-10.3852
▁65	-10.3863
▁repeatedly	-10.3866
▁deployed	-10.3868
▁hygiene	-10.3868
▁immigrants	-10.3872
▁designated	-10.3875
▁dated	-10.3876
▁handle	-10.3881
▁constantly	-10.3884
▁tribute	-10.3885
ub	-10.3894
▁diamond	-10.3901
▁distance	-10.3901
▁heritage	-10.3901
ken	-10.3902
▁cell	-10.3912
▁1996.	-10.3913
▁plenary	-10.3918
▁em	-10.3919
▁covering	-10.392
▁patient	-10.3924
▁invasion	-10.3934
▁uganda	-10.3934
▁systematic	-10.3934
▁availability	-10.3934
▁winter	-10.3936
▁min	-10.3941
▁gun	-10.3941
▁strait	-10.3942
▁towns	-10.395
▁amend	-10.395
▁contrast	-10.3951
▁profound	-10.3951
▁concert	-10.3951
▁mistake	-10.3951
45	-10.3954
▁tam	-10.3959
▁awarded	-10.3966
▁tourists	-10.3969
▁prohibit	-10.3976
▁56	-10.3979
▁constructive	-10.3985
▁equivalent	-10.4001
▁please	-10.4011
▁trends	-10.4012
▁aspect	-10.4016
▁suicide	-10.4018
▁wen	-10.4018
▁italy	-10.4021
▁sal	-10.4022
▁camps	-10.4033
▁write	-10.4033
▁wood	-10.4035
▁rev	-10.4038
▁qi	-10.405
▁worried	-10.4051
▁tsuen	-10.4056
▁prohibition	-10.4059
▁crossing	-10.4074
▁negotiation	-10.4085
meter	-10.409
▁remove	-10.4097
down	-10.4099
▁embargo	-10.4102
▁evident	-10.4102
▁shock	-10.4102
▁salaries	-10.4102
▁cook	-10.4105
▁features	-10.4112
▁commander	-10.4113
▁preventing	-10.4123
ement	-10.4123
▁conclude	-10.4128
not	-10.4135
▁georgia	-10.4136
▁outer	-10.4136
"	-10.4143
har	-10.4143
pec	-10.4148
care	-10.4154
▁assert	-10.4155
▁ran	-10.4159
▁significance	-10.417
▁violent	-10.417
▁reveal	-10.4171
▁experiences	-10.4178
▁tong	-10.4184
▁testing	-10.4189
▁reflects	-10.4191
▁judgement	-10.4193
▁shape	-10.4196
▁advised	-10.42
▁false	-10.4204
▁formulation	-10.4204
▁palestinians	-10.4206
▁stone	-10.4206
▁crop	-10.4208
▁massive	-10.4211
▁similarly	-10.4214
▁cypriot	-10.4221
▁passing	-10.4221
▁citizen	-10.4223
▁42	-10.4234
▁diversity	-10.4238
▁eritrea	-10.4238
▁ratification	-10.4238
ked	-10.4241
▁lai	-10.4244
▁expenditures	-10.4255
▁kung	-10.426
▁manage	-10.4264
▁greek	-10.4272
▁entering	-10.4273
▁removed	-10.4274
▁chao	-10.4279
▁witness	-10.4284
▁documentation	-10.4285
▁nan	-10.4286
▁arabia	-10.4288
▁rep	-10.429
▁parent	-10.4294
▁factory	-10.4295
▁sight	-10.4296
▁coast	-10.43
▁height	-10.4309
▁blow	-10.4309
▁wants	-10.4311
▁performing	-10.4313
▁uses	-10.4314
▁combined	-10.4315
▁color	-10.4324
▁olympic	-10.4324
▁segment	-10.4341
▁employee	-10.4347
▁settle	-10.4349
▁accord	-10.4356
▁stands	-10.4364
ition	-10.4366
▁normally	-10.4366
▁locations	-10.4373
▁techniques	-10.4374
▁motor	-10.4376
▁philippines	-10.4376
▁adverse	-10.4377
▁reservations	-10.4381
▁else	-10.4382
▁2004	-10.44
▁pose	-10.4406
▁firmly	-10.4406
▁estimate	-10.4409
sheng	-10.441
▁crowd	-10.4411
▁promise	-10.4421
▁showing	-10.4423
▁composition	-10.4429
▁constant	-10.4429
▁replaced	-10.4434
▁slightly	-10.4437
▁disasters	-10.4441
▁predict	-10.4446
arm	-10.4451
▁47	-10.4454
▁london	-10.4463
▁clearance	-10.4464
25	-10.4473
▁equity	-10.4481
▁49	-10.4488
▁talking	-10.4491
▁jerusalem	-10.4499
▁surplus	-10.4499
▁entities	-10.4499
ari	-10.45
▁orders	-10.4503
▁ministerial	-10.4507
mentioned	-10.4509
▁biennium	-10.4516
▁league	-10.4516
▁vessels	-10.452
▁assume	-10.4526
▁fung	-10.453
▁beautiful	-10.4534
▁satisfied	-10.4534
▁james	-10.4534
▁announcement	-10.4536
▁permitted	-10.4539
▁boundary	-10.454
▁toward	-10.4548
▁divided	-10.4552
▁retain	-10.4554
▁historic	-10.4554
▁selling	-10.4555
▁studying	-10.4556
▁approaches	-10.4558
lon	-10.4571
▁myself	-10.4574
▁realized	-10.4578
▁highlight	-10.4579
▁43	-10.4581
▁donors	-10.4585
▁conventions	-10.4586
▁regulatory	-10.4588
▁observation	-10.4596
▁chair	-10.4597
▁reaction	-10.4598
▁basically	-10.4599
▁somalia	-10.4608
▁lift	-10.4608
▁alarm	-10.4608
▁fallen	-10.4617
tech	-10.4635
▁animals	-10.4637
▁regulate	-10.464
92	-10.4641
fin	-10.4656
▁sovereign	-10.4657
▁muslim	-10.4658
▁terminal	-10.4658
▁perfect	-10.4659
▁seemed	-10.4665
ict	-10.4666
▁endorsed	-10.4686
▁expresses	-10.4687
▁conducive	-10.4694
kwong	-10.4694
▁cssa	-10.4694
▁52	-10.4697
▁highway	-10.4698
▁77	-10.4704
▁consist	-10.4712
▁productivity	-10.4712
▁via	-10.4713
▁defendant	-10.4713
▁km	-10.4718
▁reiterated	-10.4725
▁absolutely	-10.4726
▁cuban	-10.4728
dd	-10.4731
kin	-10.474
▁lived	-10.4742
93	-10.4745
▁120	-10.4745
▁emerging	-10.4748
▁vocational	-10.4748
▁employ	-10.4752
▁unfair	-10.4766
▁drinking	-10.4766
ile	-10.4775
▁councils	-10.4775
▁cru	-10.4779
▁preced	-10.4783
▁contains	-10.4783
▁statutory	-10.4784
▁mostly	-10.4786
▁explosion	-10.4802
▁insufficient	-10.4802
▁statistical	-10.4802
mine	-10.481
▁owner	-10.4812
▁39	-10.4814
▁millions	-10.4814
▁machine	-10.4819
▁chicken	-10.482
▁withdraw	-10.4822
▁collected	-10.4823
▁wished	-10.4825
▁grass	-10.4827
▁accession	-10.4834
board	-10.4834
▁bull	-10.4837
▁lawyers	-10.4838
▁ties	-10.484
▁amounted	-10.4843
▁combating	-10.4849
cep	-10.485
mar	-10.4851
▁strive	-10.4857
▁liberalization	-10.4859
▁grown	-10.4874
▁46	-10.4875
▁textile	-10.4876
▁frequent	-10.4877
▁reserves	-10.488
88	-10.4885
▁generations	-10.4892
▁possession	-10.4899
▁becomes	-10.4907
▁publications	-10.4908
▁hardly	-10.4908
▁regardless	-10.4909
▁grade	-10.4911
▁relax	-10.4912
▁letters	-10.4914
▁qualified	-10.4922
▁confirm	-10.4929
▁hectares	-10.493
▁mayor	-10.4934
▁cards	-10.4936
▁hill	-10.4937
▁filled	-10.4941
▁51	-10.4945
▁transmit	-10.4947
▁jordan	-10.4948
▁understood	-10.4967
▁spanish	-10.4967
▁pain	-10.4969
▁wider	-10.4971
▁advancement	-10.4973
row	-10.4978
94	-10.4978
▁41	-10.4979
▁cycle	-10.4983
test	-10.4984
▁organisations	-10.4985
500000	-10.4988
▁launching	-10.4997
▁guatemala	-10.5004
▁follows	-10.5007
▁discover	-10.5007
▁populations	-10.5008
vol	-10.5016
▁chai	-10.502
lle	-10.502
▁wild	-10.5022
▁jiang	-10.5026
▁dimension	-10.5031
right	-10.5037
▁azerbaijan	-10.5041
yan	-10.5043
▁coastal	-10.5048
▁instructions	-10.505
▁partner	-10.5054
▁indication	-10.5059
▁formation	-10.5062
▁virtually	-10.5063
▁components	-10.5065
▁syrian	-10.5065
▁ease	-10.5065
fully	-10.5068
▁clothing	-10.5078
▁privilege	-10.5078
▁friend	-10.508
▁brand	-10.5081
▁150	-10.5082
▁conclusions	-10.5084
nes	-10.5086
▁kai	-10.509
▁aside	-10.5096
▁pieces	-10.5097
▁fashion	-10.5097
▁innovative	-10.5097
▁assigned	-10.5097
▁competent	-10.5097
▁transformation	-10.5103
fo	-10.5103
▁discharge	-10.5109
ran	-10.5111
59	-10.5112
▁scholars	-10.5113
▁academy	-10.5115
▁tragic	-10.5115
ibility	-10.5115
ju	-10.5116
▁paragraphs	-10.5116
▁qing	-10.5117
▁hon	-10.5119
mate	-10.5129
▁vo	-10.5129
▁imported	-10.5129
ls	-10.5131
▁resumption	-10.5134
▁notification	-10.514
▁directors	-10.514
▁iron	-10.5147
▁covers	-10.5153
tergovernmental	-10.5153
▁passport	-10.5154
▁shares	-10.5164
▁blue	-10.5171
▁capacities	-10.5172
oriented	-10.5177
▁periods	-10.5179
▁options	-10.518
▁faith	-10.5184
▁drink	-10.519
▁closing	-10.519
▁oversight	-10.519
▁explains	-10.5193
▁hui	-10.5196
duct	-10.5198
▁promoted	-10.5206
▁attempts	-10.5207
▁si	-10.5214
▁relative	-10.5215
lay	-10.5215
▁indicates	-10.5216
▁enjoyed	-10.522
▁internally	-10.5223
▁haiti	-10.5224
▁conventional	-10.5227
▁compete	-10.5227
▁deterioration	-10.5228
▁shot	-10.5228
▁realization	-10.5236
▁rank	-10.5236
▁internationally	-10.5238
ising	-10.5245
▁witnessed	-10.5246
▁revision	-10.5247
▁chairperson	-10.5247
▁forget	-10.5248
▁newspaper	-10.5251
▁iii	-10.5251
▁reminded	-10.526
▁awards	-10.5261
▁literature	-10.5266
▁magazine	-10.5266
bil	-10.5281
▁confront	-10.5296
pped	-10.5296
▁recover	-10.53
▁courage	-10.5304
▁verification	-10.5305
▁assessed	-10.5305
▁pending	-10.5306
▁inspector	-10.5321
▁restrict	-10.5324
▁prohibited	-10.5342
▁elsewhere	-10.5342
▁patrol	-10.5342
▁pen	-10.5343
▁machinery	-10.5344
▁persist	-10.5345
▁spain	-10.5346
head	-10.535
▁holds	-10.536
▁closure	-10.5361
▁compromise	-10.5361
▁quantity	-10.5361
▁somewhat	-10.5361
▁departure	-10.5362
▁clinic	-10.5374
▁targeted	-10.5378
lm	-10.5378
▁collapse	-10.5381
▁survival	-10.5381
▁asylum	-10.5381
▁warrant	-10.5381
▁dark	-10.5381
gue	-10.5386
▁har	-10.5387
para	-10.5389
▁mal	-10.5392
▁wei	-10.5392
▁vis	-10.5393
▁careful	-10.5394
▁driver	-10.5395
▁characters	-10.5398
▁venue	-10.54
▁sample	-10.54
▁substantially	-10.5404
▁involves	-10.5407
▁adviser	-10.5408
▁detect	-10.5416
▁presidency	-10.5419
▁subjects	-10.542
▁witnesses	-10.5427
▁100000	-10.5428
▁favourable	-10.5428
▁repeated	-10.5432
▁restricted	-10.5433
▁cabinet	-10.5438
▁gratitude	-10.5438
▁papers	-10.544
▁constraints	-10.5441
flow	-10.5442
▁argument	-10.5446
▁tank	-10.5447
▁preparations	-10.5451
▁oppose	-10.5452
ological	-10.5453
▁soviet	-10.5458
▁throw	-10.5458
70	-10.5459
▁distinction	-10.5464
▁offers	-10.5467
▁replace	-10.5473
cip	-10.5474
▁sentenced	-10.5475
▁grateful	-10.5477
▁sitting	-10.548
▁thorough	-10.548
▁recommend	-10.5487
▁seat	-10.5493
▁taxes	-10.5495
▁shih	-10.5495
▁uniform	-10.5497
▁liquid	-10.5497
▁debtor	-10.5504
▁kaohsiung	-10.5516
friday	-10.5534
▁circle	-10.5536
▁regularly	-10.5541
▁hair	-10.5543
▁incurred	-10.5555
▁sustain	-10.5557
▁functioning	-10.5566
▁seeks	-10.5566
▁medicines	-10.5569
▁tremendous	-10.5575
▁gathering	-10.5577
▁declined	-10.5581
▁meters	-10.5581
▁ying	-10.5584
▁lung	-10.5585
▁cope	-10.5586
2000	-10.5588
▁arrive	-10.5589
▁database	-10.5594
▁dependent	-10.5598
▁asking	-10.5599
▁missile	-10.5606
bat	-10.5608
▁kmt	-10.5609
▁prefer	-10.5615
▁auto	-10.5617
▁injury	-10.5617
▁commodities	-10.5634
▁enabling	-10.5634
▁psychological	-10.5634
▁reinforce	-10.5634
▁57	-10.5636
▁manufacturers	-10.5636
▁golden	-10.5641
▁routes	-10.5644
▁tackle	-10.565
▁liberation	-10.5653
▁mandatory	-10.5653
▁sphere	-10.5653
▁generated	-10.5653
▁contributing	-10.566
▁containing	-10.5662
hou	-10.5667
▁mortgage	-10.5673
▁wrote	-10.5673
▁infant	-10.5675
▁disabilities	-10.5693
▁surrounding	-10.5693
▁tsui	-10.5696
▁sincere	-10.5697
nu	-10.5702
cho	-10.5715
▁monday	-10.5719
▁elect	-10.5725
▁civilization	-10.5726
▁boards	-10.5727
bus	-10.5731
▁epidemic	-10.5733
even	-10.5738
▁renewal	-10.5738
▁migration	-10.5753
▁respondents	-10.5753
▁seeing	-10.5756
▁sharing	-10.576
ators	-10.5765
▁prospect	-10.5768
▁flexibility	-10.5772
▁strictly	-10.5773
▁topics	-10.5776
▁gained	-10.5779
▁tac	-10.5784
▁component	-10.5787
▁resume	-10.5787
sponsor	-10.5791
▁logistics	-10.5792
▁dedicated	-10.5792
▁subsidiary	-10.5792
▁managing	-10.5793
tai	-10.5796
▁mei	-10.5797
aw	-10.58
▁band	-10.5802
▁stra	-10.5806
▁doesn	-10.5808
▁celebration	-10.5813
▁guilty	-10.5813
▁church	-10.5813
▁cooperative	-10.5815
▁ones	-10.5821
▁assurance	-10.5833
▁inclusion	-10.5833
▁temperature	-10.5833
▁connected	-10.5833
0000000000	-10.5839
▁precisely	-10.5842
▁tien	-10.5843
yuan	-10.5843
▁assisting	-10.5846
export	-10.5854
aged	-10.5855
▁fate	-10.5857
bin	-10.5863
isation	-10.5864
▁entrance	-10.5873
▁eradication	-10.5874
▁delete	-10.5882
▁unprecedented	-10.5893
▁website	-10.5893
▁tight	-10.5893
▁paying	-10.5894
▁col	-10.5896
▁fourth	-10.5903
▁demonstration	-10.591
▁worst	-10.5913
▁envisaged	-10.592
▁formulate	-10.593
▁substance	-10.593
▁1987	-10.5937
▁stages	-10.5937
▁fla	-10.5941
▁introducing	-10.5941
▁metal	-10.5949
▁capabilities	-10.5954
▁kilometres	-10.5954
▁cars	-10.5962
▁suspended	-10.597
▁emperor	-10.5974
▁crises	-10.5974
▁solid	-10.5975
▁input	-10.5976
▁suggestion	-10.5977
▁pool	-10.5982
▁spoke	-10.5986
▁estates	-10.5988
▁hundred	-10.5993
▁accommodation	-10.5995
▁determining	-10.5995
effective	-10.5996
▁window	-10.5996
bal	-10.6005
tat	-10.601
▁storm	-10.6013
▁explosive	-10.6015
▁constitutes	-10.6018
▁younger	-10.602
▁borders	-10.603
▁restaurant	-10.6034
▁married	-10.6036
▁buses	-10.6037
▁deserve	-10.6038
▁hardship	-10.6039
▁guarantees	-10.6045
▁missiles	-10.6045
▁german	-10.6047
▁aviation	-10.6056
▁1985	-10.6058
▁mpf	-10.6063
▁cla	-10.6064
▁ended	-10.6075
▁supplement	-10.6075
▁facility	-10.6077
▁cre	-10.6096
▁stories	-10.6097
▁tolerance	-10.6097
▁landmines	-10.6097
▁empower	-10.6098
▁gate	-10.6098
78	-10.61
▁assumed	-10.6106
▁soil	-10.6107
▁respected	-10.611
fac	-10.6111
▁copy	-10.6112
▁quota	-10.6112
▁signal	-10.6118
▁dragon	-10.6118
▁memorandum	-10.6118
▁organisation	-10.6119
▁resistance	-10.6119
▁1000000	-10.6142
▁file	-10.6148
5000000	-10.615
▁argentina	-10.6159
▁outbreak	-10.6159
▁digital	-10.616
▁smes	-10.616
▁uphold	-10.616
▁boys	-10.6162
▁acc	-10.6164
▁liability	-10.6165
▁considerations	-10.6166
▁rock	-10.6169
▁escape	-10.6175
▁trained	-10.6177
▁depends	-10.6177
▁excise	-10.618
▁capability	-10.6181
▁graduates	-10.6187
▁ke	-10.619
▁provident	-10.6192
▁publish	-10.6192
▁qua	-10.6193
▁smaller	-10.6194
▁pledge	-10.6197
▁turmoil	-10.6201
▁passage	-10.6206
▁define	-10.6218
87	-10.6222
▁busy	-10.6232
▁voters	-10.6234
▁tertiary	-10.6243
▁finds	-10.6245
▁condemn	-10.6247
▁reporters	-10.6256
▁par	-10.6258
▁sets	-10.6262
▁studied	-10.6264
▁concepts	-10.6267
▁spite	-10.6267
▁mothers	-10.6272
▁shell	-10.6276
zu	-10.6284
▁biological	-10.6286
▁fill	-10.6288
▁consequence	-10.6288
▁interesting	-10.6298
▁associate	-10.6302
▁licensing	-10.6306
▁venture	-10.6306
▁incentive	-10.6306
class	-10.6309
▁friendly	-10.631
▁contractors	-10.6318
▁admit	-10.6322
government	-10.6323
▁infection	-10.6327
ense	-10.6329
▁anticipated	-10.6334
▁holidays	-10.6345
▁storage	-10.6348
▁license	-10.6348
▁properties	-10.6349
▁films	-10.6349
▁penal	-10.6354
chu	-10.6363
▁exchanges	-10.6364
▁discipline	-10.6369
▁legislator	-10.6369
▁repatriation	-10.6369
▁satisfactory	-10.6369
▁prompt	-10.6374
wan	-10.6377
▁falling	-10.638
▁recalled	-10.6382
▁summary	-10.6391
▁gdp	-10.6391
▁expanding	-10.6391
18	-10.6399
▁exhibit	-10.6403
▁sai	-10.6408
▁valid	-10.6409
▁contingent	-10.6412
▁stood	-10.6412
19	-10.6415
minister	-10.6415
▁seminars	-10.6431
▁dissemination	-10.6433
▁rid	-10.6436
▁deliberations	-10.6436
secretary	-10.6437
car	-10.644
▁serb	-10.6443
▁requir	-10.6448
▁restoration	-10.6455
▁sections	-10.6456
▁appoint	-10.6461
hr	-10.6463
▁tools	-10.6463
▁confrontation	-10.6464
▁envoy	-10.6476
▁john	-10.6476
▁1986	-10.6479
▁personally	-10.648
▁factories	-10.648
▁willingness	-10.6482
▁ye	-10.6484
▁attracted	-10.6489
▁proliferation	-10.6492
▁talents	-10.6497
▁assumption	-10.6497
▁convicted	-10.6497
▁pursuit	-10.6497
▁seizure	-10.6497
▁utilization	-10.6497
▁zhang	-10.6497
▁degrees	-10.6501
water	-10.6506
▁repeat	-10.6507
uff	-10.6509
door	-10.6513
▁commonwealth	-10.6519
▁constituency	-10.6519
▁journey	-10.6519
▁bond	-10.6522
▁absolute	-10.6524
▁suddenly	-10.6531
▁hwa	-10.6533
▁tele	-10.6538
▁journal	-10.654
▁junior	-10.654
▁neglect	-10.654
▁journalists	-10.6541
.30	-10.6548
▁knows	-10.6555
fire	-10.6556
▁examined	-10.6559
▁attending	-10.6559
▁supplier	-10.6562
▁royal	-10.6562
▁accelerate	-10.6584
▁borrow	-10.6584
mil	-10.6587
▁proof	-10.6588
personnel	-10.6588
▁fer	-10.659
mou	-10.6592
▁objects	-10.6593
▁x	-10.6602
▁sewage	-10.6605
▁surveys	-10.661
▁dia	-10.6623
▁parking	-10.6625
cha	-10.6626
▁incidence	-10.6627
▁destroy	-10.6637
▁pop	-10.6642
ua	-10.6647
▁offenders	-10.6647
▁accurate	-10.6649
▁acquisition	-10.6649
▁suspension	-10.6649
▁inquiry	-10.6649
▁pattern	-10.666
▁restore	-10.6668
▁2005	-10.6676
▁tickets	-10.6681
coming	-10.6691
▁celebrate	-10.6693
▁van	-10.6695
▁formulated	-10.6699
▁yiu	-10.6701
▁grants	-10.6704
▁posed	-10.6706
▁upper	-10.6714
▁transparent	-10.6715
▁sick	-10.6717
▁iranian	-10.6718
income	-10.672
▁prevailing	-10.6726
▁emerged	-10.6731
▁pure	-10.6731
▁imagine	-10.6737
▁peninsula	-10.6737
▁transmitted	-10.6739
ctor	-10.6745
▁stocks	-10.6752
dom	-10.6755
▁utmost	-10.6759
▁sleep	-10.6759
including	-10.6764
▁upgrade	-10.6765
▁render	-10.677
▁attorney	-10.6781
▁biggest	-10.6781
▁typical	-10.6781
▁gift	-10.6781
▁sake	-10.6784
▁periodic	-10.6785
▁contractor	-10.6786
▁aspirations	-10.6794
▁albanian	-10.6795
▁ultimately	-10.6796
▁heavily	-10.6803
▁imperative	-10.6803
▁myanmar	-10.6803
▁vegetable	-10.6803
▁sister	-10.6804
▁plea	-10.6804
▁troop	-10.6816
▁adult	-10.6817
may	-10.6821
▁1970	-10.6827
▁pull	-10.683
american	-10.6831
▁stamp	-10.6841
▁mankind	-10.6847
▁virus	-10.6847
▁investigating	-10.6848
▁rica	-10.6848
▁duration	-10.6848
tern	-10.6849
▁frank	-10.6849
▁raid	-10.6856
▁responded	-10.6861
ria	-10.6863
laundering	-10.6869
▁steel	-10.6869
▁spi	-10.6875
▁feels	-10.6875
▁resumed	-10.6875
je	-10.6878
▁serbs	-10.6889
▁yield	-10.6892
▁entertainment	-10.6893
▁leaves	-10.6894
▁formally	-10.69
▁accountable	-10.6902
▁advantages	-10.6907
▁arch	-10.691
▁tariff	-10.6914
▁decree	-10.6914
▁queen	-10.6914
▁productive	-10.6914
▁praise	-10.6914
▁copies	-10.6916
▁liable	-10.6922
▁meat	-10.6925
wo	-10.6926
▁electrical	-10.6932
▁acknowledge	-10.6933
▁everybody	-10.6937
▁penalties	-10.6937
▁acquired	-10.6938
▁characterized	-10.694
▁balanced	-10.6945
▁newspapers	-10.6955
▁argue	-10.6956
▁petition	-10.6959
▁prc	-10.6963
▁budgetary	-10.6964
▁tsing	-10.6968
▁contents	-10.6979
▁drama	-10.698
▁curriculum	-10.6982
▁earthquake	-10.6982
▁coalition	-10.6982
▁feet	-10.6982
▁bright	-10.6983
▁removal	-10.6984
▁exists	-10.6987
jo	-10.6992
chen	-10.7001
bri	-10.7004
▁caught	-10.7004
▁embassy	-10.7004
▁remark	-10.7005
▁threatened	-10.7006
▁stopped	-10.7006
fold	-10.7008
graph	-10.7016
▁vessel	-10.7045
▁declare	-10.7047
▁worker	-10.7051
▁symbol	-10.7056
depth	-10.7057
▁fat	-10.7067
▁lan	-10.7069
▁preservation	-10.7072
▁meal	-10.7075
▁apparent	-10.7078
▁truck	-10.7095
▁adding	-10.7097
▁southeast	-10.7098
▁habit	-10.7109
▁vietnamese	-10.7118
▁ngos	-10.712
▁appearance	-10.7121
▁die	-10.7122
▁delays	-10.7131
▁beauty	-10.7141
▁tokyo	-10.7141
▁multiple	-10.7142
▁norway	-10.7146
▁bombing	-10.7146
66	-10.715
nic	-10.715
▁rio	-10.7156
▁convened	-10.7156
ii	-10.716
▁concession	-10.7161
▁bird	-10.7163
▁controlled	-10.7163
▁600	-10.7163
▁abolish	-10.7164
▁compulsory	-10.7164
▁nigeria	-10.7164
▁comfort	-10.7164
▁contracting	-10.7166
▁adjustments	-10.7167
▁roll	-10.7173
▁rape	-10.7174
tel	-10.7174
▁travelling	-10.7174
▁observations	-10.7174
16	-10.7175
▁sensitive	-10.7176
sized	-10.7179
▁experiment	-10.7187
▁macau	-10.7187
▁carrier	-10.7187
▁electric	-10.7188
▁kill	-10.7191
▁theatre	-10.7191
▁quick	-10.7193
▁governmental	-10.7196
▁broken	-10.7201
▁boy	-10.7208
▁expo	-10.7209
▁assignment	-10.721
▁facilitating	-10.721
▁exposed	-10.721
town	-10.7219
▁permits	-10.7237
▁halt	-10.7238
self	-10.7248
▁beach	-10.725
yo	-10.7252
▁restaurants	-10.7257
▁adopting	-10.7261
▁ultimate	-10.7263
▁um	-10.7275
chang	-10.7278
▁knew	-10.728
▁organizing	-10.728
▁nam	-10.728
▁lie	-10.7287
▁acknowledged	-10.7288
▁producing	-10.7296
▁blind	-10.7302
▁talent	-10.7303
▁friendship	-10.7303
▁accus	-10.7308
▁renewed	-10.7311
▁raw	-10.7321
▁pursued	-10.7322
▁barriers	-10.7326
▁creative	-10.7326
▁shipping	-10.7328
▁birds	-10.7328
▁handled	-10.7329
▁assessments	-10.7336
▁accomplish	-10.7339
▁skill	-10.7347
▁beneficial	-10.7349
▁racism	-10.7349
▁lessons	-10.735
▁referring	-10.7351
kang	-10.7352
▁logic	-10.7354
odd	-10.7354
▁complicated	-10.7363
▁negotiating	-10.7372
▁surely	-10.7382
▁managers	-10.7385
▁arguments	-10.7387
86	-10.7391
▁excess	-10.7394
▁militia	-10.7396
▁reputation	-10.7396
▁guaranteed	-10.7397
▁plane	-10.7401
▁plain	-10.7401
▁applying	-10.7401
▁euro	-10.7402
round	-10.7415
▁terrorists	-10.7417
▁grew	-10.7419
▁mobilize	-10.7419
▁belarus	-10.7419
known	-10.7424
▁clients	-10.7426
▁shops	-10.7432
▁differ	-10.744
▁artists	-10.7441
some	-10.7442
▁impartial	-10.7443
▁custody	-10.7443
▁harmony	-10.7443
▁yeung	-10.7444
establish	-10.7453
hsi	-10.7462
▁morocco	-10.7467
▁wounded	-10.7467
▁slope	-10.7467
▁illness	-10.749
▁tragedy	-10.749
▁diesel	-10.749
▁holiday	-10.7494
▁concerted	-10.7514
▁ascertain	-10.7514
▁unlawful	-10.7514
▁tan	-10.7515
▁perpetrators	-10.7526
▁800	-10.7529
▁acquire	-10.7537
▁maritime	-10.7538
▁subcommittee	-10.7539
▁timorese	-10.7539
▁animal	-10.7543
form	-10.7556
▁58	-10.756
▁destination	-10.7562
▁sentiment	-10.7562
▁mongolia	-10.7562
▁continuously	-10.7565
▁chain	-10.7576
▁casualties	-10.7586
▁songs	-10.7587
▁wake	-10.7597
▁freely	-10.7599
▁instruct	-10.7606
▁yugoslav	-10.7607
▁practitioners	-10.7607
▁kindergarten	-10.761
▁sky	-10.761
▁intensive	-10.7613
▁react	-10.7617
train	-10.7621
ttle	-10.7622
south	-10.7624
▁mong	-10.7624
▁enjoyment	-10.7625
▁severely	-10.7625
▁workshops	-10.7628
▁ordered	-10.7628
print	-10.763
▁illustrate	-10.7634
▁troupe	-10.7634
▁deemed	-10.7634
▁rejected	-10.7639
ica	-10.7658
▁plus	-10.7658
▁boost	-10.7658
▁novel	-10.7659
▁hotline	-10.766
17	-10.7676
▁excellency	-10.7682
fil	-10.7686
▁pot	-10.7691
which	-10.7694
▁operated	-10.7695
▁highlighted	-10.7703
▁deposits	-10.7706
▁commencement	-10.7709
▁renew	-10.7719
▁teach	-10.7719
▁volunteers	-10.773
▁concentration	-10.773
▁pleasure	-10.773
▁label	-10.7731
▁coordinate	-10.7732
▁hua	-10.774
book	-10.7751
▁paris	-10.7753
ude	-10.7764
claim	-10.7767
▁box	-10.7775
▁dynamic	-10.7779
▁library	-10.7779
▁overwhelming	-10.7779
▁evil	-10.7779
▁risen	-10.7784
▁discussing	-10.7784
thursday	-10.7792
born	-10.7794
▁yen	-10.7795
hwa	-10.7802
▁cd	-10.7803
▁assault	-10.7804
▁insolvency	-10.7804
▁smoke	-10.7804
▁favor	-10.7804
placing	-10.7807
▁refers	-10.7812
▁gains	-10.7818
▁distinct	-10.782
gar	-10.7821
▁transform	-10.7821
▁projected	-10.7826
▁complain	-10.7827
▁lastly	-10.7827
▁genocide	-10.7828
▁iaea	-10.7828
▁kwan	-10.783
▁proud	-10.7832
▁authors	-10.7833
▁indonesian	-10.7833
kh	-10.7833
▁stall	-10.7837
▁players	-10.784
▁marketing	-10.7842
▁cat	-10.7851
▁gathered	-10.7852
▁easier	-10.7853
▁heaven	-10.7853
▁pearl	-10.7853
are	-10.7853
▁portion	-10.7857
▁disability	-10.7859
▁interference	-10.7868
▁congratulate	-10.7877
▁transnational	-10.7878
▁recalls	-10.7878
▁edge	-10.7879
▁replacement	-10.7881
▁commodity	-10.7902
▁description	-10.7902
▁exhaust	-10.7902
▁nomination	-10.7902
▁honor	-10.7909
▁thirdly	-10.791
▁thousand	-10.7914
▁expense	-10.7914
▁criticized	-10.7916
▁occupying	-10.7916
12	-10.7922
gui	-10.7924
▁attributable	-10.7927
▁competence	-10.7927
▁drought	-10.7927
▁communicate	-10.7947
▁handed	-10.7949
▁consolidation	-10.7952
▁editor	-10.7952
clock	-10.7952
▁democratization	-10.7952
▁shopping	-10.7953
▁fun	-10.7954
▁libyan	-10.7956
▁proceeds	-10.7957
ended	-10.7958
▁gradual	-10.796
▁lecture	-10.7976
▁survive	-10.7976
well	-10.7982
▁contemporary	-10.8001
▁flexible	-10.8001
▁tsim	-10.8002
▁2006	-10.8005
hour	-10.8005
▁guests	-10.801
▁prevail	-10.8013
▁entrepreneur	-10.8015
zo	-10.8025
▁generate	-10.8026
▁divide	-10.8026
▁desirable	-10.8026
▁helicopter	-10.8026
▁steady	-10.8026
mic	-10.803
▁stipulated	-10.8033
▁oh	-10.8043
▁incorporated	-10.8044
▁lend	-10.8045
▁coal	-10.8048
▁firstly	-10.805
▁deprived	-10.8051
▁pedestrian	-10.8051
▁(4)	-10.8052
13	-10.8054
▁asset	-10.8057
lp	-10.8059
▁mao	-10.8062
▁recruit	-10.8065
pacific	-10.8066
▁bio	-10.8067
65	-10.8073
▁depending	-10.8074
▁referendum	-10.8077
▁hsiao	-10.8078
▁blame	-10.8078
▁mini	-10.8084
hung	-10.8093
sect	-10.8098
▁credibility	-10.8102
▁expensive	-10.8102
▁possibly	-10.8102
▁civic	-10.8102
▁acute	-10.8102
▁tsai	-10.8102
▁underlying	-10.8105
▁rare	-10.8116
▁installed	-10.8119
▁margin	-10.812
▁arranged	-10.812
tory	-10.8125
▁devices	-10.8127
▁enacted	-10.8127
▁cloud	-10.8127
▁comprising	-10.8127
▁decisive	-10.8127
▁switch	-10.8127
sector	-10.8128
▁fellow	-10.8128
▁supplementary	-10.8129
▁friday	-10.813
▁constituted	-10.8132
▁row	-10.8139
▁bangladesh	-10.8152
▁prejudice	-10.8152
▁sweden	-10.8152
▁spouse	-10.8152
▁ceasefire	-10.8153
▁arbitration	-10.8153
▁bosnian	-10.8156
▁tens	-10.8159
▁lowest	-10.817
▁officially	-10.8174
▁sacrifice	-10.8178
▁winner	-10.818
▁chow	-10.8183
▁chien	-10.8184
14	-10.8185
▁dab	-10.8185
▁cpi	-10.8191
▁pin	-10.8191
▁transaction	-10.8196
▁graduate	-10.8196
900	-10.82
▁orchestra	-10.8203
▁exclusive	-10.8212
▁exactly	-10.8213
▁noise	-10.822
▁obtaining	-10.8224
▁ling	-10.8227
▁switzerland	-10.8229
▁optim	-10.8229
▁nearby	-10.8232
▁socialist	-10.8238
▁tide	-10.8241
77	-10.8243
▁exploit	-10.8251
▁palace	-10.8254
▁surprising	-10.8254
▁horse	-10.8254
▁writer	-10.8256
▁prevented	-10.8256
▁rough	-10.8256
▁granting	-10.8259
▁demonstrations	-10.8259
▁occupational	-10.826
21	-10.8263
▁solely	-10.827
▁intent	-10.8275
▁meaningful	-10.8277
▁exceptional	-10.8278
▁migrants	-10.8278
▁annually	-10.8279
▁applies	-10.828
▁speaker	-10.8281
▁mainstream	-10.8281
▁tak	-10.8282
▁considerably	-10.8286
▁named	-10.8289
▁pair	-10.829
▁developers	-10.8291
▁nurse	-10.8306
tung	-10.8309
room	-10.832
agency	-10.8322
▁treasure	-10.8331
▁straight	-10.8331
pha	-10.8334
run	-10.8334
▁substances	-10.8335
▁mere	-10.8341
▁adjust	-10.8347
serbia	-10.8349
▁advances	-10.835
▁suggests	-10.8354
▁composed	-10.8357
▁kwai	-10.8357
▁wearing	-10.8359
▁martin	-10.8359
▁whereby	-10.8372
▁concentrated	-10.8378
▁sri	-10.8378
▁sam	-10.8379
▁continuation	-10.8383
▁confidential	-10.8385
▁capita	-10.8395
▁worship	-10.8409
▁finished	-10.8411
▁inspections	-10.842
▁chun	-10.8422
▁dan	-10.8425
party	-10.8427
▁revenues	-10.8436
▁calm	-10.8437
91	-10.8437
▁realistic	-10.8439
suing	-10.844
▁adults	-10.8445
▁vary	-10.8446
▁flower	-10.8456
ctu	-10.8461
▁vietnam	-10.8461
▁clarify	-10.8461
▁explicit	-10.8461
▁valley	-10.8461
▁stick	-10.8462
▁modest	-10.8467
▁prop	-10.8474
▁postpone	-10.8488
▁colour	-10.8488
▁capture	-10.8489
▁exert	-10.849
▁herself	-10.8493
▁alter	-10.8495
▁attempted	-10.8505
▁ranks	-10.8506
▁constituencies	-10.8514
▁obliged	-10.8514
▁refrain	-10.8514
▁administering	-10.8514
▁detainees	-10.8514
▁reproductive	-10.8516
▁tao	-10.8528
west	-10.8531
▁expressing	-10.8539
▁notwithstanding	-10.854
▁fares	-10.8553
▁australian	-10.8557
monday	-10.8562
▁feed	-10.8564
300000	-10.8566
▁likewise	-10.8566
▁canadian	-10.8566
▁educate	-10.8566
▁mouth	-10.8566
▁township	-10.8569
▁attain	-10.8583
▁user	-10.8584
▁assisted	-10.8585
▁dare	-10.8586
pan	-10.8588
▁everywhere	-10.8593
▁embark	-10.8593
▁coordinated	-10.8594
▁flights	-10.8602
len	-10.8608
▁couldn	-10.8615
▁alleviate	-10.8619
▁lodge	-10.862
▁xiao	-10.8621
▁dump	-10.8623
▁adequately	-10.8631
61	-10.8644
▁administrator	-10.8646
▁disseminate	-10.8646
▁separation	-10.8646
▁smuggling	-10.8646
▁austria	-10.8646
list	-10.8649
▁momentum	-10.865
▁formula	-10.8672
▁prostitution	-10.8673
▁persistent	-10.8675
▁consultants	-10.8679
▁zhu	-10.8681
made	-10.8685
▁iv	-10.8688
▁pig	-10.8692
strait	-10.8693
▁christian	-10.8699
▁parallel	-10.8699
▁interaction	-10.8701
▁yan	-10.8706
▁deceased	-10.8726
▁craft	-10.8726
▁imposition	-10.8727
▁lanka	-10.8727
yang	-10.8732
▁prescribed	-10.8733
3000000	-10.874
▁cop	-10.8742
▁broaden	-10.8743
▁borne	-10.8749
▁reflecting	-10.8752
▁bought	-10.8753
ook	-10.8754
▁recipients	-10.8757
▁exit	-10.8761
▁partial	-10.8763
▁mining	-10.8769
▁flowers	-10.8772
▁headed	-10.8772
▁85	-10.8775
▁sport	-10.8792
back	-10.8806
▁heading	-10.8806
▁satisfy	-10.8807
▁glass	-10.8807
▁convert	-10.8807
▁native	-10.8811
▁cutting	-10.8817
president	-10.8828
direct	-10.8828
▁lok	-10.8831
6000000	-10.8834
▁climb	-10.8834
▁juvenile	-10.8834
trial	-10.8836
june	-10.8837
▁roots	-10.8841
iz	-10.8841
▁usual	-10.8845
▁apparently	-10.8854
05	-10.8855
▁compound	-10.8861
▁excuse	-10.8861
▁conformity	-10.8863
▁chiu	-10.8872
▁fled	-10.8875
▁correspond	-10.8878
▁publishing	-10.8884
commission	-10.8884
▁encountered	-10.8886
▁reporter	-10.8887
standing	-10.8888
▁disappearance	-10.8889
▁adhere	-10.889
▁weapon	-10.89
▁reject	-10.8906
▁subsidies	-10.8916
▁supervisor	-10.8916
▁instability	-10.8916
▁enactment	-10.8919
▁dpp	-10.8925
▁stronger	-10.8927
▁arm	-10.8927
▁focusing	-10.8928
zz	-10.8931
▁pla	-10.8933
▁chile	-10.8936
terrorism	-10.8938
▁violated	-10.8939
disciplinary	-10.8943
▁calculation	-10.8943
▁entrusted	-10.8943
▁politician	-10.8943
▁existed	-10.8945
▁safeguards	-10.8946
▁mixed	-10.8946
▁alert	-10.8948
▁stamps	-10.8953
▁spoken	-10.8956
▁artist	-10.8957
▁uh	-10.896
▁forests	-10.8969
boundary	-10.8969
▁displacement	-10.8971
▁twice	-10.8971
▁fortune	-10.8971
▁kids	-10.8972
▁peking	-10.8972
▁massacre	-10.8998
01	-10.8999
36	-10.9004
▁optional	-10.9012
28	-10.9013
▁sunday	-10.9013
▁deny	-10.9013
▁permission	-10.9015
▁damaged	-10.9025
▁baghdad	-10.9026
▁lease	-10.9029
▁jump	-10.9029
▁customer	-10.9038
▁importation	-10.904
▁patterns	-10.904
british	-10.9049
▁commence	-10.9053
▁jintao	-10.9054
▁nutrition	-10.9054
▁promulgat	-10.9054
▁suspect	-10.9057
▁siu	-10.9059
▁sole	-10.9067
ending	-10.9074
ordination	-10.9078
▁accommodate	-10.9081
▁clothes	-10.9081
▁inevitably	-10.9081
▁workforce	-10.9081
▁transmission	-10.9082
▁contest	-10.9084
▁yes	-10.9087
▁derived	-10.9109
▁triad	-10.9112
place	-10.9114
▁cable	-10.9115
net	-10.9116
▁hire	-10.9117
▁gang	-10.9124
▁croatian	-10.913
▁qualifications	-10.9132
▁sand	-10.9135
▁neutral	-10.9137
▁readiness	-10.9138
▁proceeding	-10.9138
▁earnings	-10.9139
▁concessions	-10.914
▁consolidate	-10.914
▁subregional	-10.9146
▁critic	-10.9151
wednesday	-10.9161
▁resolving	-10.9165
▁david	-10.9165
▁endanger	-10.9165
▁comparative	-10.9166
▁surprise	-10.9168
64	-10.9169
▁initially	-10.9169
▁artistic	-10.9171
▁consistently	-10.9176
▁64	-10.918
▁condemned	-10.9182
september	-10.9189
▁announce	-10.9193
▁czech	-10.9193
▁liberty	-10.9193
▁tajikistan	-10.9193
▁typhoon	-10.9193
▁wisdom	-10.9193
▁veto	-10.9194
▁narcotics	-10.9201
▁exercised	-10.9208
▁phrase	-10.9221
▁registry	-10.9221
▁forthcoming	-10.9222
▁preference	-10.9223
how	-10.9224
▁yau	-10.9232
▁joy	-10.9242
▁kuan	-10.9245
▁roman	-10.9245
▁arrears	-10.925
▁franchise	-10.925
▁abode	-10.925
▁defeat	-10.925
▁dramatic	-10.925
▁breast	-10.9251
▁ice	-10.9255
▁buying	-10.9269
▁updated	-10.9269
▁appealed	-10.9274
▁distort	-10.9278
▁reliable	-10.9278
▁winning	-10.928
▁broader	-10.9285
89	-10.9293
▁branches	-10.9296
▁donation	-10.9303
▁complement	-10.9305
▁disregard	-10.9306
▁elaborate	-10.9306
▁evolution	-10.9306
▁macedonia	-10.9306
▁snow	-10.9306
▁honest	-10.931
▁singing	-10.9311
35	-10.9313
▁exceeded	-10.9318
▁66	-10.9335
▁pursuing	-10.9335
▁flying	-10.934
▁calculated	-10.9342
▁pack	-10.9342
▁funded	-10.9352
▁eating	-10.9355
▁counterparts	-10.9364
▁divorce	-10.9364
▁undoubtedly	-10.9364
▁saddam	-10.9364
▁andrew	-10.9366
▁fewer	-10.9367
75	-10.9369
▁thursday	-10.9377
▁soft	-10.938
▁instruction	-10.9382
▁exceeding	-10.9385
▁abandon	-10.9388
▁saturday	-10.9389
▁drew	-10.9392
aligned	-10.9393
▁elementary	-10.9395
▁holders	-10.9396
▁promised	-10.9405
55	-10.9406
▁parliamentary	-10.9407
▁organizational	-10.9411
-20	-10.9411
▁auspices	-10.9421
▁alien	-10.9422
▁teng	-10.9426
▁attacked	-10.9428
raising	-10.9431
▁legally	-10.9432
▁sudden	-10.9433
44	-10.9438
jiang	-10.9438
▁feng	-10.9443
▁harmonious	-10.945
▁prominent	-10.945
▁struck	-10.945
▁displayed	-10.9451
▁eve	-10.9456
lung	-10.9458
▁heat	-10.9459
▁delegates	-10.9469
▁foreigners	-10.9477
▁judgment	-10.9479
▁smoking	-10.9479
▁vicinity	-10.9479
▁yellow	-10.9479
▁substitute	-10.9479
▁chia	-10.9485
▁attractive	-10.9486
▁resist	-10.9486
▁congolese	-10.9492
▁reward	-10.9498
▁succession	-10.9503
▁dry	-10.9507
▁surge	-10.9507
▁clarification	-10.9508
▁nonetheless	-10.9508
▁registrar	-10.9508
▁downturn	-10.9509
▁baby	-10.9512
▁exemption	-10.9516
▁chat	-10.9528
▁workload	-10.9528
▁terror	-10.9531
▁absorb	-10.9537
▁dozen	-10.9537
▁pride	-10.9538
▁strange	-10.9539
▁score	-10.954
500000000	-10.9541
▁adjusted	-10.9545
▁brain	-10.9548
▁stream	-10.9549
▁emotional	-10.9549
china	-10.955
▁peng	-10.9551
▁negotiated	-10.956
48	-10.9561
27	-10.9562
▁enforce	-10.9567
▁chris	-10.9569
▁attributed	-10.9575
▁apartment	-10.9579
▁lock	-10.9582
▁combination	-10.9595
▁ranging	-10.9596
lip	-10.9603
38	-10.9604
▁cited	-10.9613
▁wah	-10.9616
▁shen	-10.9618
▁61	-10.9622
▁autonomous	-10.9624
▁cultivation	-10.9624
▁magistrate	-10.9624
▁memory	-10.9624
spoke	-10.9626
▁peru	-10.9627
▁argued	-10.9628
▁wednesday	-10.9629
▁consists	-10.9631
▁geo	-10.9633
▁hkma	-10.9635
▁suspects	-10.9645
24	-10.965
▁inspect	-10.9653
▁martial	-10.9654
▁watching	-10.9671
▁moscow	-10.9683
▁steadily	-10.9683
▁exposure	-10.9683
tou	-10.9685
wah	-10.9697
▁reservation	-10.9704
▁nicaragua	-10.9713
▁questionnaire	-10.9713
▁reception	-10.9713
▁nepal	-10.9713
▁arbitrary	-10.9714
▁helpful	-10.9719
▁flooding	-10.9727
▁invested	-10.9728
member	-10.9735
▁outline	-10.974
▁chronic	-10.9743
▁poultry	-10.9743
▁upgrading	-10.9743
▁plastic	-10.9743
▁unido	-10.9743
▁privatization	-10.9743
▁deadline	-10.9746
▁kuo	-10.9748
▁trace	-10.9759
▁hsin	-10.9759
▁feasibility	-10.9772
▁slogan	-10.9772
▁convening	-10.9772
▁boundaries	-10.9773
▁coordinating	-10.9774
▁lifting	-10.9776
▁10000	-10.9777
shore	-10.978
▁depart	-10.9798
▁concluding	-10.9802
▁costa	-10.9814
▁poison	-10.9832
▁subsidy	-10.9832
▁interfere	-10.9834
wen	-10.9834
▁childhood	-10.9834
▁responding	-10.9837
▁prince	-10.9848
▁kwok	-10.985
▁inject	-10.9851
▁moon	-10.9857
empt	-10.9857
▁squad	-10.9862
▁virtue	-10.9862
▁spiritual	-10.9862
▁habitat	-10.9868
▁settled	-10.9876
23	-10.9878
▁applicant	-10.9887
600000	-10.9887
▁emergence	-10.9892
▁translation	-10.9892
▁focal	-10.9892
▁sung	-10.9893
▁cup	-10.9895
position	-10.9899
▁fired	-10.9905
▁depth	-10.9912
▁drastic	-10.9922
▁nobody	-10.9922
▁unacceptable	-10.9922
▁violate	-10.9928
▁keen	-10.9929
▁oau	-10.9931
▁extending	-10.9944
▁makers	-10.9945
▁jin	-10.9946
▁reflection	-10.9951
▁ammunition	-10.9953
▁congestion	-10.9953
▁manual	-10.9953
▁arouse	-10.9954
▁limitations	-10.9957
▁mail	-10.9957
▁authorization	-10.9959
▁producers	-10.9962
02	-10.9966
▁bin	-10.9968
▁format	-10.9976
▁stipulates	-10.9978
▁arbitra	-10.9981
▁sim	-10.9982
▁advertising	-10.9983
▁enemy	-10.9983
▁opposite	-10.9983
▁remuneration	-10.9983
▁corner	-10.9983
condition	-10.9983
october	-10.9984
▁ltd	-10.9984
▁rush	-10.9997
▁rendered	-10.9999
4000000	-11.0007
▁mobilization	-11.0014
▁necessity	-11.0014
▁portugal	-11.0014
▁quantities	-11.0014
▁sponsored	-11.0014
▁multinational	-11.0014
▁uncertainty	-11.0015
▁mix	-11.0023
▁liao	-11.0024
▁secured	-11.0025
▁luna	-11.0028
▁liang	-11.0038
26	-11.0043
▁diplomacy	-11.0045
▁neighbours	-11.0045
▁delta	-11.0047
▁sending	-11.0048
▁successive	-11.0061
met	-11.0065
▁consolidated	-11.0072
▁engaging	-11.0075
▁exploration	-11.0075
▁diverse	-11.0075
▁quiet	-11.0075
▁medal	-11.0077
▁intervene	-11.0077
58	-11.0081
▁hostage	-11.0083
▁finish	-11.0103
▁hostilities	-11.0106
▁philosophy	-11.0106
▁unwilling	-11.0106
▁gulf	-11.0106
▁entail	-11.0106
▁glad	-11.0106
chun	-11.0108
looking	-11.0112
▁unfortunate	-11.012
▁paint	-11.0121
▁consecutive	-11.0137
▁dispatch	-11.0137
▁entity	-11.0137
▁ecological	-11.0137
▁dress	-11.0138
▁reaffirmed	-11.014
▁justified	-11.0152
ivity	-11.0154
▁abolition	-11.0168
▁prosperous	-11.0168
▁ratified	-11.0168
▁intense	-11.0168
cheng	-11.0169
interpretation	-11.0169
▁accumulated	-11.0173
▁evaluate	-11.0183
▁resign	-11.0193
▁conjunction	-11.0199
▁superior	-11.0199
▁lunch	-11.0199
▁binding	-11.0199
▁volunteer	-11.0199
case	-11.02
▁sugar	-11.02
▁commonly	-11.0201
▁2000000	-11.0204
▁xu	-11.0213
▁ski	-11.0217
▁enhancement	-11.0219
▁faster	-11.022
▁distinguished	-11.0222
fang	-11.0224
▁lane	-11.0226
▁unnecessary	-11.023
▁imbalance	-11.023
▁motive	-11.0233
▁attendance	-11.0234
▁crew	-11.0235
▁opt	-11.0236
▁earned	-11.0249
▁wording	-11.0252
▁gi	-11.0254
▁consultancy	-11.0261
▁discretion	-11.0261
▁ldcs	-11.0261
▁victoria	-11.0261
▁moderate	-11.0262
▁lawyer	-11.0263
▁classified	-11.0264
▁taste	-11.0267
▁stem	-11.0268
▁annan	-11.0274
midst	-11.0274
▁unlikely	-11.0277
▁crack	-11.0292
▁lion	-11.0293
▁rmb	-11.0298
mail	-11.03
▁refine	-11.0301
400	-11.0311
▁dismiss	-11.0317
▁exclusion	-11.0324
▁petroleum	-11.0324
▁surveillance	-11.0324
▁tanzania	-11.0324
▁temporarily	-11.0324
▁worries	-11.0324
▁sanitation	-11.0324
▁enrich	-11.0324
ethnic	-11.0326
plan	-11.0328
300	-11.0336
▁convenient	-11.0355
▁earliest	-11.0355
▁ministries	-11.0355
▁precious	-11.0355
▁2007	-11.0362
▁reintegration	-11.0387
▁salvador	-11.0387
▁obstruct	-11.0387
▁ought	-11.0387
▁inherent	-11.0387
▁equipped	-11.0387
▁tiger	-11.0389
▁remarkable	-11.0391
▁theater	-11.0394
▁slip	-11.04
37	-11.0413
▁suppress	-11.0415
▁harvest	-11.0419
▁corps	-11.0419
▁unmik	-11.0419
▁firearms	-11.0419
▁formulating	-11.0421
▁5000	-11.0422
▁1960	-11.0422
▁bro	-11.0426
▁mutually	-11.043
600	-11.0431
▁subregion	-11.0441
▁puer	-11.0442
chuan	-11.0443
▁63	-11.0448
worthy	-11.0449
▁talked	-11.045
autumn	-11.0451
governing	-11.0454
▁amongst	-11.0455
▁jia	-11.0464
▁eradicate	-11.0465
▁shin	-11.0472
▁freight	-11.0483
▁vacancy	-11.0483
▁tunisia	-11.0483
▁refusal	-11.0486
▁guided	-11.0491
400000	-11.0495
▁complexity	-11.0496
▁slight	-11.0507
▁pet	-11.0512
▁infected	-11.0515
▁victory	-11.0515
▁issuance	-11.0515
▁discount	-11.0516
hood	-11.052
▁negotiate	-11.0521
▁unknown	-11.0522
▁73	-11.0525
▁readers	-11.0525
▁rwandan	-11.0533
▁conservative	-11.0547
▁impetus	-11.0547
▁dinner	-11.0547
▁practise	-11.0547
▁macao	-11.0547
▁1982	-11.0547
▁egg	-11.0547
▁ignore	-11.0549
▁consulted	-11.0549
▁76	-11.055
▁restored	-11.0552
▁concentrate	-11.0554
▁attache	-11.0557
▁nato	-11.0565
saharan	-11.0566
▁hub	-11.0576
▁adolescent	-11.0579
▁alcohol	-11.0579
▁unanimous	-11.0579
▁breath	-11.0579
power	-11.058
▁mtr	-11.0583
saturday	-11.0583
session	-11.0583
▁restriction	-11.0593
▁holy	-11.0603
jung	-11.0604
▁thoroughly	-11.0607
▁hazard	-11.061
▁outset	-11.061
▁gazette	-11.0611
▁pupils	-11.0611
▁tobacco	-11.0611
▁tropical	-11.0611
▁interviewed	-11.0615
▁accede	-11.0619
46	-11.0619
▁hoping	-11.0623
▁payable	-11.0623
▁identifying	-11.0631
▁timetable	-11.0641
▁meantime	-11.0648
payment	-11.0648
▁cheap	-11.0649
▁62	-11.065
▁relie	-11.0651
▁assured	-11.0668
▁urgently	-11.0669
▁failing	-11.0669
▁forgotten	-11.0676
▁panama	-11.0677
▁fairly	-11.0677
▁citizenship	-11.0677
gged	-11.0678
▁motherland	-11.0681
▁attained	-11.0685
▁obstacle	-11.0686
▁filed	-11.0689
▁deliberate	-11.0693
▁hosted	-11.0696
▁outlined	-11.0705
▁74	-11.0706
▁guangzhou	-11.0709
▁urgency	-11.0709
▁roof	-11.0713
▁mineral	-11.0714
school	-11.0714
▁reverse	-11.0714
▁semi	-11.0715
▁pledged	-11.0716
22	-11.072
▁warned	-11.0722
▁dam	-11.0723
▁relieve	-11.0728
▁buddhist	-11.0742
▁possibilities	-11.0742
▁trigger	-11.0742
▁vacancies	-11.0742
▁wholesale	-11.0743
▁tower	-11.0743
▁municipalities	-11.0745
▁pun	-11.0753
▁lending	-11.076
chairmen	-11.0761
▁eco	-11.0762
▁sheet	-11.0766
▁democrat	-11.077
▁connect	-11.0771
holder	-11.0774
▁competitor	-11.0775
▁kabul	-11.0775
▁stretch	-11.0775
▁unusual	-11.0775
▁donald	-11.0775
▁del	-11.0779
▁losing	-11.0781
▁angolan	-11.0789
▁skin	-11.0796
47	-11.0807
▁counterfeit	-11.0808
▁extradition	-11.0808
▁indispensable	-11.0808
▁shadow	-11.0808
▁classroom	-11.0809
▁beaten	-11.0809
bar	-11.0812
▁harmful	-11.0813
border	-11.0813
august	-11.0813
▁wine	-11.0814
▁supposed	-11.0815
▁realities	-11.0818
▁utilized	-11.0823
33	-11.0824
▁ignored	-11.0829
▁deter	-11.0831
march	-11.0834
▁aboriginal	-11.0841
▁greece	-11.0841
▁observance	-11.0841
▁pretext	-11.0841
▁taught	-11.0841
▁advertisement	-11.0842
▁listening	-11.0843
▁solved	-11.0844
▁ferry	-11.0844
▁rushed	-11.0844
▁suppression	-11.0845
▁plight	-11.0847
▁approve	-11.0849
▁discriminatory	-11.0856
100	-11.0858
▁disclosed	-11.0862
▁advise	-11.0867
ley	-11.0868
▁certified	-11.0874
▁feasible	-11.0874
▁outlook	-11.0874
▁relevance	-11.0874
▁1984	-11.0874
▁empty	-11.0874
▁afterwards	-11.0875
iness	-11.0877
▁abandoned	-11.0879
▁chou	-11.0882
▁providers	-11.0898
▁unlike	-11.0903
▁salt	-11.0904
▁condolences	-11.0907
▁pharmaceutical	-11.0907
▁abilities	-11.0907
page	-11.0911
▁harsh	-11.0911
chan	-11.0916
▁driven	-11.0918
▁factions	-11.093
▁cry	-11.0931
▁recovered	-11.0932
▁construct	-11.0935
▁certification	-11.0941
▁twenty	-11.0941
▁enact	-11.0941
▁700	-11.0946
▁beaches	-11.0951
▁camera	-11.0958
▁briefed	-11.0972
▁adversely	-11.0973
▁cool	-11.0974
▁foremost	-11.0974
▁atlantic	-11.0974
▁error	-11.0975
november	-11.0981
▁accessible	-11.0981
▁stance	-11.0983
▁integrate	-11.0983
▁assure	-11.0987
▁frame	-11.0994
▁yun	-11.0997
▁laboratory	-11.1009
▁72	-11.101
july	-11.1011
▁3000	-11.1017
▁fly	-11.1017
▁yue	-11.1019
▁kit	-11.102
ologist	-11.1025
▁agent	-11.1038
▁gather	-11.104
▁procession	-11.1042
▁integral	-11.1042
▁lusaka	-11.1042
▁unreasonable	-11.1042
▁incorporat	-11.1046
▁1,000	-11.1056
eastern	-11.1058
▁essentially	-11.1059
▁excluded	-11.106
▁deploy	-11.1073
▁commemorati	-11.1076
lai	-11.1084
63	-11.1085
62	-11.1086
700000	-11.1104
▁tall	-11.111
▁ecuador	-11.111
▁brutal	-11.111
▁unchanged	-11.111
▁landscape	-11.111
▁albert	-11.111
▁choi	-11.1113
▁cleansing	-11.1113
▁incorporate	-11.1115
▁viet	-11.1119
▁delayed	-11.1121
▁polling	-11.1122
gram	-11.1136
▁maternal	-11.1144
▁surrender	-11.1144
▁textbooks	-11.1144
▁greet	-11.1144
▁arrange	-11.115
▁trail	-11.1152
food	-11.1153
added	-11.1156
▁armenia	-11.1161
with	-11.1162
▁dual	-11.1177
▁essence	-11.1178
▁resignation	-11.1185
tun	-11.119
▁accorded	-11.121
▁diminish	-11.1213
▁pregnant	-11.1213
▁reclamation	-11.1213
▁speculation	-11.1213
▁petrol	-11.1213
▁edition	-11.1213
▁redevelopment	-11.1216
april	-11.1221
79	-11.1222
▁industrialized	-11.1224
lum	-11.1231
▁seal	-11.1238
person	-11.124
▁flee	-11.1246
▁academia	-11.1247
▁declining	-11.1247
▁premium	-11.1247
▁retraining	-11.1247
▁pertain	-11.1247
▁compare	-11.125
▁yung	-11.1261
▁deepen	-11.1272
▁reside	-11.1274
▁treasury	-11.1282
▁atomic	-11.1282
▁depict	-11.1282
▁coup	-11.1285
7000000	-11.1286
▁freeze	-11.129
pf	-11.1306
operative	-11.1307
media	-11.131
▁guest	-11.1314
▁bottom	-11.1316
▁thereafter	-11.1316
▁hongkong	-11.1316
▁breakdown	-11.1318
▁attraction	-11.1318
34	-11.1322
▁shek	-11.1324
treatment	-11.1325
▁emerge	-11.1326
▁peter	-11.1335
▁surprised	-11.1348
▁kilometers	-11.1351
▁michael	-11.1351
▁perception	-11.1351
▁pillar	-11.1351
▁denmark	-11.1351
▁auction	-11.1351
▁kenya	-11.1352
▁osce	-11.1352
▁enrolment	-11.1353
▁executed	-11.1359
▁minute	-11.1374
hsing	-11.138
▁mounted	-11.1382
▁steering	-11.1386
vocation	-11.1387
▁smoothly	-11.1387
▁kar	-11.1388
▁1979	-11.1389
held	-11.139
▁crown	-11.1391
▁economically	-11.1391
▁everyday	-11.14
pin	-11.1405
▁tau	-11.141
▁sca	-11.1413
▁architecture	-11.1421
▁visible	-11.1422
▁verbal	-11.1422
▁dwell	-11.1424
▁cater	-11.1425
▁lien	-11.143
▁precise	-11.144
▁syria	-11.1446
▁cigarette	-11.1456
▁uzbekistan	-11.1456
ridge	-11.1458
article	-11.1465
▁duck	-11.1466
▁insert	-11.1469
▁recreation	-11.1482
▁uk	-11.1486
▁disagree	-11.1492
▁predecessor	-11.1492
▁hamper	-11.1492
▁serbian	-11.1494
▁upward	-11.1496
▁chih	-11.1502
style	-11.1509
▁restraint	-11.1511
▁stating	-11.1511
▁1983	-11.1515
▁indiscriminate	-11.1527
▁procedural	-11.1527
▁sophisticated	-11.1527
ography	-11.1529
▁methodology	-11.1529
▁catering	-11.153
0.5	-11.1532
▁counselling	-11.1533
▁plate	-11.1533
field	-11.1538
800000	-11.1558
▁slowly	-11.1559
▁belgium	-11.1563
▁creativity	-11.1563
▁frequency	-11.1563
▁irrespective	-11.1563
▁lebanese	-11.1563
▁uruguay	-11.1563
▁continual	-11.1563
▁drainage	-11.1564
reliance	-11.1564
8000000	-11.1573
nuclear	-11.1574
▁promptly	-11.1591
▁enforced	-11.1594
▁modalities	-11.1599
▁pregnancy	-11.1599
▁robbery	-11.1599
▁disorder	-11.1599
▁curb	-11.1599
▁speeches	-11.1599
▁emotion	-11.1619
▁traditionally	-11.1624
▁consultant	-11.1631
▁gambling	-11.1634
▁ceiling	-11.1634
▁subsidiz	-11.1634
▁tribe	-11.1638
2.5	-11.164
▁jen	-11.164
▁retained	-11.1666
▁taxation	-11.167
▁culprit	-11.167
▁generous	-11.167
▁prudent	-11.167
▁solving	-11.167
▁specify	-11.167
▁haitian	-11.1677
▁tie	-11.1681
far	-11.1687
▁radiation	-11.1706
▁venezuela	-11.1706
▁prolonged	-11.1706
▁inflict	-11.1706
▁fault	-11.1707
▁encounter	-11.1709
▁toilet	-11.1713
300000000	-11.1713
▁laugh	-11.1718
shek	-11.1719
▁guid	-11.1724
▁exclusively	-11.173
defence	-11.1755
▁collecting	-11.176
▁viable	-11.176
that	-11.1771
▁scar	-11.1773
ordinate	-11.1774
▁occurrence	-11.1779
▁stimulate	-11.1779
▁genetic	-11.1779
wei	-11.178
▁enthusiasm	-11.1816
▁intensify	-11.1816
▁readily	-11.1816
▁printing	-11.1816
▁profile	-11.1816
▁impair	-11.1817
▁poland	-11.1823
▁devote	-11.1827
▁albania	-11.1828
▁convene	-11.1829
▁sheung	-11.1838
▁coupled	-11.184
▁filling	-11.1845
▁proven	-11.1848
▁portfolio	-11.1852
▁stolen	-11.1852
▁verify	-11.1852
▁indirectly	-11.1853
▁controlling	-11.1853
▁fleet	-11.1854
range	-11.1856
▁bare	-11.1859
▁bitter	-11.186
▁disappointed	-11.1889
▁sympathy	-11.1889
▁gentle	-11.1889
▁imposing	-11.1889
▁spa	-11.1891
▁grasp	-11.1894
▁villagers	-11.19
december	-11.1902
▁deliberately	-11.1908
▁confined	-11.1908
▁alive	-11.1908
▁bun	-11.1919
▁saving	-11.1925
▁patriot	-11.1926
▁aggravate	-11.1926
▁deteriorate	-11.1926
▁suspicion	-11.1926
▁radical	-11.1926
▁contractual	-11.1926
▁justify	-11.1926
▁logistic	-11.1927
▁hazardous	-11.1928
▁fever	-11.1934
▁farming	-11.1938
patient	-11.194
▁bureaux	-11.1946
▁constructed	-11.1963
▁beneficiaries	-11.1963
▁extraordinary	-11.1963
▁inappropriate	-11.1963
▁lantau	-11.1963
▁fifth	-11.1963
▁unjust	-11.1963
▁detriment	-11.1963
tang	-11.1964
nie	-11.197
▁update	-11.1975
▁ngo	-11.1976
united	-11.1977
from	-11.1979
▁disappeared	-11.1986
▁accompany	-11.2
▁bamboo	-11.2
▁orientation	-11.2
▁detection	-11.2007
▁convenience	-11.2037
▁football	-11.2037
▁harassment	-11.2037
▁indicating	-11.2037
▁threshold	-11.2037
▁patten	-11.2037
▁kwun	-11.2037
▁plot	-11.2038
▁classic	-11.204
▁comparable	-11.204
03	-11.2042
▁justification	-11.2052
▁vigorous	-11.2058
▁quoted	-11.2063
▁bulgaria	-11.2075
▁impunity	-11.2075
▁jamahiriya	-11.2075
▁swimming	-11.2075
▁examining	-11.2075
▁defect	-11.2075
▁pour	-11.2076
▁herewith	-11.2077
▁separately	-11.2077
▁translate	-11.2082
pm	-11.2084
▁recreational	-11.2085
chairman	-11.2089
▁expectation	-11.2091
▁stresses	-11.2099
▁kuwaiti	-11.2105
▁congratulations	-11.2112
▁decolonization	-11.2112
▁furniture	-11.2112
▁recession	-11.2112
▁situated	-11.2112
▁supplied	-11.2112
▁unesco	-11.2112
▁visual	-11.2113
reaching	-11.2121
▁mill	-11.2131
national	-11.2137
▁rob	-11.214
100000000	-11.2142
▁arriving	-11.215
▁conscience	-11.215
▁regrettably	-11.215
▁testimony	-11.215
▁hague	-11.2153
▁migrant	-11.2153
▁contradiction	-11.216
week	-11.2165
▁prof	-11.218
▁chaired	-11.2185
▁christmas	-11.2188
▁immense	-11.2188
▁scenario	-11.2188
▁tendency	-11.2188
▁centuries	-11.2188
▁learnt	-11.2212
▁rarely	-11.2213
▁musical	-11.2219
▁fraud	-11.2228
▁mount	-11.2231
43	-11.2236
▁exam	-11.2238
▁workplace	-11.2238
700	-11.2242
▁homeland	-11.2242
31	-11.2248
▁romania	-11.2248
▁eliminated	-11.2248
▁200000	-11.2248
kuang	-11.225
▁literary	-11.2264
▁officiat	-11.2264
▁vested	-11.2264
▁bowl	-11.2264
▁researchers	-11.2266
▁heroin	-11.2268
▁scholar	-11.2269
▁pei	-11.2269
low	-11.227
▁accomplished	-11.2281
▁memorial	-11.2303
▁reimbursement	-11.2303
▁confusion	-11.2303
▁evolve	-11.2303
▁junction	-11.2303
▁kinmen	-11.2303
▁crash	-11.2303
▁operator	-11.2308
who	-11.2309
2000000	-11.231
grade	-11.2312
▁1.5	-11.2322
▁compatriots	-11.2341
▁disclosure	-11.2341
▁investigator	-11.2341
▁thick	-11.2341
▁milk	-11.2341
▁abide	-11.2342
▁precedent	-11.2345
group	-11.2358
▁cruel	-11.2359
ranking	-11.2359
▁span	-11.2359
▁retired	-11.2362
▁arabic	-11.2367
▁initiate	-11.2371
▁imperial	-11.238
▁persuade	-11.238
▁silver	-11.238
▁yemen	-11.2381
▁expeditiously	-11.2386
▁encouragement	-11.2408
▁rating	-11.241
29	-11.2418
▁indictment	-11.2418
▁termination	-11.2418
56	-11.2419
▁hydro	-11.2419
▁subscribe	-11.2423
▁circulated	-11.2425
▁rome	-11.2428
▁hunt	-11.2428
▁angle	-11.2428
▁withdrawn	-11.2439
▁paul	-11.244
▁hakka	-11.2457
▁insecurity	-11.2457
▁maternity	-11.2457
▁cantonese	-11.2457
▁opium	-11.2457
▁1949	-11.2457
▁painful	-11.2458
▁successor	-11.246
▁rocket	-11.2461
900000	-11.2465
employment	-11.2469
▁recruited	-11.247
elect	-11.2477
▁appropriation	-11.2496
▁magnitude	-11.2496
▁underground	-11.2496
▁secretaries	-11.2497
▁kick	-11.2502
seung	-11.2505
mei	-11.2507
new	-11.2507
▁ignor	-11.2509
▁thin	-11.2524
54	-11.253
▁automatic	-11.2535
▁patent	-11.2536
▁carries	-11.254
▁offset	-11.2541
▁earnest	-11.2541
▁modernization	-11.2543
▁widening	-11.2543
▁countryside	-11.2566
▁dedication	-11.2575
▁degradation	-11.2575
▁demographic	-11.2575
▁eliminating	-11.2575
▁montenegro	-11.2575
▁remedy	-11.2575
▁undcp	-11.2575
cher	-11.2584
▁mono	-11.259
▁abkhaz	-11.2614
▁fishermen	-11.2614
▁recognizing	-11.2614
▁cairo	-11.2614
▁dispose	-11.2615
▁italian	-11.2615
▁fri	-11.2617
▁weekend	-11.2618
▁compar	-11.2629
▁fabric	-11.2632
▁disadvantaged	-11.2635
▁planet	-11.2644
▁deciding	-11.2654
▁disparity	-11.2654
▁patron	-11.2654
▁regrettable	-11.2655
▁lifestyle	-11.2658
▁yam	-11.2671
▁exempt	-11.2684
▁lao	-11.2687
▁overlook	-11.2688
▁drain	-11.2692
▁graduated	-11.2694
▁exacerbat	-11.2694
▁handicapped	-11.2694
▁inevitable	-11.2694
▁offensive	-11.2694
▁estonia	-11.2694
▁printed	-11.2694
▁tonnes	-11.2695
▁diet	-11.2695
▁stepped	-11.27
▁kan	-11.272
▁sham	-11.2721
▁mali	-11.2724
▁chose	-11.2724
▁bail	-11.2726
▁originat	-11.2729
▁aggressive	-11.2734
▁perceived	-11.2734
▁whilst	-11.2734
▁symptom	-11.2734
▁mtrc	-11.2735
▁discharged	-11.2748
election	-11.2755
▁governed	-11.2763
▁exercising	-11.2774
▁experiencing	-11.2774
▁impressive	-11.2774
▁purchasing	-11.2774
▁bulk	-11.2774
▁durable	-11.2774
▁advent	-11.2775
▁asean	-11.2777
▁committing	-11.278
▁luck	-11.2784
feng	-11.2797
lessness	-11.2799
▁balkan	-11.2814
▁currencies	-11.2814
▁indebted	-11.2814
▁nairobi	-11.2814
▁nowadays	-11.2814
▁symposium	-11.2814
▁finland	-11.2814
▁loyal	-11.2815
▁hostile	-11.2816
▁classification	-11.2817
▁auditors	-11.2818
▁impede	-11.2822
▁disclose	-11.283
▁shooting	-11.2839
85	-11.2844
53	-11.2845
▁uncertain	-11.2853
▁privacy	-11.2855
▁coincide	-11.2855
▁pray	-11.2855
▁avian	-11.2856
▁smile	-11.2856
▁electors	-11.2857
▁lei	-11.2864
roots	-11.2876
▁somali	-11.2889
▁demobilization	-11.2896
▁relocation	-11.2896
▁sweet	-11.2896
seekers	-11.2896
▁tsu	-11.2909
▁sat	-11.2915
▁neighbor	-11.2936
▁kazakhstan	-11.2936
▁kidnap	-11.2936
▁reservoir	-11.2936
▁scientists	-11.2936
▁unfpa	-11.2936
▁bottle	-11.2938
▁jade	-11.2948
▁continental	-11.2956
▁classical	-11.2959
▁franc	-11.2973
▁conform	-11.2977
▁escalation	-11.2977
▁precaution	-11.2977
▁cyber	-11.2977
▁isolated	-11.2978
▁timing	-11.2981
▁fulfilled	-11.2982
▁await	-11.2993
pass	-11.2994
▁yeh	-11.2995
stream	-11.2997
speaking	-11.2999
▁cluster	-11.3019
▁securing	-11.3019
▁conceal	-11.3019
▁england	-11.3019
▁replied	-11.3019
▁preferred	-11.3021
▁programming	-11.3021
▁mentally	-11.3022
▁engagement	-11.3029
such	-11.3045
▁advocacy	-11.306
▁hidden	-11.306
▁whi	-11.306
▁terminate	-11.3062
▁ticket	-11.3081
▁ancestor	-11.3101
▁corridor	-11.3101
▁routine	-11.3101
▁scrutiny	-11.3101
▁unexpected	-11.3101
▁livestock	-11.3101
▁downward	-11.3113
▁decent	-11.3117
ofar	-11.3129
▁lap	-11.313
▁incumbent	-11.3143
▁taichung	-11.3146
▁egyptian	-11.3147
▁fairness	-11.316
▁commenced	-11.3181
▁directorate	-11.3184
▁zero	-11.3185
▁copyright	-11.3185
jun	-11.3186
▁legend	-11.3186
▁stir	-11.3193
conflict	-11.3208
▁sincerely	-11.322
▁constituent	-11.3227
▁doctrine	-11.3227
▁emergencies	-11.3227
▁fluctuation	-11.3227
▁phenomena	-11.3227
▁resolute	-11.3227
▁striving	-11.3227
▁varied	-11.3227
▁minimize	-11.3227
▁ride	-11.3228
▁recourse	-11.3233
▁bold	-11.3244
course	-11.3244
▁prosecuted	-11.3247
sunday	-11.3251
child	-11.3254
▁behavior	-11.3269
▁entitlement	-11.3269
▁recycling	-11.3269
▁subsistence	-11.3269
▁modification	-11.3269
▁namibia	-11.3269
▁urging	-11.3269
▁float	-11.327
▁hurt	-11.3275
▁bone	-11.3276
▁fatal	-11.3292
burg	-11.33
▁disrupt	-11.3301
▁chart	-11.3304
rop	-11.3306
▁consume	-11.3306
5,000	-11.3311
▁abortion	-11.3311
▁voluntarily	-11.3311
▁lobby	-11.3311
▁notify	-11.3312
▁stringent	-11.3313
▁sponsors	-11.3314
▁toxic	-11.3314
▁frontier	-11.3315
400000000	-11.3319
▁fulfilment	-11.3324
▁pier	-11.3335
hsiung	-11.3348
52	-11.3353
▁cheuk	-11.3354
▁composite	-11.3354
▁conversion	-11.3354
▁globe	-11.3354
▁mechanical	-11.3354
▁poetry	-11.3354
▁subprogramme	-11.3354
▁exact	-11.336
▁fujian	-11.3371
metric	-11.3371
▁poorest	-11.3377
▁cite	-11.3394
▁adjacent	-11.3397
▁calendar	-11.3397
▁perpetrated	-11.3397
▁embrace	-11.3397
▁opposing	-11.3397
▁cessation	-11.3397
▁hinder	-11.3397
▁inventory	-11.3397
▁renowned	-11.3397
▁algeria	-11.3397
▁hsieh	-11.3398
▁finger	-11.3404
▁mature	-11.3404
▁marginal	-11.3406
▁giant	-11.3406
▁pao	-11.341
▁merger	-11.3417
pic	-11.3432
▁1950	-11.3434
▁catholic	-11.344
▁infrastructural	-11.344
▁joseph	-11.344
▁puppet	-11.344
▁denial	-11.344
▁macroeconomic	-11.344
▁neck	-11.3448
▁layer	-11.3455
▁featur	-11.3473
iii	-11.3481
▁california	-11.3483
▁jamaica	-11.3483
▁studio	-11.3483
▁inviting	-11.3483
▁customary	-11.3484
▁scarce	-11.3486
liang	-11.3492
turn	-11.3497
▁hunger	-11.3509
▁client	-11.3513
▁maxim	-11.3525
▁ambulance	-11.3526
▁motivated	-11.3526
▁elite	-11.3532
▁revive	-11.3533
▁lord	-11.3535
▁suspend	-11.3536
ette	-11.3544
kofi	-11.3553
▁enthusiastic	-11.3569
curricula	-11.357
▁jeopardize	-11.357
▁kilograms	-11.357
▁caution	-11.357
▁shortcomings	-11.357
▁desertification	-11.357
▁yourself	-11.3573
▁simultaneously	-11.3577
▁organic	-11.3579
600000000	-11.3582
▁allocate	-11.3588
▁artificial	-11.3613
▁scourge	-11.3613
▁prestig	-11.3613
▁tibet	-11.3614
▁scholarship	-11.3614
▁optimistic	-11.3614
9000000	-11.3614
▁complementary	-11.3616
chih	-11.3644
▁contingency	-11.3657
▁margaret	-11.3657
▁divert	-11.3657
▁tangible	-11.3659
▁distinguish	-11.3668
▁kao	-11.3669
january	-11.3685
minded	-11.3686
▁compensate	-11.3701
▁legitimacy	-11.3701
▁merchant	-11.3701
▁remedies	-11.3701
▁silent	-11.3701
▁domain	-11.3701
▁robert	-11.3702
▁npc	-11.3703
▁forestry	-11.3705
fehd	-11.3706
▁tape	-11.372
▁lying	-11.3738
▁flagrant	-11.3745
▁horizon	-11.3745
▁mercenaries	-11.3745
▁funeral	-11.3745
▁golf	-11.3746
▁passion	-11.3747
▁dominate	-11.375
▁strain	-11.3767
▁stake	-11.3767
count	-11.3773
▁fao	-11.3781
39	-11.3785
▁bahrain	-11.379
▁elaboration	-11.379
▁frustration	-11.379
▁lithuania	-11.379
▁annum	-11.379
▁coach	-11.379
▁bigger	-11.3794
▁1978	-11.3796
▁ruf	-11.38
kai	-11.38
▁fei	-11.3803
▁clan	-11.3809
▁complainant	-11.381
▁solicit	-11.3814
▁recipient	-11.3827
▁benchmark	-11.3834
▁irregular	-11.3834
▁sword	-11.3834
▁hawk	-11.3835
▁sustainability	-11.3836
zhen	-11.3838
cost	-11.3843
▁pond	-11.3849
▁burst	-11.3855
41	-11.3857
operate	-11.3872
▁tap	-11.3876
▁adherence	-11.3879
▁encompass	-11.3879
▁backward	-11.3892
▁devise	-11.3893
▁shame	-11.3898
76	-11.3899
▁vigorously	-11.3899
scribed	-11.3912
▁authentic	-11.3924
▁altogether	-11.3924
▁cameroon	-11.3924
▁distress	-11.3924
▁expedite	-11.3924
▁mandarin	-11.3924
▁slovak	-11.3924
▁veteran	-11.3924
▁replies	-11.3924
▁levy	-11.3924
▁expire	-11.3924
▁isolation	-11.3925
▁arose	-11.3925
▁dramatically	-11.3926
▁orbit	-11.3928
▁1976	-11.3928
▁occurring	-11.3928
▁kim	-11.3949
5000000000	-11.3968
▁circulation	-11.397
▁commemorate	-11.397
▁spectrum	-11.397
▁charging	-11.397
▁belgrade	-11.397
▁nominated	-11.397
▁preserving	-11.397
▁humankind	-11.397
▁instant	-11.3971
▁proposing	-11.3971
▁airspace	-11.3971
▁split	-11.3972
▁rejection	-11.3976
▁rico	-11.3977
kuo	-11.3979
▁poem	-11.3979
▁shipment	-11.3985
▁crude	-11.3987
▁custom	-11.3996
gress	-11.4014
▁coffee	-11.4015
▁cultivate	-11.4015
▁definitive	-11.4015
▁opponent	-11.4015
▁zambia	-11.4015
▁renovat	-11.4015
▁yao	-11.4016
▁birthday	-11.4019
contributing	-11.4046
57	-11.4049
▁2000-2001	-11.4061
▁completing	-11.4061
▁moratorium	-11.4061
▁reorganiz	-11.4061
▁utility	-11.4061
▁undertook	-11.4061
▁sudanese	-11.4062
▁recurrent	-11.4066
800000000	-11.4068
skilled	-11.4076
bank	-11.4088
february	-11.4092
▁coexistence	-11.4107
▁redeploy	-11.4107
▁grassroots	-11.4107
▁underlined	-11.4107
▁burning	-11.411
▁govern	-11.4115
▁condemnation	-11.4117
▁wise	-11.4117
▁endorse	-11.4125
▁limitation	-11.4125
▁anywhere	-11.4153
▁deprivation	-11.4153
▁intensified	-11.4153
▁mozambique	-11.4153
▁whatsoever	-11.4153
▁tainan	-11.4156
▁loud	-11.416
▁competing	-11.4199
▁convergence	-11.4199
▁devastating	-11.4199
▁piracy	-11.4199
▁vulnerability	-11.4199
▁outlets	-11.42
▁guardian	-11.4203
▁retire	-11.4217
▁exclude	-11.422
action	-11.4223
drug	-11.4232
neighbour	-11.4244
▁fragile	-11.4245
▁gallery	-11.4245
▁kyrgyzstan	-11.4245
▁mosquito	-11.4245
▁stadium	-11.4245
▁device	-11.4246
▁illnesses	-11.4259
▁fortunately	-11.426
friendly	-11.4278
service	-11.428
▁champion	-11.4292
▁bankrupt	-11.4292
▁controversy	-11.4292
▁procurator	-11.4292
▁zaire	-11.4292
▁undergone	-11.4292
▁zheng	-11.4292
▁uncertainties	-11.4293
▁kha	-11.4296
▁plum	-11.4297
▁protective	-11.4313
commerce	-11.4326
frame	-11.4326
makers	-11.4326
▁remedial	-11.4339
▁pharma	-11.4339
▁minimal	-11.4339
eight	-11.4339
▁automatically	-11.4341
▁campus	-11.4356
▁authorize	-11.4371
▁compelled	-11.4386
▁intimidation	-11.4386
▁robust	-11.4386
▁peasant	-11.4386
▁stephen	-11.4386
▁matsu	-11.4386
▁assuming	-11.4386
▁smart	-11.4387
▁colleague	-11.4389
▁lady	-11.4391
▁drum	-11.4403
▁1000000000	-11.4426
▁enshrin	-11.4434
▁reluctant	-11.4434
▁silence	-11.4434
▁confirmation	-11.4445
▁singer	-11.4454
elina	-11.446
jen	-11.4474
posing	-11.4479
▁boss	-11.448
▁bangkok	-11.4481
▁premature	-11.4481
▁qatar	-11.4481
▁suspicious	-11.4481
▁1967	-11.4481
▁adjourn	-11.4481
▁dawn	-11.4481
▁lantern	-11.4482
▁optical	-11.4483
▁technique	-11.4486
▁1975	-11.4486
▁invoke	-11.449
▁grace	-11.4494
hearted	-11.4505
▁jean	-11.4509
▁unified	-11.4512
committee	-11.4515
controlled	-11.4517
▁paramount	-11.4529
▁brush	-11.4529
▁implies	-11.4529
▁turtle	-11.4529
hsiang	-11.4542
▁clinical	-11.4546
▁chor	-11.456
▁bargaining	-11.4577
▁criterion	-11.4577
▁deputies	-11.4577
▁expectancy	-11.4577
▁injustice	-11.4577
▁adjudicat	-11.4577
▁soccer	-11.4577
▁drove	-11.4577
▁emily	-11.4577
▁youngsters	-11.4578
▁northeast	-11.4578
▁sahara	-11.4597
post	-11.4617
translated	-11.4617
▁enquiry	-11.4626
▁monument	-11.4626
▁welcoming	-11.4626
▁underscore	-11.4626
▁ancestr	-11.4626
▁1974	-11.4626
▁batch	-11.4626
step	-11.4632
▁popularity	-11.4645
▁armenian	-11.4649
▁criticize	-11.4651
vor	-11.4655
▁install	-11.466
permanent	-11.4662
elecommunication	-11.4664
1000000	-11.4665
▁clarified	-11.4674
▁kuomintang	-11.4674
▁memories	-11.4674
▁preferential	-11.4674
▁1981	-11.4674
▁ambition	-11.4674
▁sfc	-11.4674
▁nobel	-11.4674
▁blockade	-11.4675
▁nominal	-11.4675
▁painter	-11.469
▁disadvantage	-11.4697
▁eventual	-11.4706
mediterranean	-11.4723
▁avenue	-11.4723
▁rainfall	-11.4723
▁relocate	-11.4723
▁shareholders	-11.4723
▁descend	-11.4723
▁lpg	-11.4723
▁basin	-11.4753
space	-11.4761
▁abundant	-11.4772
▁clashes	-11.4772
▁frederic	-11.4772
▁jakarta	-11.4772
▁prerequisite	-11.4772
▁utilities	-11.4772
▁variation	-11.4772
▁eager	-11.4772
▁contend	-11.4772
▁councillors	-11.4773
▁tune	-11.4819
▁carnival	-11.4821
▁jewish	-11.4821
▁literacy	-11.4821
▁prevalence	-11.4821
▁swift	-11.4821
▁oios	-11.4821
▁statue	-11.4825
▁boxes	-11.4835
fai	-11.484
▁influx	-11.4871
▁kashmir	-11.4871
▁packaging	-11.4871
▁ratify	-11.4871
▁xinhua	-11.4871
bissau	-11.4871
▁fierce	-11.4871
▁cherish	-11.4871
▁whereabouts	-11.4871
▁pricing	-11.4871
▁drift	-11.4871
▁trick	-11.4877
▁tackl	-11.488
▁vitality	-11.4883
▁fruitful	-11.4894
charge	-11.4908
▁trainees	-11.491
▁conscious	-11.4918
▁assassination	-11.492
▁disappointing	-11.492
▁diversification	-11.492
▁emirates	-11.492
▁frozen	-11.492
▁immunity	-11.492
▁pronounce	-11.492
▁putonghua	-11.492
▁vaccine	-11.492
▁latvia	-11.492
▁solemn	-11.492
▁flavor	-11.4921
▁hungary	-11.4927
▁reasonably	-11.4931
▁cure	-11.4942
▁confine	-11.4949
▁refuge	-11.4954
▁deteriorating	-11.497
▁ghost	-11.497
▁judging	-11.497
▁vicious	-11.497
▁garment	-11.497
▁returnees	-11.4971
▁slaughter	-11.4973
▁10,000	-11.4974
▁lucky	-11.4982
▁kilo	-11.5017
▁bolivia	-11.5021
▁navigation	-11.5021
▁practicable	-11.5021
▁shortfall	-11.5021
▁kcrc	-11.5021
▁nursing	-11.5021
▁stabilize	-11.5021
▁desert	-11.5022
jeou	-11.5022
▁attainment	-11.5027
▁validity	-11.5028
▁mentality	-11.503
▁soldier	-11.5038
amendment	-11.5061
country	-11.5063
▁accuracy	-11.5071
▁atrocities	-11.5071
▁radioactive	-11.5071
▁proactive	-11.5071
▁hardware	-11.5071
▁pirated	-11.5071
▁sensing	-11.5071
▁entries	-11.5071
▁fireworks	-11.5071
▁wedding	-11.5072
▁supervise	-11.5072
▁dismissal	-11.5082
▁faithful	-11.5089
▁vii	-11.5091
▁fix	-11.5102
▁buddha	-11.5122
▁calligraphy	-11.5122
▁cautious	-11.5122
▁confiscation	-11.5122
▁intercepted	-11.5122
▁spokesperson	-11.5122
▁scrap	-11.5124
▁endorsement	-11.5125
▁delegate	-11.514
▁allegation	-11.514
▁servant	-11.514
judicial	-11.5164
▁furnish	-11.5173
▁unrwa	-11.5173
▁setback	-11.518
▁leong	-11.5181
04	-11.5214
▁initiat	-11.5222
▁correctional	-11.5224
▁championship	-11.5225
▁wrongful	-11.5229
▁pound	-11.5236
▁wooden	-11.5236
▁combine	-11.5251
▁parade	-11.5258
about	-11.5271
▁consulate	-11.5276
▁syndicate	-11.5276
▁portuguese	-11.5276
▁racist	-11.5276
▁sweep	-11.5276
▁redress	-11.5276
▁pump	-11.528
▁2008	-11.5284
▁mood	-11.5285
▁rebuild	-11.5288
▁fortunate	-11.5311
▁incite	-11.5313
▁tolerate	-11.5313
contract	-11.5319
discrimination	-11.5319
wood	-11.5321
▁casual	-11.5327
▁deterrent	-11.5328
▁discriminate	-11.5328
▁pragmatic	-11.5328
▁stakeholders	-11.5328
▁interrogat	-11.5328
▁prosecute	-11.5354
▁madrid	-11.538
▁mexican	-11.538
▁promising	-11.538
▁cinema	-11.538
▁kitchen	-11.538
▁tongue	-11.538
▁tuition	-11.5381
misunderstanding	-11.5432
▁imminent	-11.5432
▁monopoly	-11.5432
▁propaganda	-11.5432
▁stabilization	-11.5432
▁zimbabwe	-11.5432
▁dominant	-11.5432
▁flourish	-11.5432
▁monuc	-11.5432
▁vacation	-11.5432
▁sichuan	-11.5433
▁audio	-11.5438
▁disappear	-11.545
100000	-11.5464
finding	-11.5477
ographic	-11.548
▁extremist	-11.5485
▁infectious	-11.5485
▁senegal	-11.5485
▁bread	-11.5485
▁hatred	-11.5485
▁preamb	-11.5486
▁surgery	-11.5487
▁string	-11.5494
expend	-11.5501
▁flor	-11.5502
▁qian	-11.5528
specific	-11.553
▁(2001)	-11.5538
▁arusha	-11.5538
▁clinton	-11.5538
▁respiratory	-11.5538
▁yong	-11.5538
▁offshore	-11.5541
▁sail	-11.5542
▁indicator	-11.5564
▁characteristic	-11.5567
▁amnesty	-11.5591
▁challenging	-11.5591
▁incompatible	-11.5591
▁mercenary	-11.5591
▁retention	-11.5591
▁intolerance	-11.5591
▁warfare	-11.5591
▁pretty	-11.5591
▁teenage	-11.5591
▁blank	-11.5591
▁loose	-11.5592
▁magic	-11.5594
▁spell	-11.5595
▁aggregate	-11.5644
▁controversial	-11.5644
▁fought	-11.5644
▁observatory	-11.5644
▁resettlement	-11.5644
▁(1999)	-11.5644
▁anxious	-11.5644
▁malaria	-11.5644
▁marginalized	-11.5646
▁streamline	-11.5647
▁hsinchu	-11.5653
▁disruption	-11.5658
▁hide	-11.566
▁solicitor	-11.5668
▁organise	-11.568
intensive	-11.5691
▁northwest	-11.5691
▁appraisal	-11.5698
▁interactive	-11.5698
▁knock	-11.5698
▁pneumonia	-11.5698
▁pocket	-11.5698
▁reconsider	-11.5698
▁pioneer	-11.5698
▁vendor	-11.5698
mobilizing	-11.5698
▁distant	-11.5698
▁aftermath	-11.5698
▁sincerity	-11.5698
▁consciousness	-11.57
▁princess	-11.5704
▁inmates	-11.5709
▁induce	-11.5717
quality	-11.5743
sharing	-11.5748
▁avail	-11.5749
▁affiliate	-11.5752
▁bacteria	-11.5752
▁happiness	-11.5752
▁hussein	-11.5752
▁indefinite	-11.5752
▁souvenir	-11.5752
▁dutch	-11.5752
▁barrel	-11.5752
▁meteorological	-11.5752
▁tseng	-11.5752
700000000	-11.5795
hksar	-11.5801
excluding	-11.5806
▁default	-11.5806
▁disparities	-11.5806
▁mobility	-11.5806
▁superintendent	-11.5806
▁fertilizer	-11.5806
▁scenic	-11.5806
▁vacant	-11.5806
▁harbor	-11.5806
▁penetrat	-11.5807
▁invad	-11.5816
▁shake	-11.5822
▁revise	-11.584
▁concur	-11.5858
▁automobile	-11.5861
▁demonstrators	-11.5861
▁destructive	-11.5861
▁economist	-11.5861
▁interdependence	-11.5861
▁milestone	-11.5861
▁qualify	-11.5861
▁repeal	-11.5861
▁sinica	-11.5862
structure	-11.591
▁baseball	-11.5916
▁breakthrough	-11.5916
▁brigade	-11.5916
▁cumulative	-11.5916
▁disturbance	-11.5916
▁faculty	-11.5916
▁inconsistent	-11.5916
▁theoretical	-11.5916
▁erect	-11.5923
loving	-11.5925
▁chop	-11.5949
minute	-11.5966
▁gravity	-11.5971
▁imagination	-11.5971
▁liabilities	-11.5971
▁mitigate	-11.5971
▁shrink	-11.5971
▁unequivocal	-11.5971
▁biotechnology	-11.5971
▁(5)	-11.5973
▁banned	-11.5975
▁complicat	-11.5994
▁convince	-11.6002
▁geographic	-11.6026
▁advancing	-11.6027
▁artillery	-11.6027
▁conspiracy	-11.6027
▁fertility	-11.6027
▁regulating	-11.6027
▁twentieth	-11.6027
▁ethical	-11.6027
▁receivable	-11.6027
▁subsection	-11.6027
▁governorates	-11.6027
▁evaluat	-11.6048
▁0.1	-11.6076
language	-11.6078
exploded	-11.6083
▁cancelled	-11.6083
▁excellence	-11.6083
▁spark	-11.6083
▁utilize	-11.6114
▁0.2	-11.6116
developed	-11.6135
connect	-11.6136
▁irrigation	-11.6139
▁column	-11.6139
▁regain	-11.6139
phone	-11.614
▁motorists	-11.6141
▁entertain	-11.6192
▁chernobyl	-11.6195
▁modified	-11.6195
▁inception	-11.6195
▁inequality	-11.6196
▁debris	-11.6196
▁saint	-11.6197
▁insult	-11.6198
▁combatants	-11.62
▁narcotic	-11.6237
▁analytical	-11.6252
▁enlighten	-11.6252
▁neighbourhood	-11.6252
▁intensity	-11.6252
▁mirror	-11.6252
▁ghana	-11.6252
▁senate	-11.6252
▁demining	-11.6252
▁pitch	-11.6253
▁tired	-11.626
▁exile	-11.6266
▁restrain	-11.6279
metre	-11.6292
development	-11.63
▁extract	-11.6304
4.5	-11.6309
▁continuity	-11.6309
▁discourage	-11.6309
▁duplication	-11.6309
▁exploring	-11.6309
▁majesty	-11.6309
▁ombudsman	-11.6309
▁delighted	-11.6309
▁swiss	-11.631
▁icac	-11.631
▁marginalization	-11.6311
▁overlap	-11.6313
▁remov	-11.6314
▁faso	-11.6315
official	-11.6364
miscellaneous	-11.6367
▁ambitious	-11.6367
▁escort	-11.6367
▁pipeline	-11.6367
▁scattered	-11.6367
▁credible	-11.6367
▁goodwill	-11.6367
▁rigid	-11.6367
▁warehouse	-11.6367
▁defining	-11.6367
▁dictatorship	-11.6367
▁chuang	-11.6372
generation	-11.6422
chinese	-11.6422
▁accumulation	-11.6425
▁apartheid	-11.6425
▁dominican	-11.6425
▁illiteracy	-11.6425
▁medication	-11.6425
▁tuberculosis	-11.6425
▁unclear	-11.6426
▁tenure	-11.6431
▁escap	-11.644
▁astronaut	-11.6483
▁consortium	-11.6483
▁dissatisfaction	-11.6483
▁striking	-11.6483
▁undesirable	-11.6483
▁forensic	-11.6483
▁steam	-11.6483
▁invalid	-11.6483
▁edward	-11.6484
consuming	-11.6485
▁subordinate	-11.6485
circ	-11.6494
▁anxiety	-11.6541
▁diversified	-11.6541
▁knife	-11.6541
▁thrust	-11.6541
▁zhao	-11.6541
▁stroke	-11.6541
▁motorcycle	-11.6541
▁wives	-11.6542
▁enrolled	-11.6542
▁trauma	-11.6542
▁hiring	-11.6547
graduate	-11.6598
▁abstain	-11.66
▁blossom	-11.66
▁burkina	-11.66
▁choosing	-11.66
▁facilitator	-11.66
▁george	-11.66
▁mosque	-11.66
▁feedback	-11.66
▁thirty	-11.6659
▁inalienable	-11.6659
▁rigorous	-11.6659
▁forcibl	-11.6696
cultural	-11.6717
▁graduation	-11.6719
▁influenza	-11.6719
▁repercussions	-11.6719
▁wfp	-11.6719
▁absent	-11.6719
▁landfill	-11.6719
▁oppress	-11.6719
▁shelf	-11.6719
▁inquiries	-11.6719
▁pork	-11.6719
▁restoring	-11.6719
▁bidding	-11.6719
▁standpoint	-11.6723
▁formosa	-11.6726
▁participant	-11.6773
▁cornerstone	-11.6779
▁evacuation	-11.6779
▁residing	-11.6779
▁disney	-11.6779
▁gesture	-11.6779
▁armour	-11.678
photo	-11.6816
employed	-11.6833
profit	-11.6839
nunciation	-11.6839
▁aforementioned	-11.6839
▁antarctic	-11.6839
▁desperate	-11.6839
▁disturbing	-11.6839
▁invariably	-11.6839
▁qualities	-11.6839
▁sandwich	-11.6839
▁revival	-11.6839
▁cartoon	-11.6839
▁ladies	-11.6839
▁wrap	-11.6845
price	-11.6862
▁distribute	-11.6874
▁advisor	-11.689
current	-11.6897
▁carriage	-11.6898
▁bronze	-11.6899
▁circuit	-11.6899
▁motivation	-11.6899
▁unprofor	-11.6899
▁vacuum	-11.6899
▁exciting	-11.6899
▁observing	-11.6899
▁carbon	-11.6899
assemble	-11.69
▁tribal	-11.6901
▁rival	-11.6901
▁affair	-11.6913
▁flame	-11.6925
1.1	-11.6925
▁fissile	-11.696
▁improper	-11.696
▁libraries	-11.696
▁scandal	-11.696
▁reopen	-11.696
▁parameters	-11.696
▁dancing	-11.6961
▁settling	-11.6961
▁admire	-11.6961
▁consequent	-11.7005
▁barrier	-11.702
▁arafat	-11.7022
▁disappointment	-11.7022
▁embarrass	-11.7022
▁hurricane	-11.7022
▁phoenix	-11.7022
▁precarious	-11.7022
▁syndrome	-11.7022
▁fifty	-11.7022
▁prescription	-11.7022
▁queue	-11.7022
▁cadres	-11.7022
▁undermining	-11.7022
▁injur	-11.703
▁mask	-11.7035
▁countermeasures	-11.7083
▁eligibility	-11.7083
▁erosion	-11.7083
▁integrating	-11.7083
▁srpska	-11.7083
▁interchange	-11.7084
▁fellowship	-11.7085
waiting	-11.7118
▁aggressor	-11.7146
▁denounc	-11.7146
▁diversion	-11.7146
▁participatory	-11.7146
▁plenty	-11.7146
▁valuation	-11.7146
▁militant	-11.7146
▁portray	-11.7146
parent	-11.7147
ranging	-11.7152
value	-11.7158
sighted	-11.7184
▁contradict	-11.7191
mitted	-11.7199
▁essay	-11.7208
▁uranium	-11.7208
▁compact	-11.7208
▁blueprint	-11.7209
▁architectural	-11.7271
▁demolition	-11.7271
▁ecosystem	-11.7271
▁responsive	-11.7271
▁sinorama	-11.7271
▁weaknesses	-11.7271
▁unconditional	-11.7271
▁diploma	-11.733
▁compatible	-11.7334
▁copenhagen	-11.7334
▁surpass	-11.7334
▁terrible	-11.7334
▁xiamen	-11.7334
▁retreat	-11.7334
decentralization	-11.7334
▁orphan	-11.7335
▁carriageway	-11.7335
firm	-11.7336
▁diplomats	-11.7336
▁enrol	-11.7339
▁complied	-11.7398
▁juncture	-11.7398
▁sarajevo	-11.7398
▁suffrage	-11.7398
▁depression	-11.7398
▁babies	-11.7398
▁acclaim	-11.7398
japanese	-11.7401
▁shoot	-11.7424
▁abstract	-11.7462
▁cooperating	-11.7462
▁demonstrating	-11.7462
▁gibraltar	-11.7462
▁honduras	-11.7462
▁instalment	-11.7462
▁malnutrition	-11.7462
▁qualitative	-11.7462
▁navy	-11.7462
▁bicycle	-11.7463
▁multicultural	-11.7463
first	-11.7466
▁brett	-11.7466
▁offender	-11.7469
▁croat	-11.7525
▁verdict	-11.7527
▁banquet	-11.7527
▁wholly	-11.7528
▁guess	-11.7528
designate	-11.7537
▁detain	-11.7558
▁libya	-11.758
▁conversation	-11.7592
▁impressed	-11.7592
▁infringement	-11.7592
▁measuring	-11.7592
▁carving	-11.7592
▁dispens	-11.7592
▁plaza	-11.7592
africa	-11.7597
▁occupy	-11.7619
▁communiqu	-11.7657
▁curtail	-11.7657
▁destiny	-11.7657
▁dissatisfied	-11.7657
▁nuisance	-11.7657
regulation	-11.7662
front	-11.767
▁equip	-11.7719
▁atypical	-11.7723
▁battalion	-11.7723
▁emphasizing	-11.7723
▁repatriated	-11.7723
▁republika	-11.7723
▁xenophobia	-11.7723
▁eliza	-11.7723
▁travellers	-11.7723
▁william	-11.7724
▁shuttle	-11.7724
▁horn	-11.7726
efficient	-11.7728
▁refus	-11.7734
▁qualification	-11.7735
▁architect	-11.7788
▁francisco	-11.7789
▁leather	-11.7789
▁moldova	-11.7789
▁repression	-11.7789
sharif	-11.779
marital	-11.7792
▁premise	-11.7803
▁apparatus	-11.7856
▁collaborate	-11.7856
▁harmonization	-11.7856
▁inconvenience	-11.7856
▁inspiration	-11.7856
▁simplified	-11.7856
▁bubble	-11.7856
▁delicate	-11.7856
▁neighborhood	-11.7856
▁slack	-11.7856
▁berlin	-11.7856
▁dishes	-11.7856
▁heroes	-11.7856
▁emanat	-11.7862
▁investigati	-11.7919
▁assignee	-11.7923
▁coherent	-11.7923
▁commensurate	-11.7923
▁proximity	-11.7923
▁recognised	-11.7923
▁volatile	-11.7923
▁heavier	-11.7923
▁shield	-11.7923
▁rthk	-11.7923
▁steep	-11.7923
1.8	-11.7975
▁blatant	-11.799
▁conciliation	-11.799
▁garrison	-11.799
▁metohija	-11.799
▁steal	-11.7991
▁unops	-11.7992
piece	-11.7998
dustrialization	-11.8046
▁boutros	-11.8058
▁consistency	-11.8058
▁contravene	-11.8058
▁cyclone	-11.8058
▁evacuate	-11.8058
▁evolving	-11.8058
▁nurture	-11.8058
▁conferred	-11.8058
▁cubic	-11.8058
▁overthrow	-11.8058
▁vivid	-11.8058
▁depot	-11.8059
▁dragg	-11.8059
chancellor	-11.8059
▁revert	-11.8061
▁communica	-11.8069
▁compassion	-11.8127
▁appliances	-11.8127
▁biodiversity	-11.8127
▁diabetes	-11.8127
▁ensemble	-11.8127
▁litigation	-11.8127
▁mauritius	-11.8127
▁surrounded	-11.8127
▁deplore	-11.8127
▁tennis	-11.8127
▁conceptual	-11.8127
0.6	-11.8129
cycle	-11.8144
▁outreach	-11.8179
▁believing	-11.8196
▁buddhism	-11.8196
▁cancellation	-11.8196
▁contamination	-11.8196
▁homosexual	-11.8196
▁immunities	-11.8196
▁patience	-11.8196
▁stomach	-11.8196
▁easing	-11.8196
▁henry	-11.8196
▁orchid	-11.8197
evaluation	-11.8205
western	-11.8218
▁deficiencies	-11.8265
▁expulsion	-11.8265
▁tianjin	-11.8265
▁cotton	-11.8265
▁crystal	-11.8265
ymond	-11.8266
▁unstable	-11.8266
talling	-11.8276
funded	-11.8302
▁announcing	-11.8335
▁contaminated	-11.8335
▁presiding	-11.8335
▁slovenia	-11.8335
▁tantamount	-11.8335
▁digest	-11.8335
▁revolv	-11.8337
ozp	-11.8339
5.5	-11.839
▁argentine	-11.8406
▁discontent	-11.8406
▁illustration	-11.8406
▁kinshasa	-11.8406
▁koizumi	-11.8406
▁pandemic	-11.8406
▁papua	-11.8406
▁proprietor	-11.8406
▁technician	-11.8406
▁insight	-11.8406
▁plague	-11.8408
7.5	-11.8416
2.4	-11.8475
▁acquiring	-11.8476
▁contravention	-11.8476
▁influential	-11.8476
▁smuggle	-11.8476
▁virgin	-11.8476
▁shandong	-11.8476
departmental	-11.8488
▁aspiration	-11.8504
▁intermediate	-11.8548
▁paradise	-11.8548
▁reliability	-11.8548
▁festive	-11.8548
esteem	-11.8548
▁forefront	-11.8548
▁shark	-11.8548
▁outrage	-11.855
compliance	-11.8559
▁envisage	-11.8595
▁0.7	-11.8596
▁demolish	-11.862
▁excited	-11.862
▁prevalent	-11.862
▁vaccination	-11.862
▁arsenal	-11.862
▁dengue	-11.862
▁trunk	-11.862
▁polish	-11.862
▁choy	-11.862
ctbt	-11.8621
▁applaud	-11.8692
▁consolidating	-11.8692
▁foodstuffs	-11.8692
▁legacy	-11.8692
▁sculpture	-11.8692
▁violating	-11.8692
▁damaging	-11.8692
▁szeto	-11.8692
▁deletion	-11.8692
▁interface	-11.8693
digit	-11.8696
intervention	-11.8705
▁barbados	-11.8765
▁circular	-11.8765
▁magistracy	-11.8765
▁stanley	-11.8765
▁yeoh	-11.8765
▁therapy	-11.8765
▁reparation	-11.8765
▁tripartit	-11.8766
50,000	-11.8786
▁aesthetic	-11.8839
▁garbage	-11.8839
▁invaluable	-11.8839
▁metropolitan	-11.8839
▁porcelain	-11.8839
represented	-11.8852
laughter	-11.8892
▁balti	-11.8899
▁prima	-11.8913
▁analyze	-11.8913
▁anybody	-11.8913
▁physician	-11.8913
▁separatist	-11.8913
▁unequal	-11.8913
▁decoration	-11.8913
▁eminent	-11.8913
▁sacred	-11.8913
▁timber	-11.8913
▁zedong	-11.8913
▁sorrow	-11.8913
▁transcend	-11.8913
▁martyr	-11.8913
▁twist	-11.8913
▁aspire	-11.8918
regional	-11.8925
▁musicians	-11.8983
▁aborigines	-11.8988
▁accreditation	-11.8988
▁armaments	-11.8988
▁convincing	-11.8988
▁enemies	-11.8988
▁mitigation	-11.8988
▁overcrowding	-11.8988
▁afflict	-11.8988
▁conscientious	-11.8988
▁brown	-11.8988
▁freezing	-11.8988
▁dictate	-11.8988
▁seabed	-11.8988
present	-11.8996
habitat	-11.9
▁brilliant	-11.9063
▁compilation	-11.9063
▁dialect	-11.9063
▁discontinu	-11.9063
▁emigrate	-11.9063
▁mortar	-11.9063
▁recurrence	-11.9063
▁reinforcing	-11.9063
▁struggling	-11.9063
▁varieties	-11.9063
▁clerk	-11.9063
▁vetting	-11.9063
▁ideology	-11.9063
▁arranging	-11.9063
authorized	-11.9083
▁celebrating	-11.9138
▁chongqing	-11.9138
▁confucian	-11.9138
▁dilemma	-11.9138
▁protracted	-11.9138
▁buffer	-11.9138
▁relics	-11.9139
▁(6)	-11.9141
▁(2002)	-11.9215
▁applause	-11.9215
▁cannabis	-11.9215
▁catastrophe	-11.9215
▁democracies	-11.9215
▁episode	-11.9215
▁vibrant	-11.9215
▁psychiatri	-11.9215
▁transplant	-11.9215
▁landlord	-11.9215
▁anticipate	-11.9266
storey	-11.9285
▁basket	-11.9292
▁complementarity	-11.9292
▁diligent	-11.9292
▁dynasties	-11.9292
▁happily	-11.9292
▁unscrupulous	-11.9292
▁xinjiang	-11.9292
▁alternate	-11.9292
▁bloom	-11.9292
▁pesticide	-11.9292
▁inhabit	-11.9294
political	-11.9309
0.8	-11.9315
▁virtual	-11.9353
proprietary	-11.9369
▁altitude	-11.9369
▁concurrently	-11.9369
▁credentials	-11.9369
▁guerrilla	-11.9369
▁miracle	-11.9369
▁speculators	-11.9369
▁unrealistic	-11.9369
▁variable	-11.9369
▁nanjing	-11.9369
▁charity	-11.9369
▁smash	-11.9369
▁provoke	-11.9369
▁rotation	-11.9369
management	-11.9387
▁abduction	-11.9447
▁circum	-11.9447
▁earmarked	-11.9447
▁persecution	-11.9447
▁ukrainian	-11.9447
▁unhappy	-11.9447
▁widow	-11.9447
▁albeit	-11.9447
third	-11.9466
▁uncle	-11.9525
▁demarcation	-11.9526
▁jockey	-11.9526
▁laboratories	-11.9526
▁mathematics	-11.9526
▁residual	-11.9526
▁volatility	-11.9526
▁withdrew	-11.9526
▁zhejiang	-11.9526
▁vincent	-11.9526
mortem	-11.9526
▁(1991)	-11.9526
▁poppy	-11.9526
▁resembl	-11.9526
quarter	-11.9545
▁rehabilitat	-11.9602
▁alleviation	-11.9605
▁custodia	-11.9605
▁scrutiniz	-11.9605
▁silk	-11.9606
▁angry	-11.9607
▁athletic	-11.9685
▁expiry	-11.9685
▁impediment	-11.9685
▁inferior	-11.9685
▁legislate	-11.9685
▁modify	-11.9685
▁mandela	-11.9685
▁streamlining	-11.9685
▁columbia	-11.9686
▁hypo	-11.9686
▁monopoliz	-11.9686
▁zemin	-11.9686
control	-11.9705
fight	-11.9706
▁symboliz	-11.9742
▁despair	-11.9766
▁disastrous	-11.9766
▁elephant	-11.9766
▁inauguration	-11.9766
▁incursion	-11.9766
▁irresponsible	-11.9766
▁quarantine	-11.9766
▁rectify	-11.9766
▁renminbi	-11.9766
▁sydney	-11.9766
▁impasse	-11.9766
▁luncheon	-11.9766
▁portrait	-11.9766
▁blast	-11.9766
terrorist	-11.9787
▁array	-11.9847
▁comrade	-11.9847
▁exemplary	-11.9847
▁expatriate	-11.9847
▁kyoto	-11.9847
▁pavilion	-11.9847
▁tajik	-11.9847
▁tragedies	-11.9847
▁utilizing	-11.9847
▁stuck	-11.9847
▁ideological	-11.9847
▁evade	-11.9848
▁carved	-11.9848
producing	-11.9869
▁immigrant	-11.9907
resistant	-11.9911
▁accustomed	-11.9929
▁ambrose	-11.9929
▁apprehend	-11.9929
▁assemblies	-11.9929
▁ceramic	-11.9929
▁empire	-11.9929
▁facilitation	-11.9929
▁identical	-11.9929
▁luxembourg	-11.9929
▁ottawa	-11.9929
▁triumph	-11.9929
▁unsatisfactory	-11.9929
▁headache	-11.9929
▁landslide	-11.9929
▁colony	-11.9929
▁queries	-11.9929
▁invisible	-11.9929
▁teeth	-11.9929
▁sweat	-11.993
▁emblem	-11.995
affected	-11.9951
credit	-11.9959
▁definite	-11.9995
▁categori	-12.0006
▁macro	-12.0012
▁meteor	-12.0012
▁alleviating	-12.0012
▁describing	-12.0012
▁dissolution	-12.0012
▁refresh	-12.0012
▁reluctance	-12.0012
▁surname	-12.0012
▁humiliat	-12.0012
▁pertinent	-12.0012
▁payroll	-12.0012
▁radar	-12.0012
▁attribute	-12.007
▁abducted	-12.0095
▁likelihood	-12.0095
▁psychotropic	-12.0095
▁rampant	-12.0095
▁revitalization	-12.0095
▁speculative	-12.0095
▁worthwhile	-12.0095
▁captain	-12.0095
▁generator	-12.0095
▁snake	-12.0095
▁looting	-12.0095
6.5	-12.0109
productive	-12.0112
▁abnormal	-12.0179
▁ozone	-12.0179
▁advisable	-12.0179
▁collaborative	-12.0179
▁djibouti	-12.0179
▁hemisphere	-12.0179
▁housewives	-12.0179
▁survivors	-12.0179
▁strife	-12.0179
▁ambush	-12.0179
▁density	-12.0179
▁testify	-12.0179
▁indices	-12.0179
politiciz	-12.018
abiding	-12.0181
people	-12.0203
processing	-12.0204
bearing	-12.0204
▁aforesaid	-12.0264
▁analysts	-12.0264
▁energetic	-12.0264
▁envelope	-12.0264
▁immunization	-12.0264
▁malicious	-12.0264
▁semiconductor	-12.0264
▁signatories	-12.0264
▁unfounded	-12.0264
▁unomig	-12.0264
▁predominant	-12.0264
▁clarity	-12.0264
▁angeles	-12.0264
▁lonely	-12.0264
▁bonus	-12.0264
▁eradicat	-12.0308
ordinating	-12.0346
▁cholera	-12.035
▁curfew	-12.035
▁diagnosis	-12.035
▁elapsed	-12.035
▁hualien	-12.035
(	-13.4429
